#version: 0.2
Ġ t
ï ¼
ä ¸
Ġ a
h e
i n
ã Ģ
ï¼ Į
r e
o n
Ġt he
e r
ä º
a t
Ġ o
Ġ s
ç ļ
çļ Ħ
ãĢ Ĥ
e n
Ġ c
æ ľ
e s
Ġ w
i s
a n
å ı
å ħ
i t
o r
å ¹
a l
Ġ p
Ġa n
e d
Ġ b
Ġo f
Ġ f
ä »
in g
å ¤
a r
Ġ in
o u
å ľ
Ġ m
Ġan d
i c
å Ĳ
Ġt o
å Ī
i on
Ġ d
å¹ ´
å ®
å Ľ
ç Ķ
l e
ä ½
å į
r o
æ Ĺ
a s
â Ģ
å °
æ ĸ
ãĢ ģ
æ ĺ
ä ¹
è ¿
Ġ h
en t
Ġt h
ç »
å Ń
c t
i l
Ġ e
æ Ī
Ġ re
åľ ¨
ä¸ Ģ
o m
ï¼ Ī
ï¼ ī
ä¸ º
v e
Ġ l
ä ¼
s t
å ¸
å Ĭ
å Į
Ġ n
å Ĩ
æ Ŀ
è ¯
2 0
ä¸ Ń
l y
Ġb e
Ġ is
å ·
æĺ ¯
Ġ T
ç ī
è ®
å ¾
åĽ ½
o l
s e
å ¼
å º
é ĩ
ç º
Ġ g
at ion
å¤ §
äº º
e t
i m
1 9
i d
ç §
äº İ
å ±
c e
o t
å ĩ
æ ī
u t
u r
c h
é ĥ
r a
Ġ A
Ġ S
o w
æľ ī
è ¡
é Ģ
å İ
è µ
å Ĵ
æ Ń
i g
Ġf or
æľ Ī
å ¥
Ġ C
Ġ u
åĴ Į
å ½
Ġ on
Ġth at
é Ļ
è Ģ
ç İ
æ ķ
Ġs t
v er
ç Ľ
æ Ķ
æĹ ¥
i r
Ġ I
é ĺ
Ġ y
å ¯
a m
u l
æ ĭ
è ĩ
a y
e l
æ ł
åĲ İ
æ °
åŃ ¦
it h
a d
æ ²
Ġa s
æ ³
ç «
ä» ¥
æ µ
he r
Ġ (
è §
Ġp ro
å ĳ
Ġa re
äº Ĩ
ï¼ ļ
ç Ĳ
Ġc on
æĹ ¶
Ġ M
è ½
Ġw ith
i f
å ī
è ´
æĪ Ĳ
åľ °
è ¾
Ġy ou
t er
Ġo r
o d
Ġw h
Ġa l
æĸ ¯
å Ł
Ġ it
é Ĺ
Ġ P
ä¸ Ĭ
æ Ģ
n d
ç ¬
åĩ º
ä¼ ļ
ä» ĸ
ĠT he
g e
æ ¯
m ent
çĶ Ł
ä¸ ª
æ ´
t h
Ġ B
éĥ ¨
ãĢ ĭ
ãĢ Ĭ
o p
é ķ
æ ŀ
Â ·
æ Ľ
u s
is t
æ ¸
er s
Ġd e
ä¸ į
ä¸ İ
ä½ ľ
ä¹ ĭ
at e
é Ŀ
a b
il l
es s
ç¬ ¬
é ģ
è ĥ
i es
æ Ĭ
åĲ į
åħ ¬
Ġe x
Ġ he
è¡ Į
å° Ķ
âĢ ľ
ä ¿
u m
âĢ Ŀ
e ct
âĢ Ļ
o re
Ġ H
an d
Ġw e
ä¸ »
å® ¶
åĮ º
Ġc om
è ¥
a c
æ İ
ç ½
it y
es t
è¥ ¿
o s
20 1
u re
åĪ Ĩ
åħ ¶
i ve
è ¢
åı ĳ
é Ľ
åŃ Ĳ
å ¿
è ·
Ġ v
Ġ W
ro m
k e
! !
ç Ń
an t
l d
e m
i v
q u
Ġs u
Ġ D
a in
Ġb y
Ġ 1
æ ±
n t
0 0
æľ ¬
æ ¬
åĨ Ľ
Ġ E
p p
å »
ç ¾
Ġ R
é ¦
Ġa t
çĶ ¨
åĪ °
ig h
å ĵ
è¢ «
u d
Ġh a
o c
å §
Ġ F
ä ¾
è ĭ
Ġc an
en d
å¹ ¶
Ġw as
åį Ĺ
é ¢
Ġf rom
Ġ r
è ģ
Ġc h
or t
èĢ Į
é ©
éķ ¿
ä¸ ĭ
è ī
20 0
çī ¹
ç ľ
re s
åı Ĭ
Ġn e
ç ±
i al
Ġ G
çĶ ±
å¸ Ĥ
ä½ į
u n
ä¸ ī
Ġs e
Ġ L
æ Į
ä¸ ľ
æĿ ¥
Ġ N
èµ Ľ
å¾ ·
æľ Ģ
ar t
åħ ĭ
åĲ Į
è İ
æ³ ķ
t e
ic al
Ġn ot
Ġ le
é «
åĮ Ĺ
r i
éĩ Į
å¼ Ģ
æĸ ¹
åı ¯
å £
éģ ĵ
å¤ ļ
æ Ļ
å ²
é« ĺ
ç Ł
æĸ °
çĶ µ
ã ĥ
o g
çī ©
äº ļ
ç ¥
åī į
å Ŀ
è¿ Ļ
èĩ ª
Ġha ve
äº Į
åĳ ĺ
çĲ ĥ
åĬ ł
æĸ ĩ
å¯ ¹
åĬ ¨
ä» »
è· ¯
åĪ ©
è½ ¦
Ġs h
è Ī
Ġs p
ä¸ ĸ
è Ĭ
å± ±
å» º
å¾ Ĺ
Ġth is
ã ģ
ç¾ İ
å ¦
èĩ ³
al l
åį ģ
æµ ·
p t
æī Ģ
ic h
æ ¼
ç ©
å° ı
çİ °
ä» £
é ¡
åĽ ł
äº ĭ
igh t
é© ¬
r ou
Ġw or
re d
æľ º
è Ĳ
æĪ ĺ
¦ ģ
T he
Ġa b
éĹ ´
æĭ ī
åħ ¥
è¿ Ľ
ou r
o st
åĨ ħ
éĺ Ł
ç ķ
ä¹ Ł
ion s
ç» ı
è °
in e
ç Ī
é ļ
è¿ ĩ
t her
g h
ãĢ į
ãĢ Į
æķ Ļ
é ĵ
å¤ ©
åľ º
ou ld
a g
om e
ar d
å° Ĩ
æŃ ¤
p er
d u
è ¶
at ed
Ġ im
è ¦ģ
è Ĥ
åĲ Ī
çŃ ī
æĶ ¿
ç Ļ
Ġu s
el l
åı °
Ġ O
å· ¥
çº ¿
å¹ ³
ä½ ĵ
ç ¤
å· ŀ
a ct
f f
æľ Ł
Ġp l
id e
çİ ĭ
èĥ ½
çĲ Ĩ
é £
ou t
æ ĥ
åĪ ¶
ç« Ļ
ä¸ ļ
Ġ en
Ġ J
Ġthe ir
p l
éĢ ļ
ã Ĥ
a k
æ¬ ¡
Ġ 19
an s
è® ¾
ç ®
ç« ĭ
e ar
æ¼ Ķ
å½ ĵ
a ge
e c
å¤ ĸ
ç§ ĳ
Ġ k
æ° ĳ
æ Ħ
åº ¦
as t
åĮ ĸ
u st
ç½ Ĺ
ä½ Ĩ
i a
Ġ U
å¸ ĥ
Ġyou r
i z
é Ł
ç§ į
éĿ ¢
ä½ ¿
å® ī
ou s
Ġwh ich
ï¼ī ï¼Į
Ġw he
åı ·
èģ Ķ
æ ı
Ġthe y
èĢ ħ
a p
o od
å® ļ
ç ³
æ Ł
æ ģ
i b
1 0
åħ ¨
ĠI n
ç§ °
ç ¼
åİ Ł
ul t
æ¯ Ķ
é »
åŁ İ
r u
Ġal l
éĻ ¢
ç ¦
è¡ ¨
on g
Ġa d
i p
é Ĥ
éĩ į
ç ł
æ ¡
!! !!
Ġw ill
Ġin c
è¯ ¥
æĢ §
c c
ï¼ Ľ
éĩ ĳ
Ġcom p
i e
ä¸ ¤
Ġd is
ç Ĥ
åı ¸
éĥ ½
å£ «
Ġm ore
åİ ¿
ä¸Ģ ä¸ª
åĬ Ľ
ve l
Ġcon t
æ į
Ġre s
ation s
åĽ Ľ
or m
æĺ İ
Ġh as
å¥ ³
ar y
s o
çĽ ¸
çľ ģ
æ° ´
æł ¼
é ħ
å¼ ı
Ġd o
å ¢
ç ģ
at er
å½ ±
è į
åı ²
a re
Ġin t
ç ¨
åŁ º
1 8
ĠT h
è ĳ
ç³ »
en ce
å ¡
ab le
r y
il d
åħ °
æŃ £
x t
å° ¼
å ŀ
k s
u al
ç± ³
Ġc l
Ġm an
Ġo ther
çº ¦
éĺ ¿
in d
çĽ ®
åħ ĥ
âĢ Ķ
æ £
å ģ
ç» Ħ
èĭ ±
Ġb ut
Ġwe re
æ ®
è¾ ¾
ä¹ Ĳ
Ġm e
æķ °
an ce
èī ²
è¿ Ĳ
a ch
a v
Ġt e
åĪ Ĺ
re n
Ġ âĢľ
æ² »
Ġp er
åħ ³
æ ¹
as s
e p
èµ ·
ent s
Ġim p
1 2
é¦ ĸ
Ġal so
o se
ä¸Ń åĽ½
Ġon e
re at
' s
ig n
a u
éĢ ī
å Ķ
æĪ ĸ
æĢ »
a ke
æĶ ¹
æŀ Ĺ
ç Ħ
ä» ¬
Ġ 2
è® ¡
å ¨
é ¥
åħ ±
æī ĭ
res s
åı £
b er
åİ Ĩ
å± ŀ
ä» İ
as e
å¿ ĥ
Ġ -
Ġ K
é ¾
ic e
Ġ j
on e
o f
ct ion
it ion
æ ¶
æ¸ ¯
å¸ ¸
en s
è§ Ĩ
or d
f e
im e
Ġo ut
è £
Ġa r
åĲ ĳ
Ġu n
a ce
o k
å Ģ
é Ķ
âĢ ĵ
ver y
æĿ ĳ
æ² ³
Ġp art
ac k
Ġa pp
æĹ ł
is h
æ ·
ou nt
ç ´
é ľ
an g
äº §
å ł
éŁ ³
or y
åī §
Ġab out
u b
æ ¢
Ġe v
ä¹ ¦
i re
å· ´
åį İ
Ġst ud
å¦ Ĥ
am e
äº ¤
ĠS t
1 1
æİ ¥
ç» Ł
ç» ĵ
) .
æı Ĳ
éĽ Ĩ
çº §
u e
çķ Į
åĵ ģ
Ġp e
éĹ ¨
å¹ ¿
æ Ĵ
å¤ ª
çĦ ¶
åŀ ĭ
å ĭ
é Ĵ
Ġwh o
it e
Ġin f
è¯ Ń
Ġs y
èİ ·
æĽ ²
é ª
ä¿ Ŀ
or s
ç± »
åį ¡
æĺ Ł
å¤ «
e w
c es
i ke
Ġs c
Ġs o
Ġ *
Ġh is
r ic
éĩ ı
äº Ķ
åı Ĥ
ol og
re e
ou nd
Ġcom m
19 9
Ġthe m
æĽ ¾
è¯ ´
å½ ¢
ç» ´
n ow
ĠC h
éĵ ģ
å® ŀ
è º
æł ¡
l ow
çĽ ´
ç ĭ
åĬ ¡
æ º
é¾ Ļ
Ġ "
åĮ ħ
åº ľ
å§ ĭ
æĦ ı
Ġp re
ç ĥ
ĠI t
é¦ Ļ
åĽ ¢
å° ±
Ġbe c
ä¼ ł
Ġ V
i an
p h
Ġ qu
Ġm ay
1 5
ç¥ ŀ
æ± Ł
i le
Ġth an
Ġu p
æµ ģ
ç¾İ åĽ½
è Į
å¸ Ī
ä¸ ĩ
ay s
a il
èº «
åı ¤
åı Ĺ
å² Ľ
op le
åį ķ
Ġ 3
ç¨ ĭ
å¯ ¼
Ġre c
çŁ ³
Ġs ome
Ġ 201
åħ¬ åı¸
ä¹ ī
åĽ ŀ
at es
ing s
é ²
Ġy ear
ç Ĺ
ç ı
çº ª
å¤§ åŃ¦
nd er
ç© º
è Ļ
å¥ ¥
çĤ ¹
r it
Ġwhe n
åĪ Ļ
m er
Ġbe en
Ġthe re
æ »
æ¸ ¸
ç® ¡
å· ²
æľ ¯
ç Ŀ
é¥ °
Ġint o
ou gh
te xt
ver s
Ġit s
Ġt ra
æĥ ħ
l l
å¥ ĸ
Ġg o
Ġwor k
å¤ Ħ
Ġa g
on d
on s
Ġt ime
ä½į äºİ
é¢ Ĩ
èĳ Ĺ
è® ®
èĬ Ĥ
ç¤ ¾
ĠTh is
Ġd if
er v
Ġo ver
ter n
æľ Ŀ
Ġthe se
å® ĺ
Ġpe ople
Ġh ow
ç ¿
Ġ ro
è Ħ
al ly
æĮ ĩ
o ve
ç ²
éĢ ł
çĶ °
l ud
rou gh
if ic
äº ¬
åħ ī
ç Ĭ
m s
è Ĵ
åº Ķ
re nt
au se
ï¼ī ãĢĤ
Ġt r
å ĸ
è§ Ĵ
w e
Ġcon s
Ġ Y
Ġu se
çĻ ½
åĩ »
çī ĩ
å¼ ł
y s
æĪĲ ä¸º
Ġc ol
in t
éķ ĩ
å± ķ
çº ³
1 6
Ġo ur
å° ĳ
Ġa ct
å¥ ¹
l es
Ġbe t
æĽ ´
l ic
åĪ «
å¤ ´
æĹ¥ æľ¬
åŃ Ĺ
äº Ľ
å ķ
Ġl ike
Ġm ost
èĭ ı
Ġh ad
| >
ir st
end of
< |
endof text
æŃ ¦
o b
Ġ ra
j ect
it ies
Ġk now
æ´ ²
ç ĸ
çł Ķ
o ok
al th
ç¼ ĸ
Ġd es
åŃ £
Ġu nder
ç¬¬ ä¸Ģ
ment s
Ġb l
ä¼ Ĭ
è® ¤
ä¿ ¡
è¿ ĺ
n ing
åı ĺ
le ct
1 7
st em
!!!! !!!!
ro w
ç ĵ
i ous
Ġs a
æ ĳ
æĿ İ
Ġa cc
æ´ »
èģ Į
æ³ ¢
Ġw ould
è½ ¬
vel op
Ġt w
Ġ 200
åı ª
ff ect
Ġre l
åĳ ½
o v
è¿ ĳ
çī Ī
Ġne ed
Ġne w
åħ µ
èµ Ħ
å± Ģ
Ġsu ch
æĮ ģ
ation al
å¸ ¦
åħ Ń
æŃ Į
åı ĸ
æī ĵ
åĳ ¨
æĻ ®
è¶ ³
Ġre p
ç ¡
é¦Ļ æ¸¯
åĽ ¾
é£ İ
Ġ if
i ent
p le
çĪ ±
Ġinc lud
è¿ ŀ
Ġhe l
åĲ Ħ
éĻ ħ
Ġg en
æĶ ¶
æ ¨
Ġch ild
y p
at ive
åĽ½ å®¶
n e
å¼Ģ å§ĭ
çŁ ¥
å® ĥ
è ı
ä¸ ¾
åİ »
ä¸ ĵ
ä½¿ çĶ¨
c ess
è® °
Ġp r
Ġan y
åı Ī
ul ar
c ed
he d
æ² ¡
æĹ ı
è Ĺ
Ġp h
åı¯ ä»¥
åľ° åĮº
o ol
åĪ Ŀ
åľ £
19 8
æ¸ ħ
at ing
æ® µ
Ġwh at
æį ®
è ±
Ġhel p
æĶ ¯
å Ħ
äº ²
å§ Ķ
at h
æł ĩ
Ġus ed
Ġon ly
å¸ Ŀ
5 0
ç ĳ
åħ Ī
Ġpro du
ç© ¶
ç¦ ı
çļĦ ä¸Ģ
2 1
æ° Ķ
åĨ ³
ar k
Ġsp ec
Ġpro v
) ,
ä¸ĸ çķĮ
éĿ ŀ
èĬ ±
Ġin d
Ġa m
å Ļ
ĠU n
u c
éĺ ³
Ġman y
1 4
Ġn o
æĿ ¡
æĭ ¬
Ġf irst
Ġf e
et h
ic s
3 0
Ġth rough
ĠH e
Ġde velop
is e
å® Ĺ
çłĶ ç©¶
åı į
os s
åİĨ åı²
Ġ âĢĵ
åº §
çĶµ å½±
è§ £
æĶ ¾
Ġex p
er m
f ter
åĽ Ń
ç Į
ä¸» è¦ģ
is s
he n
Ġd i
åĪ Ľ
åĮħ æĭ¬
Ġa c
rou nd
åķ Ĩ
Ġe m
Ġdif fe
Ġp o
å¾ Ģ
ot h
Ġ 4
åĨ į
ä» Ĭ
ur ing
æŃ »
è¿Ľ è¡Į
Ġre g
åħ «
ç¦ »
f ul
æł ¹
Ġtw o
Ġsy stem
ri b
åĦ ¿
æľ ª
æŀ Ħ
ro p
æŀ ľ
å¤ į
ol d
çĪ ¶
n g
å® Į
in k
Ġof f
æĪ ı
al s
Ġo b
é¦ Ĩ
å· Ŀ
00 0
æĴ Ń
t s
çĶ »
æ ¥
é» Ħ
ä»¥ åıĬ
åĲ ī
å¡ Ķ
æ¯ į
il ity
åį «
æ´ Ľ
åĨ ł
è£ ħ
å¨ ģ
at ure
åĻ ¨
è® º
åĪ Ĵ
1 3
Ġde c
é ¸
I n
åį ³
a w
æ¬ §
Ġas s
as ed
ç¬¬ äºĮ
çĶµ è§Ĩ
æĬ ¥
è ħ
ib le
an ge
Ġad d
2 2
if e
t en
å½ ķ
ç½ ®
åį ļ
èĤ ²
è§ Ĥ
ç» Ī
Ġat t
èĲ ¥
åľ Ł
å¥ ½
æ¹ ¾
er t
éĽ ·
ra m
b le
ç¤ º
ow er
è¶ ħ
èİ· å¾Ĺ
Ġs ur
ar ch
è´ ¨
åħ¶ ä»ĸ
è§ ģ
éĥ¨ åĪĨ
ow n
éĢ Ł
Ġf l
èĲ ¨
å¼ º
é¡ ¹
ä¼ ¯
æķ ħ
ra ct
Ġw ater
ä»ĸ ä»¬
æ± ī
åį ĩ
Ġsh ould
æ¯ ı
å± ħ
é Ń
Ġw ell
éļ ı
we en
è¾ ¹
Ġre m
çļ ĩ
æ²¡ æľī
éĿ Ĵ
f ore
åĵ Ī
Ġsu pp
çĵ ¦
å¸ Į
ä¿ ®
ä» ¶
Ġsu b
g an
ç» Ļ
ç» Ń
ä» ¤
ad e
è° ĥ
çģ «
æĺ¯ ä¸Ģ
æĬ ķ
çĹ ħ
he s
se l
Ġyear s
åĬ Ł
Ġin v
è¾ ĥ
i ed
ä¸ ĥ
c y
èī º
ic k
it s
æº Ĳ
æľ ¨
éĻ Ĩ
ä¼ ¦
Ġhe alth
Ġbet ween
Ġs m
ä¹ Ŀ
åŃ ĺ
åĬ ©
çĶ ·
Ġc o
æĶ »
é º
äº ¦
Ġh igh
ut ion
æ° ı
s s
åĬ ŀ
åħ ·
æĿ ĥ
åĮ »
Ġp res
æ ļ
l and
å® ¢
Ġc ould
å² ģ
çŃ ĳ
æľ į
ä¸ Ķ
å¼ ķ
æĬ ¤
å ĥ
il y
e ver
Ġwhe re
åŃ¦ éĻ¢
olog y
åħ ļ
ch n
Ġtr ans
ant s
on t
f orm
Ġ 20
é£ ŀ
äº ī
u ch
ch ool
ä¾ ĭ
è® ¸
Ġ her
å¾ Ī
ç ª
åħ¶ ä¸Ń
Ġm ake
èĥ ľ
å· ±
é¢ ĺ
éħ į
at a
éĻ ¤
å® ¤
å¡ ŀ
2 5
Ġg et
Ġp ers
Ġ ãĢĬ
it ed
w n
èĪ ª
in es
i ence
é² ģ
æĭ ħ
åĭ Ĵ
ï¼ į
Ġb u
o y
å¿ Ĺ
Ġ1 8
id ent
åł Ĥ
Ġre se
ur al
æ´ ¾
in s
è½¦ ç«Ļ
ä» ½
çľ Ł
çº ¢
çĶ ²
Ġimp ort
Ġm od
æ£ ®
i et
Ġe ar
Ġfor m
Ġin ter
è¯ º
ic t
åį ı
æĹ ©
çĶ± äºİ
åħ ´
æĬ Ģ
æ¹ ĸ
èĢ ģ
é£ Ł
æĿ Ģ
Ġn um
æ¡ ¥
åº Ħ
çİ ¯
æĪ ĳ
æ² Ļ
éĻ Ī
é» ĳ
å¥ ĩ
Ġex am
è¯ Ħ
è¡ Ĺ
å¤ ĩ
Ġp ol
çı Ń
è§ Ħ
mer ic
çİ ĩ
19 7
å ĺ
äºº æ°ĳ
Ġin st
åĽ½ éĻħ
éĥ ¡
Ġdis c
t ing
is m
Ġdiffe rent
ï¼ī ãĢģ
h at
éĤ £
èĩ ´
çĻ ¾
Ġf ound
èİ ±
. <|
ä»ĸ çļĦ
ç ¢
æĶ¿ åºľ
åı Į
çĬ ¶
æŁ ¥
å± Ĥ
n ess
ist s
æī ĺ
æ Ĥ
åı ¦
Ġs im
è®¤ ä¸º
èĲ ½
ãĢĭ ï¼Ī
Ġe ffect
Ġle ar
Ġbec ause
e f
g y
åŁ Ł
å¢ ĥ
ual ly
Ġc ar
Ġa fter
ç§ ¯
ä¹ĭ åĲİ
ä¹ ¡
Ġl ong
Ġex per
åĪ ĺ
Ġl ar
è ¨
ce pt
è¯ ķ
æł ·
åĽ ´
å® £
Ġ 5
å® ¹
Ġc ent
è¨ Ģ
æ ¦
Ġwor ld
ç» §
åĽł ä¸º
. .
Ġthe n
æĺ ĵ
åį °
Ġev en
çĽ Ł
æİ ¨
Ġ very
19 4
Ġm ed
å¤ ±
Ġw ay
2 3
Ġj ust
g et
ä¸Ń å¿ĥ
Ġc ount
åĵ ¥
èĩª å·±
å»º çŃĳ
Ġt yp
Ġinc re
ä¸Ń çļĦ
v ent
æģ ©
æ¸¸ æĪı
Ġd et
åĩ Ĩ
Ġinf orm
19 6
ot her
åĽł æŃ¤
i vers
Ġs ign
p s
æĻ ¯
Ġ é¥°
ur n
Ġ ed
éĻ Ĳ
æµ İ
å° Ħ
ä½ľ ä¸º
ure s
Ġres p
Ġv ar
å¢ ŀ
æ· ±
éĩ İ
æĽ ¼
ak ing
ical ly
å§ Ĩ
å·¥ ä½ľ
Ġ ke
om m
Ġ 6
Ġh um
iv es
å¯ Ĩ
æ ½
ä¾ Ľ
æĦ Ł
ie w
å ´
åıĳ çİ°
åį Ĭ
æ³ķ åĽ½
çĻ »
è´ Ŀ
Ġgen er
ar m
æ¨ ¡
æ ħ
é¡ ¿
ol low
c k
ĠA meric
Ġse e
Ġth ose
å® «
æİ Ĵ
å ©
ä¹ĭ ä¸Ģ
æĸ ½
å£ °
T h
ĠA l
ç¾ ¤
åī ¯
or k
ç ħ
Ġex t
Ġp at
æ ¤
Ġpro cess
éĹ ®
äº ĳ
c er
i o
è®¾ è®¡
Ġe very
t le
éĵģ è·¯
é ¹
åŃ¦ æł¡
Ġc all
åı¯ èĥ½
è´ ¥
Ġf act
Ġres ult
od y
æķ ´
æ¯Ķ èµĽ
ĠR e
ä¼ Ĺ
ç½ ĳ
åĿ ĩ
éŁ³ ä¹Ĳ
èĢ ĥ
Ġchild ren
Ġp ub
Ġs oc
ä½ ³
Ġc a
u es
ag es
Ġe ach
Ġl oc
ĠW e
ir on
Ġpro g
w ard
Ġsa id
ru ct
åĲĮ æĹ¶
Ġse c
çĭ ¬
ä½ľ åĵģ
l ed
åį ĥ
ç¥ ĸ
Ġte chn
æ± Ĥ
as es
åı ĭ
Ġl ife
åŁ ĥ
Ġpart ic
Ġbe ing
åĥ ı
Ġre qu
ĠP ro
è¿ ª
å½ĵ æĹ¶
. âĢĿ
è¶ Ĭ
åĵ į
æ¥ ¼
åº ·
Ġimport ant
æ³ °
Ġs he
ä½ ı
ä¿ Ħ
Ġs et
an y
v ed
2 4
æĭħ ä»»
Ġm on
é ±
å¾ ģ
å® ģ
Ġd ist
at her
ä¾ §
åĨł åĨĽ
éĺ ²
é± ¼
2 8
å® Ī
åħ ¸
ĠA s
æĪ ¿
å¤ ı
Ġm uch
c ent
è¿Ĳ åĬ¨
Ġcomm un
Ġd uring
Ġ ent
å§Ķ åĳĺ
èĭ± åĽ½
Ġf am
æĥ ³
åĳ Ĭ
d s
åº ĵ
æŃ ¥
Ġ end
ĠA r
im es
Ġar t
iz ed
æĹ¶ éĹ´
è¯ ģ
Ġ19 9
çĥ Ń
al e
è® ©
ä¸ ½
o h
19 5
Ġde p
ver n
ä½ ķ
ç´ ¢
ä»£ è¡¨
g g
å± Ĭ
å¯ Ł
Ġc re
Ġf ollow
æİ Ī
Ġs k
è± ¡
ç§° ä¸º
Ġd ata
Ġg ra
çķ Ļ
. ,
Ġm y
Ġinform ation
Ġo wn
éĩ ĩ
æī į
h ip
Ġle ad
æ´ ĭ
Ġstud y
Ġre ad
Ġf ood
ĠA n
Ġle vel
iz e
t he
æĸ Ļ
æ ¾
åĨ Ļ
Ġstud ents
æŃ ¢
Ġa ut
Ġdo es
i el
èĪ °
æķ Ī
è¶³ çĲĥ
è´ ¹
ic es
ĠThe y
!!!!!!!! !!!!!!!!
åı° æ¹¾
Ġst r
Ġf ind
çī Ļ
Ġpers on
åĶ ±
Ġs ame
ect ion
Ġpro ble
Ġ âĢ
çĳ ŀ
èĮ ĥ
å¸ Ń
r an
éĵ ¶
Ġc ur
é ½
t ed
Ġm in
Ġm ade
éĢļ è¿ĩ
æ¸ ©
éľ Ģ
u nd
ç´ ł
ä¸ĸ çºª
çľ ĭ
Ġr ight
Ġde f
oc k
i x
ç» ĩ
åį ł
çĿ Ģ
è Ľ
Ġg ood
ç« ł
Ġ1 0
éĥ İ
Ġa v
ç® Ģ
ä¾ ¿
Ġb ack
or n
a h
a x
å· ¦
çĽ ĳ
æ¡ Ī
Ġg row
ç» Ĩ
åĺ ī
å¼ Ł
Ġc he
Ġb oth
ĠF or
æĪĲ ç«ĭ
æŀ ģ
ĠI f
çĶ º
åıĳ å±ķ
ä¸ ģ
å® Ŀ
r on
ä½ Ľ
Ġus ing
éĻ į
ĠI nd
i er
in al
Ġin s
å° ģ
v iron
åł ¡
Ġg rou
å±ŀ äºİ
Ġs chool
åı ¶
éĻ Ħ
d er
è¯ Ŀ
æĪ ·
Ġ 7
ar s
ç³» ç»Ł
c on
æĿ ¾
Ġsh ow
al ity
æī ¿
Ġp op
Ġex pl
æ° ¸
Ġre f
èģĶ èµĽ
re ad
æľĢ åĲİ
èĴ Ļ
ĠS p
i en
Ġcomp le
Ġg l
ä¸į åĲĮ
Ġsm all
st and
ä» į
ä¸ ¹
çī Į
çĿ £
ä¹ Į
Ġt est
iv id
ĠH ow
in ce
åĶ Ĳ
å¹ ²
åİ ħ
è¯ į
in ed
ial ly
âĢĿ ãĢĤ
ç Ĩ
è¿ ľ
è½ ½
Ġbe fore
Ġm ain
å¯ Į
Ġb o
Ġh ist
ĠS c
2 6
ut e
åĩ ł
om en
æµ ĭ
åĪ¶ ä½ľ
f t
ä½ İ
r al
æĶ¿ æ²»
ãĢ Ģ
Ġs ol
åı ³
ro l
Ġt reat
ä» ħ
è¿ °
ç² ¾
å ³
Ġl ess
re st
ç¤ ¼
ä» ·
äºº åı£
ĠN ew
æĸĩ åĮĸ
Ġag ain
u p
åĲİ æĿ¥
Ġ 8
Ġof ten
ä½ Ļ
er gy
Ġ 9
è´ Ł
èĪ ¹
Ġpro t
t y
Ġin te
and s
æĿ ¯
d e
Ġv al
æĢ ģ
e x
åº Ĺ
ç§ »
å¹´ çļĦ
Ġwh ile
æĬ Ĭ
åĩº çİ°
ak es
å¿ µ
éļ Ĩ
å¯ º
å·¥ ç¨ĭ
Ġd ay
2 7
im ate
Ġt ake
æ³ ¨
æĭ ¿
åħ¬ éĩĮ
å¾ ĭ
Ġp oss
| |
éĢ Ģ
éħ Ĵ
åĲį ä¸º
id es
ç¬¬ ä¸ī
is hed
Ġst ate
èĹ ı
a j
åģ ľ
Ġnum ber
Ġo cc
æĹ ħ
æĺ ¾
Ġrese arch
Ġb ody
Ġdis e
Ġr is
Ġl it
i qu
viron ment
ç®¡ çĲĨ
ç¡ ®
æ» ¡
i um
åº ķ
æĺ ¥
èİ «
åĨ ľ
a ir
d ition
åº Ĩ
Ġor gan
ä¹ ħ
iet y
æĢ Ŀ
v en
v es
Ġn ow
å¼ Ĺ
Ġcl ass
Ġv is
æĿ °
ç» ĥ
è¿Ļ ä¸ª
ivers ity
ul ation
Ġact iv
æİ §
Ġf un
Ġs erv
ãĢĭ ï¼Į
ç¥ ¨
å¹´ ä»£
ur y
æľŁ éĹ´
Ġc ell
g er
å¼ ¹
Ġd own
it al
c l
çĲĥ éĺŁ
åĿ ¦
us s
iv ing
æĸ Ĺ
èµ °
Ġp ower
Ġch ar
æľ Ľ
Ġa round
ter s
Ġdes ign
éĽ Ħ
Ġbe l
Ġm em
åĪ© äºļ
e e
èĴ Ĥ
Ġsupp ort
Ġth ree
è½ ®
æŃ£ å¼ı
è´ £
è ľ
her s
ãĢį ï¼Į
é¢ Ħ
Ġre du
æ¢ ħ
4 0
è¾ ĳ
ä¼ ĺ
æ ĵ
ire ct
Ġcomm on
Ġh im
çļ ®
ç§ Ģ
æĹ §
æľĢ ç»Ī
ä¸Ĭ çļĦ
æī §
Ġhum an
a ve
act er
éģ Ĺ
æ¶ Ī
åĢ Ļ
å¿ «
åį ´
2 9
çŁ Ń
ä¹ĭ éĹ´
å° ¾
Ġc le
éª Į
Ġb r
ul l
d ay
ain s
Ġst art
å° ļ
è¿Ļ äºĽ
å½± åĵį
ĠY ou
Ġ est
Ġl ook
ä¹Ł æĺ¯
ç¤¾ ä¼ļ
èį ī
g en
æ Ĳ
m an
å» ¶
çł ´
èī ¾
çģ µ
ro ss
èį ¯
åıĤ åĬł
èį £
ou se
æī ¹
Ġm ust
Ġpo int
æ¾ ³
åıĳ çĶŁ
Ġg reat
as h
éº ¦
æīĢ æľī
c om
Ġexam ple
Ġs er
ç ¯
åŃ Ļ
Th is
w ay
Ġc or
19 3
v ing
è° ·
å½ ¹
ãĢĭ ãĢģ
ion al
Ġe lect
Ġpl an
Ġlar ge
Ġw rit
ä¼ ¼
è¡ Ģ
è¿Ľ åħ¥
æł ĳ
çħ §
çİ Ľ
Ġrep ort
6 0
ra in
èĬĤ çĽ®
ĠB ut
çļĦ ä¸Ģä¸ª
m e
æł¹ æį®
sel f
äºº çļĦ
è ĵ
åŁİ å¸Ĥ
it ions
Ġall ow
è Ń
Ġgo vern
Ġd id
æ² ¹
ç»ı æµİ
, âĢĿ
è®¡ åĪĴ
âĢĿ ï¼Į
å¤ ®
a red
Ġcont in
Ġm et
ĠâĢ ĺ
i ver
åĲ «
ä¸ ´
ou n
å¤§ çļĦ
Ġc are
æĿ ¨
Ġe qu
åĮĹ äº¬
æĻ ĭ
å§Ķåĳĺ ä¼ļ
ç½Ĺ æĸ¯
èĥ Į
äºº çī©
ç»Ħ ç»ĩ
æľ Ĺ
Ġinclud ing
el s
ou th
é ¼
èŃ ¦
é¡ º
å¾· åĽ½
ä¸Ĭ æµ·
åĨ µ
å½ Ĵ
ç« ¯
Ġunder stand
i k
Ġbe h
éĺ µ
Ġcon f
åģ ļ
è¯ ·
Ġo p
éĽ ħ
éĤ ¦
æĸ Ń
201 0
ä¼ ¤
çª ģ
Ġbu ild
èĢ ¶
Ġcon st
et s
ĠThe re
äº ¡
ĠA nd
æĹ¶ æľŁ
ä¾ Ŀ
æģ ¯
Ġad v
re en
åĸ ľ
iv en
ĠI s
å°¼ äºļ
t t
ãĢį ãĢĤ
æĳ ©
æ´ ¥
é ³
æ¤ į
id s
Ġth ough
Ġre t
èĤ ¡
Ġcall ed
Ġp ract
æķĻ èĤ²
æľĢ ä½³
Ġc our
oc i
åħ± åĴĮ
Ġknow n
id er
èı ²
a z
å¼ Ĥ
Ġg u
r ies
æĳ Ħ
Ġs om
Ġqu est
ater ial
Ġ &
åº Ń
l ish
ivid ual
in c
ĠW h
å® ĭ
éļ ¾
Ġe as
åį ¢
ĠE ng
éĹ »
çĶŁ æ´»
èĻ ½
en g
ä¸¤ ä¸ª
æĭ ¥
Ġst ill
æĬĢ æľ¯
æĪĲ åĳĺ
Ġed uc
iz ation
n er
i od
ç® Ĺ
os ed
t on
éŁ ©
Ġd r
ĠD e
Ġpub lic
i red
u g
om s
ent ial
åİ Ĥ
æľ «
åŃ¦ å®¶
è¡Į æĶ¿
it ive
ang u
åĲ ´
i or
Ġf ew
Ġpl ace
åĩº çīĪ
æľī ä¸Ģ
ãĥ ¼
Ġch ang
åĬ ¿
åĪ ĩ
Ġt em
ç³» åĪĹ
ren ce
Ġ ide
l ine
åıĳ è¡Į
Ġapp ro
ra ph
ĠThe se
è¯ »
Ġm ight
æıĲ ä¾Ľ
ect ed
ãĥ »
b ers
éĿ¢ ç§¯
èĪ ¬
r is
Ġl ight
Ġca us
ãĢĭãĢģ ãĢĬ
Ġm at
âĢ ¦
8 0
æŀ ¶
Ġen ergy
Ġen vironment
Ġth ink
r ation
Ġp ur
ä¸Ń å¤®
æ¼Ķ åĳĺ
as on
åİ ĭ
èī ¯
åĪĹ è½¦
Ġpres ent
é¡ ¶
âĢĶ âĢĶ
our ces
ä» ĭ
Ġde m
Ġwith in
äºĮ åįģ
èīº æľ¯
. "
en se
pt ion
Ġch ange
Ġe t
å·² ç»ı
iv ed
è¾ ĸ
con om
ä¹ ł
æ¯ Ľ
or th
ord ing
in ation
al k
æį ¢
ãģ ®
in a
Ġw ant
æ´» åĬ¨
Ġind ividual
æ² ¿
æ ¿
æĪĺ äºī
iel d
æĸ¯ çī¹
ĠS h
Ġs l
ĠUn iversity
èµ «
Ġprodu ct
201 2
Ġpro ject
Ġ ve
ff ic
es p
éª ¨
ag n
éĿ ©
è¡¨ ç¤º
éĴ Ł
b s
ĠP h
ä¸ °
è®¸ å¤ļ
l ess
å© ļ
è¯ Ĺ
äºĨ ä¸Ģ
èĩ £
Ġwith out
èĭ ¥
201 6
Ġ ident
ĠC on
Ġph ys
Ġis s
eth od
Ġc ap
æ¬§ æ´²
Ġim m
ert ain
Ġm aterial
201 3
å² ¸
åħ »
er n
çĶŁ å¹³
Ġdevelop ment
éĽĨ åĽ¢
Ġsy m
è½ »
201 1
Ġpro f
ç ĩ
Ġp ot
er al
ä¸» ä¹ī
ä½Ĩ æĺ¯
Ġd on
é¸ Ł
éĩį è¦ģ
Ġp ass
Ġp os
åħ±åĴĮ åĽ½
ab ility
ä¸» æķĻ
Ġimp ro
201 4
Ġb re
Ġm us
è´ µ
ir c
Ġpl ay
å² ©
è¯ Ĩ
åĶ ®
Ġlear n
æľ ±
å¿ ħ
are nt
in ess
ä¸º äºĨ
è¿ ½
201 7
Ġh and
Ġb en
Ġan al
Ġen g
201 5
æĿ ¿
å®Į æĪĲ
olog ical
aj or
Ġare a
æķħ äºĭ
20 19
Ġsoc ial
Ġan other
Ġs it
ä¿Ŀ æĬ¤
æ¢ ģ
ĠC l
7 0
er ing
ent al
Ġdise ase
ro du
æ¯ ķ
åĪ° äºĨ
åħ³ ç³»
æ¯ Ĵ
at s
ill ion
g in
ĠAmeric an
200 9
æĻ ļ
200 8
t o
ä½ Ĳ
i ans
ç» Ŀ
ĠA d
Ġw omen
åĩº çĶŁ
if ied
201 8
æľį åĬ¡
c ing
Ġb est
èģĶ çĽŁ
Ġme as
è¯ ĳ
åĢ ¼
Ġinclud e
éĢ ģ
å¸ ķ
om p
æľī éĻĲ
I t
çº ½
Ġd irect
çĪ µ
Ġst and
at ural
ar c
r ist
æĺ ł
Ġp ain
Ġbl ood
åĲ ¯
Ġan t
Ġinte rest
æĭ į
Ġ âĢĶ
Ġdes c
Ġb as
é½ Ĳ
Ġbel ie
at ic
çĽ ĸ
if y
Ġris k
Ġh ome
åįģ äºĮ
ç £
å± ĭ
is ion
Ġcont rol
çĽ® åīį
æĬ Ĺ
éļ ¶
æĪĲ åĬŁ
åħ ¹
åīį å¾Ģ
å¾ ¡
éª ĳ
æł ¸
h or
äº ķ
ill s
è§Ĵ èī²
ain ed
åħ ¼
å Ĥ
er c
Ġo pp
am p
Ġw ar
æĿ Ł
l u
åĨ³ å®ļ
èĪ ŀ
Ġc ult
' t
åĸ Ħ
Ġm ove
åĪĨ å¸ĥ
ĠS e
our ce
ä¹ ĺ
å¨ ľ
çļĦ äºº
cc ess
Ġ Z
æĹ Ĺ
e red
èĥ ¡
éħ ¸
æ³ ½
Ġm ark
ent ly
ĠHow ever
ä»ĸ åľ¨
he re
æĭ¥ æľī
Ġl aw
Ġre st
Ġo ld
è ŀ
ç»Ħ æĪĲ
Ġm il
Ġear ly
åį ·
20 20
200 7
Ġbec ome
ç»ĵ æŀĦ
w are
åĪĨ åĪ«
Ġf ore
åħ¨ åĽ½
çİ ī
åĩ ¯
an k
Ġl ow
ĠC ol
ä¸¾ è¡Į
in ing
åĨ ²
± ä¹Ĳ
Ġbet ter
äº¤ éĢļ
w ays
éŃ Ķ
ĠE x
200 6
Ġse ver
l ished
ä» ģ
at or
Ġhe re
u se
èģĶ åĲĪ
çł ģ
iss ion
Ġspec ies
åĲ Ľ
ard s
Ġt er
Ġm ethod
am es
ra p
Ġp ar
Ġ ess
å¸Ĥ éķĩ
Ġgrou p
ĠP l
èĻ½ çĦ¶
o x
è¿ ģ
ï¼ī ï¼ļ
e ad
æĿ Ĥ
å¾ ®
N A
Ġan im
s p
Ġagain st
çķ ¥
Ġsec ond
Ġprog ram
i ents
çİ ©
Ġt re
Ġpro per
pl es
éĢļ å¸¸
Ġto p
Ġle g
Ġo per
åı· çº¿
Ġm ajor
Ġl ast
o id
Ġor der
Ġl and
çļĦ åľ°
3 1
èĪª ç©º
Ġc ause
ent ion
Ġme ans
Ġprov ide
è® Ń
éĢ Ĳ
åĬł åħ¥
æķ £
Ġke ep
Ġfam ily
Ġe le
è ĸ
Ġto o
ç¿ °
ä¸ ¥
é» İ
ĠO n
Ġocc ur
è½ ¨
åıĤ ä¸İ
Ġe conom
æĺ Į
Ġper form
Ġre al
Ġav ail
éĹ® é¢ĺ
Ġgovern ment
å® ¾
Ġl angu
é¡ »
v iew
åĪ ¤
ic le
o le
Ġhist ory
ĠC an
çĪ¶ äº²
å¦ »
å¤ º
ĠB e
1 00
Ġde v
Ġcur rent
çī Ľ
Ġpartic ular
ĠR es
åĬ¨ çī©
æĻ º
éľĢ è¦ģ
re t
æĺ¯ åľ¨
åį° åº¦
Ġme an
åĮĹ éĥ¨
å° ½
åĪ º
äº ¿
Ġ Q
éĶ ¦
ĠT e
Ġor ig
æ² ĥ
ä¿Ħ ç½Ĺæĸ¯
åħ Ħ
Ġc al
å»º ç«ĭ
å¤ ľ
åŃĺ åľ¨
Ġlear ning
ot e
Ġu nt
å®£ å¸ĥ
ãĥ ³
æľĢ é«ĺ
æĿ ľ
Ġdif f
çļĦ å¤§
Ġposs ible
ä¹ Ķ
æ¶ ¯
å°Ĩ åĨĽ
ä¸Ń åįİ
ĠUn ited
è¡ ¥
å® ĩ
å½ĵ åľ°
ä» Ģ
Ġper iod
oh n
u rop
æĹ¶ ä»£
og raph
Ġadd ition
çŃ ¾
Ġs ay
Ġne ar
å¹¶ ä¸Ķ
s c
Ġin du
Ġab le
ç§ĳ åŃ¦
æĿ¥ èĩª
Ġf in
Ġinv ol
Ġg r
åĲĮ å¹´
Ġm en
Ġh ig
ç± į
b e
åĬ ³
Ġsever al
C h
os p
Ġsign ific
Ġa ffect
S t
èĥ ŀ
æĿ Ĳ
èģ ļ
æķ Į
çĶ¨ äºİ
p ort
Ġl im
æķ ĳ
Ġha pp
éĺ ¶
è¾ ĵ
e ed
Ġpl ant
Ġper cent
æŀ ª
id ence
å¹³ æĸ¹
ĠC omm
ĠW hen
3 5
Ġben ef
åľ Ĩ
çĭ¬ ç«ĭ
å¼Ģ åıĳ
ä» ª
s y
çĶŁ äº§
éĻ ©
èİ ī
19 0
Ġa ir
el f
og n
h y
è· Ŀ
æº ª
æ¬ ¢
or ies
ä¼ ģ
éŃ ı
éģ Ń
å· ¨
æ£ Ģ
é¢ ĳ
é¡¹ çĽ®
Ġc ost
æĭ ľ
Ġ19 8
é¦ĸ æ¬¡
Ġpro m
l ing
éĥ ĳ
åħ į
çŃ ĸ
Ġn on
ä¸Ģ èĪ¬
Ġs ince
p ar
Ð °
Ġother s
çĽ Ľ
Ġm ar
Ġth ings
Ġfe el
Ġop en
æĸ¹ éĿ¢
çľ ¼
Ġe l
W hat
Ġb us
ä¸ Ŀ
å· ®
çĶŁ æ¶¯
Ġ1 5
Ġd el
è ª
Ġam ong
ç« ¥
åħ· æľī
th ough
åħ¬ åĽŃ
Ġn ame
éĶ Ģ
ĠL e
Ġsc ient
èĹ ¤
åŃ¦ çĶŁ
æł¼ åħ°
æĮ ī
ot s
ĠT o
end s
Ġb ased
çĸ Ĺ
4 5
å½¢ æĪĲ
il ar
è´ Ń
æĮ ¥
ç» ©
Ġhe ad
è´Ł è´£
Ġare as
Ġtreat ment
ĠE n
é© »
W e
Ġ .
ç½Ĺ é©¬
Ġcount ry
è´ ¢
Ġb i
è° ¢
å» ·
end ed
Ġ [
a per
æŃĮ æĽ²
æµ· åĨĽ
3 7
èµ µ
Ġ 0
å°ı è¯´
9 0
Ġavail able
Ġob ject
Ġpre vent
Ã ©
Ġf our
ĠA t
Ġfollow ing
ĠG od
åº ı
o int
S A
éĽ ª
äº Ī
ä¸Ģ äºĽ
ãĢĭ ãĢĤ
Ġf re
Ġs ays
pl oy
r ing
æİ ¢
Ġ1 7
200 5
å ª
w ork
çĥ Ī
éĢ Ķ
èĵ Ŀ
on es
çĶŁ çī©
Ġf ac
oc us
un e
Ġf ree
è¯ ¸
ab ly
Ġt imes
Ġst ruct
Ġcon d
å· ¡
ur ther
w w
åįķ ä½į
ĠSt ates
å¯¼ èĩ´
çĽ¸ åħ³
ĠC ent
çĲĥ åĳĺ
Ġv ol
20 00
Ġl o
Ġ ï¼Ī
an n
Ġl ist
åĨ³ èµĽ
Ġmon th
çĪ Ĩ
è´ §
èį ·
åģ ĩ
äº§ çĶŁ
urop e
Ġproble m
is ed
åįĹ éĥ¨
Ġwe e
op e
éĩĩ çĶ¨
20 21
è¥¿ äºļ
èģĮ ä¸ļ
ç« ¹
Ġc reat
ress ion
ol ution
ä¸ĵ è¾ĳ
å® ½
æľīéĻĲ åħ¬åı¸
Ġacc ess
äºĭ ä»¶
åĿ Ģ
Ġcom e
çī¹ åĪ«
æĸ¹ å¼ı
!!!!!!!!!!!!!!!! !!!!!!!!!!!!!!!!
åĲĪ ä½ľ
å¹´ èĩ³
æ· ·
æĥħ åĨµ
Ġ ç¬¬
Ġp ost
Ġv iew
, "
Ġa ge
å® ³
Ġc ertain
çĦ¶ èĢĮ
Ġr un
Ġin tern
a e
Ġcon n
Ġc ase
Ġl ab
å¿ ł
ç»ĵ æĿŁ
ç½ ²
æľº è½¦
åĩ ı
ic ro
4 8
æ¦ Ĥ
Ġtyp e
4 7
è® ²
Ġn atural
åĨ Ī
ä½ ł
åĪ »
å¹¶ åľ¨
ç§ ĺ
Ġb ro
å¸Ŀ åĽ½
id ed
or ld
éģ ĩ
è®¾ æľī
ĠO r
Ġproble ms
Ġp ut
ĠA f
gg est
ä¼ ĳ
) ï¼Į
Ġp ress
å³ °
Ġloc al
Ġre ce
an ces
éĩ Ĭ
p or
æ¬ ¾
åħ¬ è·¯
å¥ ı
ä¾ĭ å¦Ĥ
ir d
è¿Ļ ç§į
æ® ¿
I f
Ġm ult
Ġbeh av
Ġsignific ant
st it
åº Ł
éĤ »
æ¯ķ ä¸ļ
å¤§ åĪ©
æ¼ «
éľ į
Ġh ard
æīĢ ä»¥
è· Ł
Ġam ount
Ġb ook
Ġv ir
æı ı
Ġsu ccess
ĠN ational
çļĦ æĺ¯
ä¾ ¯
æ³ ī
at ory
Ġlevel s
o ver
å¸ ®
he m
è Ķ
ç§ ĭ
Ġimp act
res ent
Ġlit tle
ä¸ª äºº
Ġass oci
äº Ĵ
çĶ ļ
éŁ ¦
Ġs w
ic ult
4 6
é¥° æ¼Ķ
åıĸ å¾Ĺ
Ġl ater
å «
Ġcomp ut
Ġf ar
un g
æľº åľº
Ġsu ggest
eth ing
Ġra d
æ£ Ĵ
Ġd ue
åģ ¥
Ġf low
æķ ¦
it her
Ġg iven
p ect
èĩªå·± çļĦ
éĻĦ è¿ĳ
Ġle t
ä¸Ń åŃ¦
è§ ī
st r
an c
led ge
ç»ı è¿ĩ
ç» ¿
200 4
Ġsh ort
Ġyou ng
åıĹ åĪ°
çİ° åľ¨
æĶ¯ æĮģ
å»º è®¾
Ġunt il
ä¸į è¿ĩ
c le
çĮ ®
åĿ ¡
Ġcell s
ri ed
p r
ä¸ī å¹´
çĹ ĩ
ate ly
ĠB l
ç¾ ½
Ġm aking
ç© Ĩ
ĠE urope
åĲ ¸
æİ§ åĪ¶
l er
æĺ¯ ä¸Ģä¸ª
A n
o ks
ap s
ĠW hat
ure d
a pp
Ġlike ly
Ġf ocus
n ot
ort un
æĽ ¿
éľ ²
ä½ĵ èĤ²
åħĭ æĸ¯
ic ation
å¯¼ æ¼Ķ
an e
å° º
E R
Ġch o
ut ure
Ġ1 6
g ed
Ġt urn
ĠA ll
i pp
age ment
Ġd ays
è Ĩ
ä¼ļ è®®
ç« ŀ
ĠCh rist
I I
Ġsystem s
æī ¾
ap e
ï¼ļ âĢľ
æľº æŀĦ
Ġlangu age
Ð ¾
ak en
Ġapp ear
å¤§ éĻĨ
æ¨ ª
Ġh y
é Ĩ
çĲ ´
Ġinv est
le y
éĢ Ĥ
is c
Ġob s
èµĽ åŃ£
å°± æĺ¯
éĺ¿ å°Ķ
ä½ ©
Ġwor ks
åĽ½ çİĭ
Ġc irc
è¿Ļ ä¸Ģ
äºº åĳĺ
Ġf il
åŃ ©
A s
åº Ļ
åĲĪ å¹¶
æĹł æ³ķ
as ter
Ġal ong
Ġdet erm
Ġtechn ology
f ace
Ġcom b
èĳĹ åĲį
éĵ¶ è¡Į
èª ī
Ġse em
å¥ Ī
å¦ ¹
ĠM ed
ä¸Ģ çĽ´
od e
åħ ħ
è¾ Ĩ
éĢ ĥ
_ _
Ġtem per
æŁ ĵ
y l
Ġs ing
Ġpol it
Ġfun ction
Ġcons ider
æĺ Ń
Ġus ually
å®¶ æĹı
Ġincre ase
Ġen c
ç¯ ĩ
ä¸Ģ èµ·
Ġsom ething
et ic
åıª æľī
å¹ ķ
Ġspec ific
å¾ Ħ
3 6
b r
æ¢ ¦
Ġ1 2
æ¤į çī©
å® ¡
m in
em ber
Ġcour se
Ġ er
id d
ç»Ĩ èĥŀ
Ġte ac
éĿŀ å¸¸
å·¥ ä¸ļ
ec ially
Ġwor ds
ç© ¿
ä½į ç½®
å¾ Ĳ
çĽ ĺ
Ġal ways
end ing
Ġchar acter
èµĽ äºĭ
Ġte xt
å¹´ åº¦
æ¸ Ĳ
èĦ ļ
y m
çĤ ®
éĢ ı
I N
ĠAf ric
Ġde ath
Ġresult s
å¾Ĺ åĪ°
Ġeduc ation
åī ĳ
éĻ µ
Ġre le
éĢł æĪĲ
v ious
åĽ º
Ġcre ate
i ation
H ow
ç»§ ç»Ń
åĮº åŁŁ
èĢ ³
è Ŀ
çİ¯ å¢ĥ
éĢī æĭ
7 5
è¿ĩ ç¨ĭ
3 8
æĿ¥ çļĦ
Ġdiff icult
Ġexper ience
Ġhe art
æ£ ĭ
ä¼ł ç»Ł
åĢ Ł
Ġg ive
ob al
o ot
é¢ Ŀ
èĬ ¬
Ġrec ord
Ġcommun ity
å¾ Ĵ
Ġsp ace
am m
æĢ Ģ
Ġto day
ç½ ª
åĨ °
Ġaut hor
Ġl ine
Ġcle ar
é² ľ
at ch
Ġeffect ive
Ġcons um
our s
æī ©
20 22
ain ing
èĭı èģĶ
åįļ çī©
æŁ ı
æĥ ł
åĳ Ī
b y
Ġdesc rib
ra y
A l
Ġcond itions
Ġp arent
å¥ ī
ç¿ ¼
æ´ ª
Ġchang es
Ġ $
æ¼Ķ åĩº
Ġapp lic
Ġsim ilar
iqu e
èĮ ¨
Ġm illion
å¥³ åŃĲ
ä¹ ±
Ġex ist
ç»ĵ æŀľ
éĴ ±
esp ecially
Ġ '
çģ Ń
å¢ŀ åĬł
åįģ ä¸Ģ
et er
å¤ Ł
Ġd ra
le t
Ġvar ious
åı¦ å¤ĸ
Ġneed s
æĺ¯ çĶ±
ru ction
èĩª çĶ±
Ġdisc uss
ä¹ĭ åīį
å¢ ĵ
The re
ys is
ç¬¬ åĽĽ
ot t
us h
ãĢĤ âĢĿ
æı ´
a i
ĠM ar
at ors
200 3
as ing
ä¸» å¸Ń
Ġhig her
Ġpop ulation
ore d
a f
i am
Ġc rit
åĪ ļ
å¹´ éĹ´
al es
ru g
Ġcent ury
Ġne xt
å®¶ åºŃ
Ġle ast
Ġcount ries
ä»¥ ä¸ĭ
æĪ ´
ort s
éģĵ è·¯
æ¿ Ģ
Ġbe gin
Ġac ross
åĶ ¯
Ġg re
Ġt ry
Ġstr ong
Ġrequ ire
è¾ Ľ
äºİ æĺ¯
Ġe y
åĮ» éĻ¢
Ġb rain
éĿ ł
Ġs ide
æĸ° éĹ»
ç§ ģ
rib ut
Ġf uture
ï ½
è¦ģ æ±Ĥ
æŁ Ĳ
Ġab ove
åª Ĵ
Ġwh y
Ġ ill
Ġle ft
Ġhow ever
Ġspec ial
Ġp ast
æ¯ «
s w
äº ®
m ost
3 3
ãĢį ï¼Ī
ĠE ar
m it
Ġcan cer
en n
get her
è¶ħ è¿ĩ
Ġto gether
å¯¹ äºİ
æļ ´
ç¼ ĺ
pt oms
æķĻ æİĪ
ç¼ º
Ġtemper ature
Ġprof ess
è¥¿ çıŃ
è¡ £
åı¦ ä¸Ģ
è¢ Ń
çº¦ ç¿°
Ġas k
Ġm ov
7 8
çºª å¿µ
è¿ Ķ
5 8
è¥¿çıŃ çīĻ
ãĢ ı
æŃ¤ å¤ĸ
ãĢ İ
one y
ĠJ ohn
éķ ľ
¤ Ĳ
Ġpro p
ĠW ar
ä¾ į
ĠB rit
Ġresp ons
Ġcomple te
å¦Ĥ æŀľ
Ġs ens
ĠC ar
Ġa way
Ġ Ð
Ġwork ing
æ± ł
ate g
åĿ Ĺ
æµ Ļ
çĽ Ĭ
ä¹ Ļ
Ġne cess
èµ ŀ
Ġd am
çļ Ĩ
Ġ z
Ġke y
om es
åŃ Ķ
éĽ ¨
Ġte am
il ities
Ġest ab
ä¸ľ äº¬
Ġpl ants
Ġimpro ve
ä» Ļ
åĦ¿ åŃĲ
Ġc r
av es
Ġk ind
Ġn et
Ġt erm
sel ves
Ġw ays
Ġ especially
å° ¤
ĠW orld
Ġbus iness
ç§ ¦
èĦ ±
f or
Ġche m
èĪ į
éĥ¨ éĺŁ
åĩº çļĦ
åĲį ç§°
èĻ İ
A T
il t
Ġeffect s
Ġrese arc
Ġm ot
Ġne ver
le ment
Ġ /
èĤ ī
ĠS o
é«ĺ éĢŁ
éĩį æĸ°
5 5
åĪĨ ä¸º
Ġpr im
æĮĩ æĮ¥
al f
Ġinf lu
.. .
Ġpat ients
3 9
y n
æİ¥ åıĹ
åıį åºĶ
åįļçī© é¦Ĩ
è¿Ľ å£«
æģ ¶
Ġtyp es
a ut
l o
åĽĽ å¹´
re am
Ġgo ing
æĢ» ç»Ł
e re
ä¹ İ
åİ» ä¸ĸ
æ¦ ľ
èĮĥ åĽ´
n al
åĲ ¬
Ġen ough
èħ Ĭ
Ġto ol
èĥ½ åĬĽ
Ġgener al
Ġf ull
ac es
çŁ ¿
æĶ¹ ä¸º
çİ° ä»£
om an
ä¸ľ åĮĹ
ac y
ac c
ar ing
Ġrel ations
æ» ¨
ä¿ ±ä¹Ĳ
g es
Ġt ru
æĽ ¹
Ġo pt
a pt
éľ ĩ
åľ° æĸ¹
u ment
c ul
Ġ3 0
å§ ĵ
Ġcol le
ä»» ä½ķ
Ġs elf
s ide
th ing
ä¿±ä¹Ĳ éĥ¨
Ġl ower
èµ ı
ach ing
Ġst ep
è® ¨
it ing
Ġstud ies
èĽ ĭ
ĠG o
æ´ ŀ
æĪĺ æĸĹ
çĶµè§Ĩ åī§
é¡ ¾
ific ation
ç ¦ģ
è° ĭ
ĠEng lish
èı Į
Ġha ving
çºª å½ķ
åĪĽ ä½ľ
çĶ ĺ
a im
du ct
ist ic
èŀ į
200 2
Ġp red
ĠG en
çĽ´ åĪ°
f er
ĠG erm
æį ķ
ch ie
æ¡ ĳ
Ġm ind
å¢ ¨
ed i
å¯ ¿
Ġs um
åĨħ çļĦ
èĤ ¯
ä¼ģ ä¸ļ
è¡¨ çİ°
æĵ į
ä¸ľ åįĹ
Ġl ive
Ġacc ount
åĨĽ éĺŁ
éĴ ¢
éĻ¤ äºĨ
æĪĲ ç»©
Ġknow ledge
åĨħ å®¹
Ġpol ic
i ol
Ġphys ical
ç¿ »
æ¯ ģ
ç» į
ĠO ne
æµ ¦
F or
åįı ä¼ļ
æĢ ¥
Ġsub ject
Ġcon cer
ĠU S
Ġn orm
è ķ
åĲİ çļĦ
å¾ ħ
éĢīæĭ ©
Ġbec ame
åĪ Ĭ
æĪ Ī
Ġb ir
åĨĽ äºĭ
è¿ ¹
çĶµè§Ĩ åı°
Ġc y
å» ī
ç» ¼
en cy
Ġm akes
è® ¿
Ġro le
åĩ» è´¥
åĪ© çĶ¨
å°ı æĹ¶
åĨ ·
Ġprot ect
å®ĥ ä»¬
èĩª çĦ¶
Ġw r
ï½ ŀ
é¢ ģ
Ġrep resent
Ġf urther
u ed
3 4
Ġwhe ther
Ġre ason
ĠS ome
å¸ ģ
ab les
Ġc ity
read y
Ð ¸
ĠW ith
è ¸
ä¸» é¢ĺ
/ /
Ġb ig
äººæ°ĳ åħ±åĴĮåĽ½
çīĪ æľ¬
ä¸» æĮģ
è¯ ¾
èĻ «
A R
è¯Ń è¨Ģ
it or
å¹ ¸
it es
å°Ķ æĸ¯
Ġr ange
Ġc ases
è¿ĲåĬ¨ åĳĺ
ip le
i res
ĠIn tern
Ġsc ience
ĠG e
æĢ§ çļĦ
Ġquest ion
6 5
äºļ æ´²
u nt
Ġch all
os is
ĠC omp
æĭ Ľ
æĸĩ åŃ¦
éĢī ä¸¾
re l
éĢ Ŀ
æĭį æĳĦ
æ¯į äº²
å½ ©
ä½ľ çĶ¨
é½ ¿
Ġp aper
æļ Ĺ
b on
ward s
o ber
iv al
éº »
çı ł
Ġg round
Ġen s
I S
ur ch
æ± ĩ
åĳ ³
æĹ ĭ
åĨį æ¬¡
Ġsym ptoms
fe rence
ï¼ļ ãĢĮ
åĪ¶ éĢł
es c
å¥¹ çļĦ
çº¿ è·¯
æ± ½
3 2
åŁ ¹
sy ch
ĠA m
äºº ç±»
Ġbe low
: //
ĠT r
çĶµ åŃĲ
éĥ½ æĺ¯
èİ İ
ĠM an
ç Ĵ
çĶ ³
åĩ ¤
Ġs ure
Ġmod el
åĬ ª
æĹ¥ åľ¨
Ġprodu ction
æĦı å¤§åĪ©
au gh
æłĩ åĩĨ
200 1
ĠN e
éĺ ´
p ut
åĿ ļ
Ġind ic
Ġactiv ities
Ġpro b
Ġactiv ity
æľī åħ³
ä¾ µ
å¯ »
op h
è¿ İ
æĸ¹ æ³ķ
is on
æ® ĸ
Ġwor d
ĠP r
Ġem ploy
Ġgrou ps
Ġ X
Ġd ig
Ġe ff
u ation
æ¶ ²
Ġst ory
Ġqu ality
Ġpartic ip
å¹¶ ä¸į
Ġse en
ä¹Ł æľī
Ġh ouse
ib ility
è¾ ħ
s h
Ġf und
Ġpot ential
ç» ľ
E S
åī Ĥ
4 9
é» ĺ
Ġal ready
Ċ Ġ
æģ Ĳ
æĺ¯ä¸Ģ ç§į
èģĶ éĤ¦
ĠHe alth
åħ± åĲĮ
et imes
æ¸ ¡
of t
å¹¿ ä¸ľ
ãĤ ¹
Ġoff ic
é ¬
Ġcl ose
çĳ Ł
Ġf ield
Ġf all
éļı åĲİ
ou ra
Ġe ither
Ġre ally
çļĦ æĹ¶
ĠI m
Ġl ot
éļ Ķ
å¹´ åľ¨
ver age
Ġdevelop ed
ä¸» è§Ĵ
Ġval ue
æµĻ æ±Ł
Ð µ
am in
ne y
ĠTh at
f act
il s
Ġl oss
çī© ç§į
ä¸ī åįģ
ub lic
Ġr ather
æĬ µ
æĤ £
åĪ ĳ
ĠA b
Ġst at
re g
æī ¬
éħį éŁ³
åĮ ¹
æĴ ¤
Ġne g
Ġph ot
é³ į
æģ Ĵ
Ġn ut
æĸ° çļĦ
b o
Ġm ass
å®Į åħ¨
Ġsing le
è¥¿ åįĹ
éĩĮ æĸ¯
ĠA ss
è¿ ·
ur ity
èµ ¢
åį ±
åĨ ¬
ear ch
Ġproduct s
æĶ» åĩ»
ove red
or g
Ġde g
åĬ¨ çĶ»
m ber
å¤ª å¹³
ï¼ Ł
è®¾ ç«ĭ
Ġres ources
å¹ ¼
Ġd one
Ġobs erv
ï¼Į ãĢĬ
n ed
o on
èĳ £
Ġc ut
éĿ Ļ
ric t
Ġev ent
æ¥ ļ
Ġgrow th
åį Ī
Ġsk ills
Ġtra dition
c hes
æį Ł
Ġab s
ide red
as k
u le
åįļ å£«
Ġw ind
ä¸Ńåįİ äººæ°ĳåħ±åĴĮåĽ½
Ġ ur
æĭī æĸ¯
er y
åĳ ¼
Ġa chie
Ġrec ogn
v al
åħĥ å¹´
ĠD r
å® ľ
ä¸ĭ çļĦ
iv ity
Ġacc ording
iv il
æ° §
Ġquest ions
çĬ ¯
ç±» ä¼¼
èĳ ¡
ä¹ Ī
Ġfl u
4 4
å¸Ĥ åľº
çī¹ å¾ģ
ĠSt ud
å½ ¼
æ½ ľ
æķ° éĩı
è´ ¡
ĠN orth
å´ ĩ
Ġcon cept
çĽ´ æİ¥
Ġs ource
èĦ ī
æĽ¾ ç»ı
Ġf ive
å±± ä¸ľ
æľĢ åĪĿ
çĤ ¸
åĬł æĭ¿
Ġredu ce
ĠS he
ra d
Ġbuild ing
ç¾İ åħĥ
I D
r ont
å®ŀ éªĮ
Ġs ize
å¤§ éĩı
ä¹ °
re ct
le ep
ç¬ ¦
ç¦» å¼Ģ
m a
æıĲ åĩº
è¿ĺ æľī
ä»» åĬ¡
Ġiss ues
ĠB y
Ġr ate
å®ī åħ¨
æī İ
Ġindu st
Ġn ational
å¹¿ æĴŃ
åĮº çļĦ
æĦ ¿
W hen
Ġ å¤§
åŃ¦ ä¹ł
å§ Ĳ
åĮħ åĲ«
Ġcol lect
Ġev idence
çİ© å®¶
ra ms
æ» ĳ
ä¸Ģ æ¬¡
Ġadd ress
äº ¨
ä¼ į
æŃ» äº¡
ro ll
Ġsur face
ãģ Ħ
Ġin it
Ġcons idered
ĠM ay
Ġre d
Ġs ite
çº½ çº¦
ç» ĺ
Ġint rodu
ĠC al
è¾ ½
Ġcl imate
Ġart icle
å½¢ å¼ı
ĠS oc
um p
re me
éĶ¦ æłĩ
ĠS y
g r
Ġb at
Ġt aken
Ġdet ail
Ġon ce
æ²³ åįĹ
æĹ© æľŁ
m y
é¢Ĩ å¯¼
åĵ ²
Ġd rug
ep end
7 6
ip s
Ġresearc hers
çļĦ å¥³
åĳ½ åĲį
e b
è¿Ļ æĺ¯
ol l
ĠS outh
g o
åĨ Į
Ġs ent
Ġrec omm
Y ou
ä¸ī ä¸ª
Ġt ell
è± ª
18 9
Ġf ail
ĠC o
åĭ ĩ
ä¸¾ åĬŀ
Ġfre qu
åı ¬
éŁ© åĽ½
Ġs al
Ġpress ure
Ġw ide
åı «
Ġwh ite
éĵ ľ
Ġm icro
è®¾ ç½®
Ġf ri
Ġassoci ated
Ġrel ig
Ġfe ature
à ¤
è¥¿ åĮĹ
Ġ ver
å¾ ½
çĶļ èĩ³
pl ic
Ġto t
åŃ Ŀ
æ¨¡ å¼ı
ĠR ep
Ġp ay
å¹¶ äºİ
Ġmem bers
ä¸Ģ ç§į
åĭ ĭ
åĲ ķ
ä¼ Ł
ä¸ĵ ä¸ļ
Ġan n
Ġd est
äºĶ å¹´
å¿ħ é¡»
Ġwho le
Ġmed ical
è½ ¯
Ġcre ated
å´ İ
è¡Į åĬ¨
Ġunderstand ing
åħ± æľī
à ¸
Ġ =
Ġ :
our nal
Ġsim ple
ĠAmeric a
è°ĥ æŁ¥
ç¼ ©
O N
Ġst ates
èĦ ĳ
æŁ ±
å¼ ĥ
çĽ Ĳ
Ġme et
ä¸į èĥ½
éģ ¿
æ± ¤
æĪ ª
Ġl iving
Ġsk in
Ġc ame
ight s
Ġpract ice
Ġd om
å¸Į èħĬ
ç³ ĸ
çī §
åŁº ç¡
åľ° ä¸ĭ
Ġh old
ill ed
è¥¿ éĥ¨
ffic ient
è·Ŀ ç¦»
Ġincre ased
et y
æķ ı
ï¼ ģ
p ro
ch an
æ¯« ç±³
ĠG u
Ġn ature
èı ľ
å¹³ åĿĩ
æĴŃ åĩº
éĴ Ī
æµ ª
è½¨ éģĵ
æĸ¯ åĿ¦
åĪĨ ç±»
Ġs ound
Ġ1 00
Ġrel ated
è° Ī
å·ŀ å¸Ĥ
è® ¢
äºĮ å¹´
è®° è½½
åĮĸ åŃ¦
èĲ §
æķĻ åłĤ
æĬķ èµĦ
Ġrelations hip
Ġ1 1
é¢ ľ
Ġ201 0
Ġwrit ing
çĸ ĳ
Ġsu n
Ġact ually
ore s
5 6
Ġup on
éĿĴ å¹´
çī ł
ç ¹
æģ ĭ
æŀ ļ
u el
å¦ ĩ
Ġanal ysis
åŁºç¡ Ģ
Ġanim als
Ġthem selves
Ġf ish
éĻ ¶
éĤ ®
æŃĮ æīĭ
åľ Ī
en ing
Ġan sw
Ġst ress
ed s
ol ic
h ing
en e
Ġpur p
åĿ ı
Ġeng ine
Ġpolit ical
Ġrequ ired
id ing
l ike
Ġret urn
è´ ¤
çĽ¸ å½ĵ
åķĨ ä¸ļ
Ġl ay
éĽ ķ
å¦ ®
199 9
Ġdo ct
Ġwee k
Ġd oc
Ġcan not
Ġmod ern
ut ions
å¢ Ļ
ens ive
åĶ¯ ä¸Ģ
Ġent ire
ãĢ ī
Ġopp ortun
ac ed
åĲ ¦
ãĢ Ī
è¯ ¯
æ ©
ĠA ust
å¥ Ĺ
Ġgl obal
éĺ »
å° Ĭ
å±ħ æ°ĳ
z e
Ġbl ack
çĲĨ è®º
ĠA ct
Ġcomple x
Ġm or
éĥ Ń
Ġpub lished
åĬłæĭ¿ å¤§
art ment
Ġhealth y
æĸĩ çī©
é£ŀ è¡Į
ï¼ ı
A N
åĿ Ĳ
åĽĽ å·Ŀ
Ġmaterial s
éĶ ¡
ãĥ «
Ġad ult
Ġdi et
é¬ ¼
ag ing
Ð ½
å¹¿ åľº
è¢« ç§°ä¸º
Ġ vers
è£ ģ
Ġar ch
T o
ren ces
W h
6 8
è¿ŀ ç»Ń
Ġmark et
æĹ¶ çļĦ
se qu
Ġ Ġ
" .
it ary
ä¸Ģ æł·
è´ º
ac ks
uc k
Ġav oid
ãĤ ¤
Ġh tt
Ġthough t
- -
èĭ± æł¼åħ°
éļ¶ å±ŀäºİ
åľ° çĲĨ
ä» Ķ
Ġmain t
Ġcon dition
åĪĨ éĴŁ
æ½ ®
å¸® åĬ©
Ġp ort
Ġfact ors
T C
Ġhist or
m b
åħĦ å¼Ł
Ġcol l
Ġc at
Ġexper ien
Ġqu ick
Ġre act
ly ing
åħ³ äºİ
ib r
ĠY ork
Ġl a
æıı è¿°
Ġneed ed
ow s
Ġpart s
Ġab ility
åħ¶ åĲİ
Ġman agement
) :
h ib
é£ŀ æľº
4 2
æİ Į
åį ĸ
ä» ĵ
å¤ļ æķ°
ä¼ Ĳ
ä¸º P
an a
ç¬¬ä¸Ģ æ¬¡
Ġal most
it ud
Ġfam il
æĺ¾ ç¤º
æķ° æį®
æĸ¹ åĲĳ
Ġstud ent
ĠS chool
æ¡ ĥ
è¶ħ çº§
Ġpro te
è¯ ī
æļ Ĥ
Ġprov ides
le x
åĲį åŃĹ
Ġ 50
I C
ä» ĺ
row n
Ġf at
å® ¿
èµ ¤
éĹ Ń
ag ed
ä¹ĭéĹ´ çļĦ
os es
Ġé¥° æ¼Ķ
åįĹ äº¬
Ġcom es
ur s
ä¸¤ äºº
en ed
ç´ §
éĻ ·
é© ±
éĥ¨ éķ¿
ap an
Ġm oney
Ġide a
Ñ Ģ
èĥ½ å¤Ł
5 00
äº «
æ² ī
å»º éĢł
Ġass ess
Ġb ar
g ing
è¿ «
O n
g est
O R
æ³ Ľ
l or
æŀ Ĳ
Ġsu per
è£ Ĥ
199 8
æī§ è¡Į
Ġ201 2
p ly
199 0
è® ¯
in ter
èĲ Ħ
Ġh alf
èĳ¡ èĲĦ
Ġmonth s
è¿ŀ æİ¥
Ñ ģ
é©¬ æĿ¥
us ion
èĢĮ ä¸Ķ
es e
ä¸ ĺ
å¹ »
ĠM e
iz ing
ĠD o
Ġappro ach
. )
ad a
7 9
åįķ æĽ²
è¡Į ä¸º
ĠC ont
ç¹ ģ
Ġsu ff
Ġar g
åī§ æĥħ
çģ °
Ġsp e
é£İ æł¼
Ġg reen
æĪĺ å½¹
Ġmeas ure
ï¼ļ ãĢĬ
Ġeconom ic
ĠP ar
ä¹ ĥ
çĶ· åŃĲ
è· ¨
è®¾ æĸ½
åĢ Ĵ
en ces
ve re
åıĳ å¸ĥ
Ġit self
Â °
è§Ħ åĪĴ
éĺ ģ
ç¬ Ķ
è®Ń ç»ĥ
ä½ľ æĽ²
Ġo il
ĠSt ate
ä¿ Ĺ
æ¼« çĶ»
æĭ Ķ
Ġperson al
um e
å® ª
Ġs am
å¤ª éĺ³
idd le
æĺ Ĩ
ä¸» ä»»
Ġwe ight
Ġex erc
å®ŀ éĻħ
æĪĳ ä»¬
Ġprodu ce
Ġp ath
Ġl ink
ĠD ep
on se
ä¸Ģ ä¸ĸ
Ġg as
Ġbe gan
Ġj ob
çĩ ķ
åĲĦ ç§į
ĠEar th
å¤© æ´¥
ict ion
Ġright s
ab it
6 4
Ġmed ic
äº§ åĵģ
å¸Į æľĽ
Ġcomput er
Ġar r
Ġcle an
Ġserv ices
æ² Ī
ĠS u
Ġfe ed
æĮ ¯
ab or
ĠInd ia
éĿ ĸ
A C
åĿ ĳ
è§ ¦
åŁº çĿ£
åħ¨ çĲĥ
Ġst op
æĺ Ĥ
Ġpr inc
es tern
Ġon line
èµ ĸ
ĠP e
ç´ «
Ġse par
Ġparent s
Ġsa fe
er ve
Ġg e
äºĮ ä¸ĸ
è· ĳ
äºĭ åĬ¡
Ġchem ical
Ġ201 1
å¤§ æĪĺ
ç¥ Ń
åħ¬ å¼Ģ
ir m
ĠH ist
åľ° éĵģ
Ġd og
m on
Ġs oft
å£ ¤
çļĩ å¸Ŀ
y le
åĬŁ èĥ½
Ġbehav ior
è£ Ķ
Ġreg ion
Ġpat tern
Ġto ok
ä¸į æĺ¯
0 1
åľ¨ æŃ¤
çĨ Ļ
Ġnecess ary
Ġf arm
åľ° çĲĥ
Ġ1 4
æĢ ª
c ient
åİŁ åĽł
Ġa ction
b ased
Ġthrough out
Ġe ver
ig ure
ä¸» æ¼Ķ
è®® ä¼ļ
Ġlit er
he t
ic les
ri pt
Ġcomp any
Ġpop ular
Ġe mer
ç©º éĹ´
Ġ201 3
Ġpr iv
as c
im ent
Ġshow s
A S
Ġcl aim
h a
em pt
æŁ ´
åıĳ è¡¨
åģ ı
çĸ «
cc ording
ĠH is
éĢī æīĭ
ut es
an ced
Ġt ar
Ġread ing
åħŃ å¹´
ä¸ľ éĥ¨
Ġcol or
Ġstruct ure
æĺİ æľĿ
Ġcon duct
Ġy et
it ation
is ing
Ġso il
Ġindividual s
çĸ ¾
è´ ¸
st er
18 8
è ļ
åªĴ ä½ĵ
æķ ¬
ä¸į ä¹ħ
é¢ Ĺ
ç§ Ł
çº ¹
éĶ ĭ
Ġter ms
Ġse x
éĢ Ĭ
Ġre pl
Ġrec ent
p id
åħ ½
ect ions
Ġb ur
Ġthe rap
çº ¯
Ġr ul
Ġsoc iety
ä½ľ å®¶
6 7
Ġ200 9
å¢ĥ åĨħ
æľĪ åı°
é¹ ¿
è¾ ŀ
çº ¸
åŃ¦ åĲį
èĳ ¬
ç¬¬ äºĶ
åħ¨ éĥ¨
5 9
æ²» çĸĹ
Ġlong er
æİĴ åĲį
èĩª æ²»
çĽ¸ åĲĮ
ĠN o
èĴĻ åı¤
é ¤Ĳ
Ġcont ent
a ff
er ous
ä»ĸä»¬ çļĦ
Ġreg ard
Ġ ut
Ġc e
n s
em ic
i us
ä»¥ æĿ¥
199 7
è´Ŀ å°Ķ
l t
Ġf ire
Ġt aking
èµ¢ å¾Ĺ
ä»į çĦ¶
ç¤¾ åĮº
ä¼¦ æķ¦
åŁº æľ¬
å¾Ī å¤ļ
å®ļ çļĦ
ç´ ¯
çĲ ³
Ġs ense
çı į
6 9
å£ ģ
è®¡ ç®Ĺ
æķĻ ç»ĥ
Ġincre asing
ast ic
æ°ĳ æĹı
is ter
æŁ ¯
Ġmean ing
â Ĩ
Ġs ix
ren g
Ġbu ilt
ĠA fter
Ġh ours
7 7
d om
Ġin j
éĵģ éģĵ
æĸ¯ ç§ĳ
ç¡ ¬
land s
ul ations
æ¼Ķ åĶ±
Ġinter act
Ġs leep
Ġc op
Ġhe at
åıĪ ç§°
g ar
ive ly
ç² ī
Ġtot al
ä¼ ¸
ä¸Ģ åĲį
âĢĿ ï¼Ī
ä¼ ´
Ġtra vel
è· ³
Ġpre vious
Ġmat ter
w h
Ġt alk
ĠBrit ish
ĠJ apan
Ġbre ak
çĲĥ ä¼ļ
Ġsur v
Ġeas y
è¾¾ åĪ°
ä¿ Ĭ
he l
å¼ ĺ
èĭ± è¯Ń
ä¸įåĲĮ çļĦ
Ġcaus es
å»º äºİ
Ġl ives
ãĢĤ ãĢį
Ġm ach
Ġre v
Ġcaus ed
Ġcon c
ç»Ł æ²»
ĠE m
Ġserv ice
ä¸º ä¸»
å¤© ä¸»æķĻ
Ġindust ry
è§ Ī
Ġtra ining
ç»¼ åĲĪ
Ġbenef its
ä¸ŃåĽ½ å¤§éĻĨ
çĮ İ
Ġpos ition
ĠRes earch
åŃ Ł
æľ ĭ
4 1
éļ ľ
çĤ İ
Ġsp read
ist ics
Ġcont ain
èµ ł
çĬ ¹
Ġmus ic
çĥ §
ĠWh ile
æł ĸ
è¾ ī
Ġde b
4 3
ç»§ æī¿
èį£ èªī
åĩºçĶŁ äºİ
è´ ¾
åİ ļ
æģ ¢
ve y
æ¢ °
ä¼ ı
ail y
åħĭ åħ°
å°½ ç®¡
ĠK ing
ist ance
Ġpos itive
å¦» åŃĲ
Ġ200 8
Ġinclud es
ĠIn stit
å¤Ħ çĲĨ
åĪ Ģ
èĮ ¶
ful ly
6 6
å±ŀ çļĦ
å¹´ åĲİ
çĦ¶ åĲİ
Ġl ove
éĢŁ åº¦
åģ ¶
Ġsh own
Ġdi agn
ä¿¡ æģ¯
éļ Ĳ
ĠP art
Ġb acter
in ary
è¡Ĺ éģĵ
Ġcont act
åŃ¦ ä½į
ä½Ĩ åľ¨
èĽ ĩ
Ġenvironment al
end er
Ġet c
Ġw ild
æĶ¹ ç¼ĸ
l ight
Ġ2 5
å¼Ģ æĶ¾
è¿ Ī
ĠW ill
æĻ ¶
é¾ Ħ
æĹ ģ
s on
åĽ °
çĨ Ĭ
Ġhe av
Ġprov ided
çŃī äºº
è¯Ħ ä»·
ç¨ ³
um b
å°ĳ å¹´
Ġac cept
åıĺ åĮĸ
Ġ1 3
Ġ ,
u fact
Ġ201 5
er ation
Ġmove ment
ri e
é¼ ĵ
éĺ¿ æĭī
Ġv ide
in o
Ġv iol
Ġche ck
æľĢ æĹ©
Ġme chan
æ® ĭ
Ġde ep
æį ·
ad es
Ġs at
Ġorig inal
åŁ Ķ
Ġbr ing
r ast
è° ±
ä½¿ å¾Ĺ
Ġdesign ed
ä¸ļ åĬ¡
æħ ķ
min ist
åħ¬ åħ±
Ġf em
ä¸Ĭ æĺł
ç®Ģ ç§°
çī© çĲĨ
n a
å·´ é»İ
Ġ201 4
Ġth ing
éĶ Ļ
9 9
æ® Ĭ
Ġl if
Ġtru e
S E
çģ ¯
èĳ Ľ
ç»ı èĲ¥
ç»ı å¸¸
199 6
Ġvar i
å® ħ
ĠS ec
ĠP er
åĽŀ åĪ°
å¨ģ å»ī
Ġa verage
Ġschool s
å Ĺ
id ge
èĥĮ æĻ¯
u k
Ġl ed
rop ri
av ing
c hed
Ġst e
ord er
6 2
ric ult
Ġsim ply
çİĭ åĽ½
al ing
éĺ¶ æ®µ
Ġrel ative
ãģ Ĺ
èµĦ æĸĻ
èİ ²
Ġsub st
h old
çķ ª
ri or
ç¦ı å»º
æľĢ å¤§
ĠE d
ç® Ń
h ood
il le
æ°ĳ ä¸»
o or
rough t
ç¾¤ å²Ľ
eng th
æ¡ £
æŁ ³
5 7
çļĦ å°ı
éĢĿ ä¸ĸ
ver se
am ed
ä¸Ń æĸĩ
Ġpre c
ĠC ount
åĬŀ åħ¬
åİ ¦
0 2
Ġstand ard
Ġresp onse
ä¸¥ éĩį
Ġe at
Ġreg ular
ä¹ ³
os ition
ron ic
Ġgre ater
c o
è½ ´
æģ¢ å¤į
Ġex c
çİ Ħ
åĩº äºĨ
Ġvar iety
B ut
æ¯Ķ äºļ
åħ¬ å°º
Ġsom etimes
Ġcomp an
I V
çĩ ĥ
ial s
i ot
at ives
éĥ¨ éĹ¨
è¿Ĳ èĲ¥
E D
Ġdo ing
Ġf ru
Ġear th
åĽ¾ ä¹¦
é¢ĳ éģĵ
ĠCh ina
Ġmethod s
Ġdem on
ä¼ °
ab et
é ŀ
è¡¨ æ¼Ķ
å¹¿ å·ŀ
çļĦ æĸ°
ren ch
åıĳ åĬ¨
ãĥ Ī
ç¾İ æ´²
6 1
re w
å·¦ åı³
ar ies
åĽ½ æ°ĳ
èį· åħ°
è¡ĮæĶ¿ åĮº
æĬ ĺ
èĢħ çļĦ
Ġorig in
åĲ ĥ
Ġcult ure
å°Ķ å¾·
ĠM in
éĻ ķ
æĮ ĳ
æĿ ī
Ġ201 6
ĠS te
8 2
k now
!!!!!!!!!!!!!!!!!!!!!!!!!!!!!!!! !!!!!!!!!!!!!!!!!!!!!!!!!!!!!!!!
çº µ
çĮ ª
Ġcar bon
éĶ¦æłĩ èµĽ
b an
Ġre view
åŁº åľ°
Ġs ources
ĠSc ience
å¤§ éĥ¨åĪĨ
æ¶ ī
æķ´ ä¸ª
Ġscient ists
Ġth reat
è§Ħ æ¨¡
imate ly
on y
ed eral
ĠJ ew
çĶŁ äºİ
Ġrem ov
ar ily
199 4
æĬ ļ
çĽ® æłĩ
èī² çļĦ
å®ĺ æĸ¹
Ġhelp s
ĠB o
æµģ è¡Į
è®® åĳĺ
Ġtar get
B C
Ġst reng
199 5
å°Ĩ åħ¶
ç¯ ®
5 4
æ± Ĺ
æĴ Ĵ
Ġnet work
åŀ Ĵ
è¿Ļ æł·
ĠH ar
op s
Ġbelie ve
èº« ä»½
Ġev ents
ç¢ ĳ
çļĩ å®¶
éĽ ¶
Ġwrit ten
åŃĲ çļĦ
5 1
6 3
åĩ ¡
å¥ ´
Ġus es
Ġreport ed
çŃī åľ°
Ġ i
Ġinvol ved
Ġf ace
5 3
Ġs low
ĠE l
å¡ŀ å°Ķ
çĮ «
du c
æ¶ ħ
is es
Ð¾ Ð
éķ¿ çļĦ
uc le
Ġiss ue
ãĥ ©
ç¦ Ħ
Ġenc oura
ell ing
ers on
èĭ Ĺ
èī ĩ
ĠP res
æĪĸ èĢħ
ç§ĳ æĬĢ
å¹´ èµ·
ĠQ u
o ly
æķĻ åĮº
Ġident ify
Ġ æĿİ
åĨ ¯
æ³ķ å¾ĭ
Ġprog rams
Ġp ict
Ġcomp et
éĢĲ æ¸Ĳ
Ġt ax
Ġpo or
a ur
ie f
è ¦
åĪĹ è¡¨
Ġ200 7
æľĢ å¤§çļĦ
Ġfe et
åħ¬ ä¸»
éĤ Ģ
å² Ń
n ew
b or
åľŁ åľ°
ç¼ĸ çłģ
åį ¿
æľĿ é²ľ
åŃ¦ èĢħ
çĭ ±
E N
Ġs qu
Ġnorm al
ol es
æħ Ī
Ġsa f
è¿Ĳ è¡Į
ct ions
æ¾³ éĹ¨
ç»ı åİĨ
8 8
çļĦ ç¬¬
Ġdam age
Ġpol l
Ġim age
Ġl at
è½¦ è¾Ĩ
Ġdevelop ing
ĠF ran
Ġout side
7 1
Ġdis pl
æĶ¿æ²» äººçī©
Ġl ack
r s
çĲĥ åľº
ro om
æĭ Ĩ
é«ĺ çŃī
å±ħ ä½ı
æ±½ è½¦
ç¬¬äºĮ æ¬¡
åĪĨ æŀĲ
å¤§ çº¦
ad s
ç» ª
p art
Ġb al
Ġresp ect
Ġfood s
Ġvir us
Ġvis it
Ġens ure
5 2
çĹħ æ¯Ĵ
Ġparticular ly
ĠA pp
âĢ ¢
åĪĻ æĺ¯
çļĦ ä¸»è¦ģ
åı Ľ
Ġp le
æĿĤ å¿Ĺ
è¿ĩ åİ»
Ġp sych
Ġfor ms
Ġimp lement
7 2
Ġ |
m ar
Ġmed ia
Ġprodu ced
Ġext reme
Ġwe bs
ac hes
ac hed
or ks
Ġnum bers
çŃ Ķ
Ġcomp on
ãĢį ãĢģ
åı Ļ
ä»¥ ä¸Ĭ
Ġl ate
Ġh arm
Ġatt empt
Ġm ess
I T
éĥ¨ ä»½
æ¯Ķ è¾ĥ
ç½ĳ ç»ľ
Ġem ot
èĽĭ çĻ½
æķĪ åĬĽ
ä»» åĳ½
Ġc ust
Ġa ff
åĴ ¸
im um
å¤ļ çļĦ
Ġp age
å¥³ æĢ§
Ġatt ention
è¢« è®¤ä¸º
Ġref er
Ġfor ce
èħ ¹
ĠAust ral
æĮģ ç»Ń
u ge
å° ĸ
ç¾ Ĭ
è®° å½ķ
ä½ĵ çļĦ
è¯ Ĭ
ĠM us
Ġve get
æĸ¯ çļĦ
Ġgener ally
ä¸į ä¼ļ
A nd
Ġexp ress
è¡ Ķ
n ers
è¿Ľ æĶ»
Ġc amp
p e
èĹ ©
Ġbas ic
Ġteac hers
m ing
l ies
Ġsp eed
èĻ ļ
æ² Ł
is ions
Ġl og
Ġchall eng
Ġser ious
åĪĨå¸ĥ äºİ
åºĶ çĶ¨
è¡ ¡
Ġser ies
Ġinclud ed
r ig
199 3
åħĪ åĲİ
å¥ĸ é¡¹
å°ļ ä¹¦
æ½ ĺ
Ġgrow ing
os ure
æĶ¹ åĪ¶
äº¤ æĺĵ
è´ ¯
Ġcor rect
erv ation
ç¥ĸ çĪ¶
æħ ¢
er g
Ġem b
æĹł çº¿
Ġman ufact
åŀĭ çļĦ
Ġ4 0
198 0
199 2
ĠI I
åįı åĬ©
Ġsh are
éĿ© åĳ½
ç ĺ
èī ĺ
éĺŁ çļĦ
èİ·å¾Ĺ äºĨ
Ġdef in
ç¥ ¥
è¿Ĳ è¾ĵ
Ġcons ist
Ġfore st
Ġ ir
se t
é¥ ®
iss ions
om et
çģ ¾
æĭ Ĵ
ĠA g
åĬł åĿ¡
æ±Ł èĭı
åıį å¯¹
ens ion
7 3
åĶ± çīĩ
Ġo x
å¼ ±
è¯Ħ è®º
a ul
Ġw ood
åħ ģ
æŃ¦ åĻ¨
Ġess ential
Â ł
éĻĨ åĨĽ
å° ī
Ġind epend
Ġse lect
æĬ¥ åĳĬ
Ġpat ient
Ġprob ably
å¹ ħ
vent ion
å¾· éĩĮ
ï¼Į âĢľ
æ¡ Ĥ
æ³ķ éĻ¢
Ġdoes n
ãĥ ª
ut h
èĶ ¡
çĽ Ĺ
Ġsome one
Ġelect ric
ç»´ å°Ķ
å¤§ éģĵ
æĺİ æ²»
åĦ¿ ç«¥
ĠP re
è§£ æĶ¾
f ect
åľ ³
å»º æĪĲ
ãĤ ¯
æĸ ĳ
Ġsaf ety
å¥¥ è¿Ĳ
Ġpolic y
Ġpr int
äºº ä»¬
Ġco ver
ĠI nt
ä¸Ń éĥ¨
Ġc oun
Ġcontin ue
çłĶç©¶ æīĢ
ĠJ u
ĠS m
çĨ Ł
Ġa ware
ĠS ch
è¿ĺ æĺ¯
ãģ ĭ
æľº ä¼ļ
ĠM any
Ġsu st
å¹´ è½»
åĿ Ľ
ĠC O
è ©
l s
è´ ŀ
ä½ľ æĪĺ
Ġget ting
ce ll
æĲ Ń
Ġc it
ç» ķ
å¥¥ æĸ¯
os ing
è®¾ å¤ĩ
ĠF r
Ġ201 7
çļĦ é«ĺ
rib ution
em s
o es
åĩº ä»»
åı° åĮĹ
æĻ® éĢļ
Ġe th
ograph y
å®Ĺ æķĻ
Ġ- -
ĠCent er
ãĤ ¢
ãģ ª
H e
åİ ĺ
æĸ° åĬłåĿ¡
Ġm agn
æĥ Ĭ
t ies
åı Ķ
ing ton
Ġperform ance
æĿ¥ æºĲ
it ch
æ §
å°ı åŃ¦
Ġanim al
åĲĮ æł·
çĹ Ľ
é©¬æĿ¥ è¥¿äºļ
å¤§ èĩ£
åĬł çĽŁ
Ġide as
åĨľ ä¸ļ
c il
çļĦ åīį
åİŁ æľ¬
Ġca pt
æĿĲ æĸĻ
Ġse a
R e
r or
Ġw all
ç»ĵ å©ļ
Ġallow s
å½± çīĩ
é© ¶
199 1
A M
im in
al y
ï¼ī ï¼Ī
at t
ä¿Ŀ æĮģ
d en
Ġs ou
anc ial
ç¨ İ
åĪĿ æľŁ
ĠC ons
Ġk ids
Ġ åľ¨
èĳĹ ä½ľ
Ġv acc
Ġt iss
an cy
èĬ Ŀ
ir it
çº ²
Ġn ight
è·¯ æĺĵ
èµĦ æł¼
åı¸ ä»¤
Ġpre p
çīł ä»¬
ĠJ an
è© ¹
Ġprim ary
Ġc ross
Ġd aily
ĠM c
æĴ ŀ
åľ°åĮº çļĦ
ĠG l
åı¸ é©¬
c ies
åĽ¢ ä½ĵ
æĿ¡ ä»¶
h aps
ĠCh ar
Ġt akes
Ġag o
ç² Ĵ
T V
éģ £
Ġthe ory
Ġb ab
Ġhy d
åħ¬ å¸ĥ
çĥ Ł
r ight
åĸľ æ¬¢
g round
çİĭ æľĿ
ãĤ ĵ
æľĭ åıĭ
è´¸ æĺĵ
Ġd ou
ï¼ī ï¼Ľ
U TC
u ary
ra ft
Ġlook ing
Ġth us
Ġthere fore
ä¸Ģ ä½į
ĠY our
æľ¬ ç«Ļ
æķĻ ä¼ļ
è¯ ļ
åıĳ å°Ħ
Ġdra w
ĠA ug
æ¹ĸ åįĹ
å¼ķ èµ·
Ġlead ers
ĠW est
åĤ ¨
Ġcomp ared
çĬ¶ æĢģ
ĠInd ian
Ġatt ack
Ð º
A r
use um
åŁİ åĮº
ãģ ¨
æľī çļĦ
èĭ ¦
Ġdiffe rence
ĠPh il
ien cy
æ¢ ¯
åıĤ èµĽ
as ons
Ġf ul
ãĥ ĥ
ä¸ĥ å¹´
èº« ä½ĵ
Ġt end
Ġtradition al
ĠC or
éģ Ĥ
å¹´ è¢«
ĠM ore
Ġstart ed
ĠR ec
Ġcon cent
ä¹ ¾
æīĢ åľ¨
ic a
Ġqu ite
ĠB ar
ãģ Ł
Ñ Ĥ
Ġe c
ĠAr t
Ġeas ily
åį¡ å°Ķ
æľī æĹ¶
7 4
Ġest im
Ġhe ld
é© ¾
ound s
Ġm other
el t
Ġcompan ies
æİ¨ åĩº
èĬ ³
Ġintern ational
ec ause
Ġc ivil
Ġw arm
å¤§ ä¼ļ
Ġmult iple
om b
åĲį åįķ
Ġinst ead
Ġadd ed
if t
æĹħ æ¸¸
ĠInstit ute
èĩª åĬ¨
äº¤ æµģ
éħĴ åºĹ
çļĦä¸Ģ ç§į
w here
æľº æ¢°
Ġlar ger
Ġal tern
Ġev al
åĩł ä¹İ
æĶ¶ å½ķ
é¢Ĩ åŁŁ
8 9
h am
åı ¥
Ġv it
æ¯ĶèµĽ ä¸Ń
o very
ĠA c
Ġapp ropri
ĠM ost
è§Ĥ ä¼Ĺ
y ing
ĠEurope an
ç ŀ
æµ ®
æ· ¡
ĠAfric a
Ġre ve
Ġref lect
Ġd iv
Ġpoint s
çĶµ åĬĽ
Ġs il
éģĹ åĿĢ
Ġg ard
i ers
Ġf a
æĶ¹ åıĺ
ar i
æĽ¾ åľ¨
Ġ200 6
Ġto wn
å¹³æĸ¹ ç±³
O ne
Ġf av
èĮ Ĥ
æ¾³ å¤§
å¥½ çļĦ
ther n
ell ow
ĠJ es
æ£® æŀĹ
é ī
ä¸Ģ å¹´
ç¬¬ åįģ
Ġth ous
Ġdec re
èĭ± éĽĦ
å®ĥ çļĦ
åıĸ ä»£
ä¹Ŀ å¹´
A L
ç»Ħ åĲĪ
äºĳ åįĹ
im s
åĿ Ĭ
æĶ¿ çŃĸ
l ied
Ġwas te
æİ ī
ç¬ ĳ
Ġcomm it
Ġinvest ig
ĠIntern ational
ar a
è¦ Ĩ
ãĢĤ ï¼Ī
Ġt ree
in ks
Ġansw er
èĭ± æĸĩ
åĢ į
Ġs old
æŃ¤ åĲİ
Ġdoc ument
å½ ¦
if orn
Ġdise ases
Ġm ental
å³ ¡
âĨ Ĵ
Ġf oot
itud e
çĥŃ å¸¦
Ġdemon str
A P
Ġoff er
ç®Ģ ä»ĭ
èµ Ĳ
èµĦ æºĲ
å¤ªå¹³ æ´ĭ
ww w
Ġdeterm ine
k y
å¾¡ åı²
çī µ
Ġun ique
ĠF rench
åĮĸ çŁ³
Ġimm edi
éģ į
å»º è®®
Ġf ront
æĺ¯ ä¸ŃåĽ½
Ġneg ative
ĠK e
Ġmil itary
Ġachie ve
pr il
ãĢĤ ãĢĬ
ä¹Į åħĭåħ°
Ġhum ans
åº Ĭ
å±± è¥¿
Ġ x
ol ar
å¹³ åı°
Ġtool s
Ġth ird
åħ« å¹´
å¤« äºº
Ġtre es
éĿ¢ çļĦ
B S
g n
Ġquick ly
ĠE duc
æµ ©
her n
U n
Ġt ur
Ġ +
èĥ ¶
Ġd ang
Ġ201 8
çľģ ä»½
ç»´ äºļ
ĠO f
Ġestab lished
å¤ļ æ¬¡
ce ed
æµ ħ
Ġ Â
åĨħ éĥ¨
Ġinf ection
é¸ ¡
Ġqu ant
iqu es
éĥ½ ä¼ļ
è·¯ çº¿
Ġins ide
éĻķ è¥¿
å´ Ķ
w ater
å¨ģ å°Ķ
ĠH er
j oy
æ³ķ åħ°
Ġwr ite
Ġwork ers
å¿« éĢŁ
Ġscient ific
ä¿ ĥ
Ġn ation
ĠM on
èĩ³ ä»Ĭ
ar r
æĸ¯ åŁº
Ġhigh ly
Ġd ry
åħ¬ åħĥ
Ġprog ress
ter m
å¤§ åŀĭ
éĤ ĵ
Ġbo oks
ĠRe g
und red
Ġcommun ities
3 00
Ġcrit ical
ĠR uss
i ra
å¹¶ åħ¥
ust r
Ġsec urity
è¶Ĭ åįĹ
äºĨ ä¸Ģä¸ª
å¹³æĸ¹ åħ¬éĩĮ
éĶ ®
it er
Ġanal y
b ol
åįģ åĪĨ
is ms
Ġac id
l ier
ib er
å½ Ń
ç»´ å¥ĩ
Ġso on
éĩįè¦ģ çļĦ
åħ¥ åı£
n ov
ree k
y ond
ãĢįãĢģ ãĢĮ
Ġal though
Ġact ive
åĽ½å®¶ éĺŁ
æĭ ĵ
Ġse vere
çļĦä¸Ģ éĥ¨åĪĨ
Ġbro ad
å² ³
ä¾ ł
ä¸ľ è¥¿
æ¾³å¤§ åĪ©äºļ
åĩı å°ĳ
v ant
ä¼ł è¯´
å¦ ĥ
åĩĨ å¤ĩ
åľ¨ è¿Ļ
ç½ ķ
Ġ ãĢĤ
Ġh ar
Ġb it
Ġess ay
C O
ce an
Ġh or
ĠT ra
æŀ ¢
c he
iforn ia
ç¾İ æľ¯
Ġh ot
è¯ ŀ
Ġey e
Ġext ra
Ġinst it
å¨ ±ä¹Ĳ
åĮ» åŃ¦
å¸¸ è§ģ
å¡ ĺ
æ°§ åĮĸ
éĩį çĤ¹
P ro
ĠR iver
S h
ä¹Ķ æ²»
Ġbir th
ç¼ĸ åī§
it is
Ġs us
çļĦ ä¸»
Ġp rior
Ġsol ar
Ġ2 4
çī¹ æ®Ĭ
f ord
ĠDep artment
ä» ²
çĪĨ åıĳ
æĽ´ åĲįä¸º
B e
Ġa ud
æĭ Ł
om ing
ul ate
Ġpurp ose
Ġto wards
åİ Ħ
Ġaddition al
ä¸º ä¸Ģ
l ation
ul a
ĠM y
Ġt ri
åĪº åı²
Ġuse ful
ĠAfric an
o e
å¤© æĸĩ
form ation
abet es
æ¯ı å¹´
åĮº ä¸º
æĺ¯ æĮĩ
Ġtrans port
yp e
Ä ģ
b ur
Ġbeh ind
Ġl ands
Ġsh all
å¹¿ æ³Ľ
å·´ è¥¿
Ġdirect ly
ãĤ Ĭ
Ġlab or
Ġas pect
çĻ» åľº
Ġspe ak
äº Ń
Ġh abit
v est
Ġdec l
ä¼¯ çī¹
ä¹¦ è®°
Ġh ost
Ġh ands
èĢĮ åľ¨
ĠI S
çļĦæĹ¶ åĢĻ
9 8
åĽ½ çļĦ
Ġvide o
ĠD av
åĲį çļĦ
åĭ ¤
Ġ200 5
ç²¾ ç¥ŀ
ĠN ot
Ġa st
é«ĺ çº§
Ġcent ral
ä¹Ĳ åĽ¢
C l
å·ŀ çļĦ
çĭ ®
çĵ ľ
æ·± åľ³
æĺŁ æľŁ
am a
ĠO ther
Ġb ad
Ġst ra
Ġst ay
Ġbegin ning
ĠM arch
ĠU s
åŁº éĩĳ
é«ĺ ä¸Ń
ur ies
198 8
or ing
u ro
çĵ¦ å°Ķ
åĭ ĥ
Ġacc ur
Ġcl in
æ³¢ åħ°
Ġexp ect
éĢı è¿ĩ
19 50
åĪĨ åŃĲ
å®ļ ä¹ī
é«ĺéĢŁ åħ¬è·¯
Ġlead ing
èĨ ľ
å¹´ åı·
å¤ļ ä¸ª
è¶ £
Ġdr ink
an ks
Ġw alk
çŁ¥ éģĵ
B A
Ġm ount
Ġd er
çī© è´¨
gen cy
æĥħåĨµ ä¸ĭ
Ġpro ced
èĤ¡ ä»½
pp er
Ġf ram
æĮĩ åĩº
æĿ Ń
å°¼ æĸ¯
å½ĵ ä¸Ń
Ġfamil ies
ä¸ª æľĪ
åĩº æĪĺ
Ġlim ited
å½¼ å¾Ĺ
Ġb ase
C D
äºļ åİĨ
åĽ¾ä¹¦ é¦Ĩ
ĠSe pt
Ġse arch
Ġon es
é¹ °
æİ¥ å£¤
Ġsupp ly
æ±Ł è¥¿
Ġob t
Ġexerc ise
ort hern
ç£ ģ
Ġst ri
ĠCh ild
è¯ ¦
se e
ä»· åĢ¼
Ġte aching
åį Ĵ
Ġn orth
Ġsit uation
åį ĵ
å¯¹ æīĭ
S T
ra g
æ¬ ²
Ġs ection
Ġ20 00
le ction
ĠGerm an
198 9
ĠS w
å½ °
å® ı
æĮ Ĥ
ç§ Ĵ
ç©º åĨĽ
Ġinflu ence
çĽ¸ å¯¹
æ³ ¥
ĠJes us
æĶ¹åĪ¶ ä¸º
in ct
ĠP ark
éĩĮ çļĦ
åĩº èº«
f ort
A t
Ġf ast
Ġl ength
ĠO ct
ä» °
Ġcust om
Ġapplic ation
åıĺ æĪĲ
æµ ĵ
Ġcont ribut
ä¸ĸçķĮ æĿ¯
åĪ ¸
æ³ ³
å®ŀ æĸ½
Ġw ent
hen s
ĠD ay
èĪ° éĺŁ
å® Ļ
olog ies
ç§» åĬ¨
ä¹ĭ å¤ĸ
æľª èĥ½
Ġfeature s
ĠAl though
Ġwh ose
éĩį å»º
éķ¿ æľŁ
ä¼Ĭ æĸ¯
æĻ ĵ
ĠEng land
al t
Ġm om
åıĬ åħ¶
Ġval ues
Ġseem s
Ġc ard
åĿ İ
æº ¶
Ġp ack
P h
éī ´
ist ry
ĠG r
ä¼ļ åľ¨
å½ĵ éĢī
åĽĽ åįģ
ĠAss oci
b it
ar ian
éģŃ åĪ°
ain t
ä¹ĭ åŃĲ
Ġdescrib ed
ĠIn c
èĻ ĳ
çĻ½ èī²
ĠT w
åĬĽ éĩı
ĠCan ada
åĪ° è¾¾
Ġsoft ware
Ġnew s
Ġcont ains
é Ħ
ä¹¾ éļĨ
Ġmin utes
Ġl ost
Ġm ill
çº¢ èī²
Ġhtt p
Ġc red
ro te
c ial
ĠWill iam
i i
ĠR et
Ġbl ock
ä¸į åı¯
Ġf ight
Ġfin ancial
å¡ ĳ
åĪ¶ åº¦
um an
Ġan g
ou d
ri ption
Ġan cient
åħ¥ éĢī
æĺŃ åĴĮ
Ġs n
ç¬¬ åħŃ
âĢĿ .
ĠCal ifornia
ä¸ Ī
9 5
Ġf it
ãĥ¼ ãĥ
iel ds
å¤ª åŃĲ
åħĪ çĶŁ
Ġprote in
Ġr ates
Ġinter p
S o
æĸ¹ çļĦ
Ġen joy
as te
m ission
çĲĥ åŃ£
åĬł ä¸Ĭ
A d
å§Ĩ æĸ¯
ĠA nt
çļĦ é¦ĸ
Ġ æĸ°
Ġj o
è§Ħ å®ļ
ä»¥ åĲİ
æħ §
P S
åľ¨ ç¾İåĽ½
å¤ĸ äº¤
èĤ ĥ
ines e
åĩºçīĪ ç¤¾
Ã ¡
re et
ĠB r
Ġ2 1
al d
Ġrequ ires
Ġdis p
æİ¥ è¿ĳ
Ġstr ateg
ig r
Ġdev ices
Ġd ark
Ġdoct or
w ise
éĺ ª
çº¿ çļĦ
åĲ ¨
197 0
è¿Ķ åĽŀ
Ġele ments
ç»ĵ åĲĪ
ç¡® å®ļ
Ġnear ly
b ack
Ġbacter ia
ĠS erv
E x
om y
est ic
se ct
c oh
ĠAug ust
Ġwee ks
æ´ Ĺ
éĩĳ å±ŀ
Ġthink ing
Ġt able
ç¬¬ ä¸Ģä¸ª
Ġn ucle
ç¼ĸçłģ ä¸ºP
ãģ Ĩ
Ġex act
s u
è¡Į æĺŁ
l in
it ect
æĺİ æĺ¾
Ġh undred
âĢ¦ âĢ¦
æĭĴ ç»Ŀ
æī¹ åĩĨ
è£ ķ
ä¸Ģ åĲĮ
Ġcap ital
èĥľ åĪ©
Ġimport ance
çļĩ åĲİ
çĽĳ çĿ£
ĠF irst
çĳŀ åħ¸
Ġve h
) ãĢĤ
198 6
Ġprot ection
å± ¯
çŃ ¹
ä¸Ģ æŃ¥
Ġs outh
æĶ¹ éĿ©
ĠJu ly
éĿŀ æ´²
è¿Ľè¡Į äºĨ
ĠSy stem
res h
Ġb orn
il es
æ¯ı ä¸ª
ç¡ ķ
ro gen
m ed
b ook
æĹ¥ èĩ³
åĲĦ åľ°
åĽł èĢĮ
æľª æĿ¥
èĳ£ äºĭ
Ġwebs ite
ĠA pril
èµ· æĿ¥
ãĤ ĭ
å¤º å¾Ĺ
B N
åı¯èĥ½ æĺ¯
ç² ¤
æŀ Ŀ
æĢ» éĥ¨
Ġcal cul
Ġw a
ond on
ord ers
åŃ© åŃĲ
çĶ¨ æĿ¥
Ġproject s
od ies
Ġb rought
iz ations
æ²³ åĮĹ
Ġim ages
og en
æĦŁ æŁĵ
Ġe p
éļ §
ĠHe re
i pl
æ¦Ĥ å¿µ
åĮ Ī
åħ´ å»º
æł¡ éķ¿
% ãĢĤ
ic o
ĠHist ory
Ġu lt
Ġm ention
çĶŁ åĳ½
ĠJ une
' re
Ġex cept
å¹´ åīį
å¼ ¥
or ge
E M
k ing
Ġlar gest
Ġg ot
Ġun c
l ife
è ¹
Ġprocess es
Ġbehav i
20 23
å¹´ å¼Ģå§ĭ
æĪĺ åĲİ
Ġse ason
å±ķ å¼Ģ
å± ı
æľī äºĽ
æĹ¥ èµ·
Ġadult s
Ġu nd
Ġmil es
å®ĺ åĳĺ
ip ment
Ġag ree
å¤§ æ¥¼
Ġrem ain
éľ ¸
Ġle aves
15 0
Ġgo al
ĠTe chn
Ġrece ived
ç»Ł è®¡
ul ated
ĠG reat
åĸ ·
198 5
r ition
Ġel se
ra el
é©¬ åħĭ
im al
å¹¶ æ²¡æľī
Ġpriv ate
åįĹ åĮĹ
Ġcommun ication
åİĺ ç±³
Ġrelig ious
ãģ ¾
å®ŀ çİ°
æľī æķĪ
Ġ #
è¾¹ çķĮ
Ġdem and
Ġsust ain
if f
èŃ¦ å¯Ł
ä¸ĸçķĮ å¤§æĪĺ
Ġm ix
éŃ Ĥ
Ġtyp ically
æı Ĵ
ä¸į å°ĳ
çĸ ı
Ġloc ated
Ġcost s
åĲĪ çī©
äº§ ä¸ļ
us ed
198 7
åĩº æ¼Ķ
Ġcar ry
u ous
Ġbec omes
ĠGo vern
c ks
åįł é¢Ĩ
Ġestab lish
ä¸ľ æĸ¹
Ġpl aces
Ġad j
çļĦåľ° æĸ¹
Ġs on
ent ially
Ġag ricult
é¼ ł
åĲ¯ çĶ¨
ç® ±
Ġtechn iques
ç¼ ĵ
o ke
Ġcap ac
åŃ¦ ç§ĳ
Ġj ud
å°Ķ çļĦ
æıĲ åĲį
c ome
ç«Ļ åı°
å¤§ èĩ´
Ġtest ing
åĩº åı£
å·ŀ åĪºåı²
ie ce
l am
Ġ200 4
__ __
S p
å¸ĥ é²ģ
Ġexam ples
qu e
çļĦ å½±åĵį
Ġre ach
ç¼ĸ åı·
Ġb reat
he ad
åŁº åĽł
è¡¨ éĿ¢
Ġte eth
un ch
éĥ½ æľī
196 0
æĽ¾ ä»»
æ ĩ
ĠP ress
Ġl ines
m en
Ġra pid
ĠCount y
Ġdec ision
Ġad minist
id ents
ä»ĸ æĺ¯
iz es
çİĽ ä¸½
æ¸ħ æľĿ
Ġto ld
ä¸į æĸŃ
åıĤ èĢĥ
æī§ å¯¼
Ġappropri ate
Ġc ou
Ġcon text
Ġsit es
% ï¼Į
å· §
Ġpred ict
Ġeff orts
P A
Ġinst all
æĭī åħĭ
Ġobject s
Ġk ing
Ġc ra
Ġcol on
Ġsol ution
ĠH igh
om as
è¯¾ ç¨ĭ
Ġsur round
a id
Ġm ole
8 5
ä»İ äºĭ
ub e
Ġbe aut
ç¬ ¼
Ġst ru
P l
Ġsu gar
Ġh yp
åĩº åľº
å¹¿ åĳĬ
Ġsum mer
è ²
Ġst age
ibr ary
Ġ çİĭ
Ġv ict
ud d
Ġdev ice
Ġcomm and
åıª æĺ¯
Ġresp ond
Ġad op
å¤± åİ»
y ear
it able
Ġrem ains
Ġde ad
ä¼ĺ ç§Ģ
æĺ¯ä¸Ģ åĲį
Ġfri ends
ä¸ §
Ġapplic ations
Ġc ode
b l
æ¬ £
am er
Ġce le
èĤ ¥
Ġ ï¼Į
Ġcreat ing
at ur
e qu
éĶ ģ
ãĢģ âĢľ
é£Ł çī©
è¿ĲåĬ¨ ä¼ļ
å°Ķ åħ°
ill ing
i ar
æ¹ ¿
æĶ¶ åħ¥
Ġcent er
Ġg ame
ĠR ed
Ġbas is
o ff
Ġnot hing
æ· ®
èį¯ çī©
å¸Ĥ çļĦ
Ġadv ant
èĥ ¸
è¿ ħ
åĬ ²
Ġ ä¸Ń
Ġc rop
è° ĵ
å¥³ åĦ¿
Ġco ast
Ġe ating
é¥ Ń
è± Ĩ
è§Ĩ ä¸º
å¦ Ī
u ff
ĠC ity
B y
194 5
ash ington
m osp
åľ° éľĩ
st e
çł´ åĿı
ç»Ł ä¸Ģ
ĠF rom
åĩ Ń
ord s
Ġad apt
Ġaut om
Ġconf lic
çĶŁ æĢģ
â Ķ
Ġg ives
çĽ¸ ä¼¼
Ġtest s
Ġcol d
Ġconst ruction
å¢¨ è¥¿
Ġf ather
å®ī å¾·
é¢ģ å¥ĸ
Ġe gg
E C
ĠP ol
ver t
Ġra re
åĽ½ åĨħ
r im
ĠR o
e v
äº¨ åĪ©
æĹħ å®¢
c les
æŃ£ åľ¨
E T
ä¸ĩ åİĨ
Ġtherap y
çĬ ¬
æ³ Ĭ
ĠD is
Ġfor ces
æµ· å²¸
æŃ¤ æĹ¶
åĪĽ ç«ĭ
èĪ Ĵ
å®ī å¾½
è´¨ éĩı
ç¢ ³
å¸ ħ
å¨ ĺ
éĩį åºĨ
Ġf inal
å°ĳ å¥³
Ġdi ed
éļı çĿĢ
ĠS ur
çļĦ çłĶç©¶
ĠPro g
Ġrespons ible
éļ§ éģĵ
Ġey es
ä¿Ŀ çķĻ
æŀĦ æĪĲ
çĽ´ èĩ³
The se
0 5
åĳ¨ è¾¹
æŁ Ķ
Ġconn ect
æĪĲä¸º äºĨ
u ments
å¼Ģ éĢļ
åįĬ å²Ľ
ĠChrist ian
Ġcit iz
æľ¬ åľ°åĮº
ĠCh urch
åĬ¨ åĬĽ
å§Ķ ä¼ļ
Ġhim self
Ġyour self
äºĭ ä¸ļ
ĠPres ident
ä¸ Ļ
æĭ ³
Ġteac her
ap ter
çł ²
ç¥ŀ ç»ı
Ð »
Ġold er
äºļåİĨ å±±
Ġrece ive
Ġant i
ed ing
ĠAmeric ans
æĸĩçī© ä¿ĿæĬ¤
åŁº äºİ
å° ¸
ĠCh inese
Ġany thing
198 4
ĠTr ans
Ġtra de
éªĳ å£«
Ġmod els
est s
Ġro b
åĲ ı
Ġm is
æĪĸ æĺ¯
éħ ¶
O S
èĳĹåĲį çļĦ
) ;
Ġmon itor
ç¾½ æ¯Ľ
åį« çĶŁ
Ġre asons
Ġ20 20
æĤ ¬
çī¹ çļĦ
ä» ĳ
çľĭ åĪ°
Ġc ool
æĴ °
t ime
osp ital
ä¹ĭ æĪĺ
åĮ» çĶŁ
Ġ å°ı
Ġm id
çĶŁ éķ¿
é¸ £
og le
åı¯ åīįå¾Ģ
Ġc ru
èĭı æł¼åħ°
çĸ¾ çĹħ
åĮĸ çļĦ
ĠV al
rib ute
Ġp an
Ġ å¼ł
Ġdep end
se c
Ġwe b
å¤§ æ¡¥
augh t
coh ol
ĠS im
èį Ĵ
Ġse qu
é«ĺ çļĦ
il os
æ´ ģ
è¢ ģ
Ġrec ently
Ġt it
åĿ Ĥ
Ġaffect ed
Ġb ott
Ġsa w
æī ®
c an
å¤ı åŃ£
æĬķ ç¥¨
Ġgra du
éĥ½ å¸Ĥ
er o
Ġevery thing
é¾ Ł
he st
Ġm iddle
Ġexp osure
æ¬¢ è¿İ
Ġd ate
åĩ ½
èµ° åĲĳ
Ġh ope
ell ig
çĭ Ĥ
å¿ Ĩ
å£ ®
ĠSept ember
ĠC om
åĢ ¾
æ¾³ æ´²
Ġfollow ed
Ġro ck
Ġevery one
Ġdiffe rences
ric k
i j
Ġbe yond
Ġp en
i ples
Ġstand ards
çĶ¨ çļĦ
0 8
èĢĮ æĪĲ
Ġvir t
Ġb ul
çĬ¹ å¤ª
æĸ ľ
å¢¨è¥¿ åĵ¥
Ġsmall er
e al
ĠS an
åĴĮ å¹³
Ġsp irit
éĤĢ è¯·
æ®ĸ æ°ĳ
å£« åħµ
çĶµ åı°
äº² çİĭ
Ġloc ation
Ġexp ected
è¿ĩç¨ĭ ä¸Ń
ĠAr ch
å¤§ èµĽ
Ġpract ices
en ge
åĺī éĿĸ
e an
Ġcho ose
è· ĥ
Ġpre gn
è® ·
å·¥ åİĤ
äºº åľ¨
éķ¿ çº¦
è§£ éĩĬ
Ġcont roll
å© Ĩ
ce mber
è§Ĥ å¯Ł
ĠM od
Ġim ag
Ġwe ather
èģĮ æ£Ĵ
Ġpo ly
0 9
Ġro om
d ing
W ith
Ġdig ital
ĠJ ournal
Ġcommun ic
am b
Ġinte gr
ro s
ĠEduc ation
re es
Ġcult ural
l amm
æĬķ åħ¥
Ġins p
åħ¬ çĪµ
å¤§ å¤ļæķ°
Ġsc reen
ens ity
çĪ± å°Ķåħ°
ove mber
å¤§ åĮº
æĲ ¬
åŀ Ĥ
ĠP at
å¤© çļĩ
lo ad
æĳĦ å½±
Ġask ed
éĶĢ åĶ®
éĽĨ ä¸Ń
Ġw on
å°Ķ çī¹
æĮĳ æĪĺ
éĥ Ĭ
è®° èĢħ
Ġ éĩĳ
Ġw rote
om a
Ġtry ing
ĠIs rael
ĠH ouse
Ġsh ape
å®¢ è¿Ĳ
åŃ¦ ä¼ļ
çİ »
Ġ200 3
Ġequ ipment
C C
äºī è®®
Ġopportun ity
èĳ¡èĲĦ çīĻ
Ġbenef it
åį µ
ĠL ear
ä½ľ èĢħ
Ġv ia
æĿĢ æŃ»
ĠL ondon
çĭ ¼
åŁĥ åıĬ
æĪ Ĵ
ĠC ong
Ġh ous
ãģ «
ĠComm un
è§£ åĨ³
ra b
Ġcurrent ly
è½ °
éĽ Ģ
åį« æĺŁ
å®ĩ å®Ļ
éĵ ĥ
äºº å£«
äºļ åĨĽ
æ°Ķ åĢĻ
éĺ ħ
é«ĺ åº¦
æĻ ¨
ĠV ir
Ġm ax
åī ²
éļı èĳĹ
Ġinst ru
Ġprofess ional
Wh ile
ĠB i
Ġus er
å« ģ
ĠE ven
Ġoccur s
è¾ °
Ġmem ory
ro y
åıª èĥ½
A D
ough t
ä¸ ¸
ç¥ Ŀ
Ġstreng th
åŃ ¤
æĢ Ĵ
ä¸ĩ äºº
åįı è®®
ä¸į åĨį
åı¤ ä»£
Ġset t
ĠF eb
è®® éĻ¢
ä½¿çĶ¨ çļĦ
è¯ģ æĺİ
Ġrecomm end
é² į
Ġproper ty
æ°´ å¹³
è¯ķ åĽ¾
Ġra in
Ġf uel
w ide
Ġconst it
åĨ Ĵ
æĢ» çĿ£
H E
è§Ħ åĪĻ
éĢ Ĩ
åįģ å¹´
éĺ¿æĭī ä¼¯
Ġcomplete ly
åĩ ī
Ġde al
ed ia
air s
A ll
ä¸ ²
åĨį åº¦
æĸĩçī©ä¿ĿæĬ¤ åįķä½į
Ġt en
åıĮ æĸ¹
Ġb all
oc r
åĩ Į
Ġf ear
Ġ20 19
çĽ® çļĦ
Ġear lier
å½ »
çı Ĭ
an ish
åĲĪå¹¶ ä¸º
åĹ £
æĹ ¦
å§ ¬
Ġconst ant
m m
çļĦ ç¬¬ä¸Ģ
9 6
èµ ´
ä»ĭ ç»į
æľĢåĲİ ä¸Ģ
Ġorgan ization
Ġinterest ing
çĭ Ħ
Ġcommon ly
åįģ åŃĹ
ĠDe velop
ĠE ast
å°ı ç»Ħ
åĽ¢ éĺŁ
æŃ¥ åħµ
ing u
æĿ¥ åĪ°
å¿ į
Ġn amed
Ġal one
ãģ ¿
Ġredu ced
éĽ Į
Ġen h
ãĤ ·
Ġdeg ree
çŁ¥ åİ¿
Ġs we
ĠJan uary
åģ¥ åº·
b re
ĠA ccording
çĦ ¦
å¤ ·
è¯ ı
od ay
ä¸¾ äºº
ä¹ ı
åľ° åĪ©
Ġ ice
Ġdi abetes
åĪĹ ä¸º
Ġeff ort
ä¸ī ä¸ĸ
éĩĳ èŀį
Ġs ch
ter y
Ġ6 0
ĠM or
ĠOct ober
Ġb ra
Ġ é«ĺ
éĢĢ å½¹
åİĨåı² ä¸Ĭ
ä½Ľ æķĻ
åĬĽ çļĦ
ç®¡ è¾ĸ
åĤ ħ
å¾ ª
4 00
Ġover all
Ġprov iding
æ¶ ¦
åħĥ ç´ł
Ġis n
Ġf ederal
Ġ å¹´
Ġbir ds
ç½ĳ ç«Ļ
ä¿Ŀ ç½Ĺ
ç² ®
g al
m ore
ä¸ĭ è¾ĸ
c ious
åĬ ±
åĪĽ åĬŀ
åģľ æŃ¢
Ġw oman
åĬ¨ ä½ľ
Ġto ward
éĻĲ åĪ¶
ç§ĺ ä¹¦
åĽĽ ä¸ª
ç¨ĭ åº¦
æĺ¯ ç¾İåĽ½
ä¸¤ ç§į
èģļ èĲ½
å¨ ĥ
Ġplan et
ĠO ur
rie ved
r ical
çĭ Ĺ
å² Ĺ
å¤± è´¥
å°± è¯»
ãģ ķ
æĶ¶ è´Ń
Ġrul es
Ġle ave
åĵģ çīĮ
å£ ³
Ġcon sequ
198 3
æ¯ķä¸ļ äºİ
Ġmaint ain
æł ª
ä¸Ĭ éĺµ
æĶ¶ è§Ĩ
ä»İ èĢĮ
Ġsc ale
Ġallow ed
é¦ĸ éĥ½
Ġj oint
0 4
ĠC oun
ĠW ashington
åĭĭ ç«ł
Ġw inter
oc ks
è°ĥ æķ´
æĸ¹ æ¡Ī
Ġfor mer
Ġus ers
I s
Ġbe g
Ġstep s
Ġmajor ity
æµĭ è¯ķ
åĺ ´
éĩĮ äºļ
æĢ» çĲĨ
ä»¥ åīį
ĠThe n
ĠF l
U S
le ge
å¿ĥ çĲĨ
Ġgo es
ç¿» è¯ĳ
Ġr ise
Ġr at
æĺ¯ æĹ¥æľ¬
0 7
T e
Ġpl aced
Ġc ry
è¡ į
t a
Ġp et
åı° ä¸Ń
çª Ĺ
tern al
Ġsuccess ful
æĿ Ĩ
æľī ä¸Ģä¸ª
è¿Ľ ä¸ĢæŃ¥
èĢ Ģ
Ġapp lied
Ġpres ence
çĪ¶ æ¯į
Ġleg al
é¸ ¿
Ġvis ual
æĲ ľ
åĥ §
Ġcolle ction
åħ¥ ä¾µ
Ġocc up
Ġent er
b all
åĲĮ ä¸Ģ
Ġpur ch
Ġmeas ures
Ġro ot
8 6
0 6
ĠD NA
198 2
Ġac qu
å°¤ åħ¶
çļĦ æķħäºĭ
ĠIn st
Ġmem ber
Ġf ile
æµ· æĭĶ
Ġeconom y
æĭī ä¸ģ
Ġgen etic
éĵ ¾
am ent
i able
å¯ Ĵ
ee ch
Ġto x
Ġr ule
ĠUn ion
å¥ ĳ
Ġident ified
ĠBl ack
æĹ º
ãģ į
çĶ ¸
èĦ Ĭ
äºĭ æķħ
ç¿ ģ
éĻ Ģ
al ed
Ġsign s
Ġlaw s
åħ± äº§
å¹¿ è¥¿
çİ° è±¡
å¼ ¦
çİĩ é¢Ĩ
ä½ľ è¯į
ç¢ İ
åı ī
Ġdrug s
ç¬¬ ä¸ĥ
ed om
æĺ¯ æ³ķåĽ½
æĪĲç«ĭ äºİ
Ġdispl ay
ãĥ ¬
Ġv ill
Ġform ed
ç¢ į
ĠGen eral
Ġ éĺ¿
Ġc ities
åħ¶ å®ĥ
æłĸ æģ¯
âĢĿ ãĢģâĢľ
èĢĮ è¢«
éĤ® æĶ¿
rou p
å¥¥ æŀĹ
å¦Ĥ æŃ¤
é»ĳ èī²
Ġat mosp
ib ly
Ġcomp ar
Ġte ach
å¤ª ç©º
èĥ İ
æķĻ åŃ¦
ĠAssoci ation
ent y
Ġgu id
ĠA re
èĦ ı
os y
ä¸į å¾Ĺ
Ġdisc overed
åĩºçİ° åľ¨
Ġappro x
è£ħ ç½®
od es
å¸Ĥ åĮº
Ġc ateg
æ¹ĸ åĮĹ
ä¾ ¦
Ġr out
ire ction
ĠSoc iety
ĠFr ance
at ers
æĺ¯ ä½įäºİ
Ġtra ck
or ation
Ġb illion
æ¯Ķ åĪ©
åįģ åħŃ
Ġmach ine
Ġ éĻĪ
Ġper fect
Ġh on
ect or
æĪı åī§
å¤§ å¥ĸ
åĪĽ éĢł
mit ted
æĪª èĩ³
Ġph ilos
Ġne igh
åŃ¦ æľ¯
Ġr ich
hem at
Ġex ec
åĮ» çĸĹ
Ġro ad
Ġ200 2
Ġd en
èĤ Į
æ°´ åºĵ
Ġvers ion
æĺ¯ åĲ¦
ä¸Ń éĹ´
å¥¥ åľ°åĪ©
ĠRe ad
Ġincre ases
Ġproper ties
æĺ¯ä¸Ģ ä½į
ĠD uring
Ġ200 1
å®¶ çļĦ
Ġch urch
ãĤ ī
å»¶ ä¼¸
Ġpower ful
Ġcontin ued
Ġ ãĢĮ
çĳŀ å£«
ä» ¿
Ġlim it
èĦ Ĥ
Ġm ob
æĹ¥ çļĦ
æ²³ æµģ
ĠF in
know n
Ġfact or
ä¼ Ļ
Ġ Î
æĶ¹ éĢł
Ġt ou
ä¸ī è§Ĵ
å®£ ä¼ł
ru ary
Ġass ign
æĸ¯ åħĭ
Ġtiss ue
rom e
Ġrem ember
ç½ ļ
Ġimm une
åİĨ ä»»
çļĦ åİŁ
åĬŀåħ¬ å®¤
k en
å¡ «
åĮĹ æµ·
Ġw ond
ĠC our
Ġcom ing
ĠL aw
Ġ Ã
æĭī å¤«
åī§ æľ¬
Ġbab y
Ġsym bol
Ġf air
åľ° ä½į
æķĻ å¸Ī
ç¿ ł
Ġcour t
ĠB ra
æĮĩ å¯¼
çŁ ¶
S ome
æ» ©
æıĲ é«ĺ
l im
Ġg old
Ġm outh
Ġn ames
åī ©
æĿ¥ è¯´
D A
ĠG reen
h ouse
ĠM ex
ç±³ å°Ķ
Ġhistor ical
R E
ãĤ ¿
Ġf resh
è·¯ åı£
Ġev olution
Ġshow ed
Ġact ions
Ġac ad
re c
ph as
å¥ ¶
res p
è¯´ æ³ķ
Ġpr ice
em y
åį ľ
å¤§ ä½¿
é¼ »
çľģ çº§
Ġcomm erc
Ġappear s
ĠN ovember
æĽ °
ĠA ng
Ġnot e
ãĥ ŀ
Ġp ow
ien ces
ĠDe cember
ãĤ ¸
Ġsit u
çĽ ¾
éĢļ è½¦
ç¼ ħ
at in
ĠW ater
u ild
Ġan x
æĹ ¢
Ġc orn
ä»¥ å¤ĸ
åºĶ è¯¥
Ġcon vers
rel ated
Ġstat us
ä¿¡ åı·
if ul
æĸ¯ å¡Ķ
Ġm iss
ĠGerm any
Ġmom ent
æĶ¿ æĿĥ
ä»ª å¼ı
åĳ½ åĲįä¸º
oc ol
Ġper haps
Ġcho ice
op hy
ir ing
è¸ ª
f ess
Ġm al
Ġst ar
8 3
åįģ ä¸ī
Ġfru it
æĴŃ æĶ¾
Ġarch itect
ä¸Ģ å¸¦
å½ĵæĹ¶ çļĦ
ĠR oman
éķ¿ åº¦
Ġun it
åıĸ æ¶Ī
Ġbelie f
Ġa p
ĠV ol
èħ ¾
ãĥ Ń
çħ ¤
Ġprom ot
åĲĮ æĦı
ĠU K
ĠS ince
ä¹Ł ä¼ļ
å°ı çļĦ
ç² Ĺ
å¤Ħ äºİ
o ch
è¢«è®¤ä¸º æĺ¯
Ġpattern s
y d
çļĦ çī¹
åıĪ åĲį
åħ¶ ä½Ļ
Ġchang ed
i as
å» Ĭ
ä¸Ģ åº¦
ä¸Ģ å®¶
9 2
z z
çļĦ å¤ĸ
æ· ĺ
Ġsp ect
èĩ³ å°ĳ
èĥ ģ
åĸ Ģ
Ġem p
Ġfore ign
ĠN ow
å®¹ æĺĵ
ĠP al
Ġwor th
å±± èĦī
éĤ£ éĩĮ
Ġmov ing
ç¨³ å®ļ
âĶ Ģ
ä¸¹ éº¦
åİ Ŀ
èľ Ĥ
en cies
çİ° æĹ¶
9 7
åİ¿ äºº
æī¹ è¯Ħ
çĻ Į
Ã ¼
Ġe ffic
ĠAl so
å¤§ åİ¦
ĠPro t
æŁ´ æ²¹
å¥¥æŀĹ åĮ¹
å¯ Ħ
æŃ¦ æ±ī
æĹ ¨
Ġful ly
æİĪ äºĪ
n es
Ġobserv ed
äº¿ åħĥ
æ³¨ æĦı
o ice
æķ° åŃ¦
é¹ ¤
Ġfem ale
æĺ¯ ä»¥
å¸ĥ æĭī
ä¸ŃåĽ½ äººæ°ĳ
Ġp p
Ġd at
Ġst aff
Ġrep e
ç»´ æĮģ
" ,
å§ Ĭ
Ġst ories
ĠCol lege
a ign
æŃ» åĲİ
åĲİ æľŁ
ĠD on
ru pt
èĸ Ľ
åĩ Ŀ
çģ« ç®Ń
Ġinc or
and er
is ation
è¡ °
æµ· æ´ĭ
æ° ¢
c ast
Ġcapac ity
åıĳ åĶ®
ger y
ĠAustral ia
æ¸ Ķ
Ġg ave
å®ī æİĴ
ober t
æľĪ åįĩ
Ø §
ç¥¨ æĪ¿
çĴ ĥ
åĩº æĿ¥
Ġha ir
8 7
çŁ¥ åĲį
ä¹Ł è¢«
é¾Ļ çļĦ
y gen
çĸ Ĩ
çļĦä¸Ģ åº§
æľī äºº
éĴ ¦
å²ģ çļĦ
Ġrelative ly
è² Į
æ½ Ń
ä» ĩ
Ġpe ace
ä¾į éĥİ
çļĦ æĦı
Ġg ir
Ġem issions
19 20
ant ic
Ġp iece
l a
Ġst yle
Ġ2 2
æİ¥ è§¦
Ġant ib
Ġh om
ri ef
å¹´ çĶ±
éĩĳ æĽ²
Ġdid n
Ġgard en
è£ħ çĶ²
Ġfun ctions
çģ« å±±
ĠPe ople
le v
åĩ Ģ
Ġdist ance
Ġe fficient
in y
Ġcompon ents
å¯ ®
åģ ·
Ġill ness
å µ
èİ« æĸ¯ç§ĳ
Ġas se
ĠRet rieved
for ce
Ġbl ue
Ġconst ruct
Ġnut ri
u x
èĩª è¡Į
ĠJ ames
è®² è¿°
çİĭ åŃĲ
èĬ± åĽŃ
è§£æĶ¾ åĨĽ
Ġc ook
Ġchalleng es
Ġstru gg
ec es
Ġass ist
Ġoff ers
åĳ½ ä»¤
Ġres istance
197 9
Ġ ing
Ġtrans fer
L e
ç§ĳ åŃ¦éĻ¢
åľŁ èĢ³
æķĪ æŀľ
Ġgu ide
å®Į æķ´
æ¤ İ
å²ģ æĹ¶
Ġreg ions
ãģ Ĭ
ĠEn vironment
Ġm ap
æķ° åŃĹ
æĹ© å¹´
ul s
9 3
ĠB ecause
Ġwork ed
i ance
æ» ļ
Ġexp and
äºº åĴĮ
ç¼ĸ æĽ²
id a
åħĭ éĩĮæĸ¯
Ġeval u
a el
äºº æķ°
ĠD es
åľŁèĢ³ åħ¶
ĠA ir
å¾Ĺ ä»¥
ĠJ ust
Ġfri end
ãģ ¡
ĠM ich
Ġa im
è¿ Ŀ
ur t
E L
é©¬ å°Ķ
ĠM at
0 3
Ġal cohol
æľ ´
èµ ¶
ç§į åŃĲ
Ġinst ance
ic ip
å± ¿
èķ ¾
ab ilities
Ġ2 3
å¦Ĥ ä¸ĭ
æŁĲ äºĽ
åĿ Ŀ
ĠIn ter
re hens
ra ction
Ġd ivid
èį Ĳ
è¢Ń åĩ»
Ġst im
æĶ¾ å¼ĥ
ro ph
Ġh uge
198 1
èĪŀ åı°
Ġqu al
èĲ¨ åħĭ
Ġele ment
åĽ½ ä¼ļ
Ġeduc ational
é¡ µ
åľ° çĤ¹
æ¨¡ åŀĭ
ä»Ģ ä¹Ī
åľ° çļĦ
ĠU se
Ġwe ak
Ġfind ings
Ġequ al
ä¸´ æĹ¶
ber g
åŁİ åł¡
Ġ ä¸ī
è¾ Ĳ
æŁı æŀĹ
è´¡ çĮ®
Ġt ask
åįģäºĮ å¹´
Ġdetail s
Ġexist ing
Ġin nov
åħ¬åı¸ çļĦ
d o
gy pt
æľĪ èĩ³
æłĩ å¿Ĺ
å§ ļ
çľģ éģĵ
éĿ¢ å¯¹
Ġsex ual
è¢ ĸ
Ġexpl ore
8 4
åİŁ åĲį
ç±» åŀĭ
Ġreport s
åĽ½ éĺ²
åıĹ ä¼¤
çĶ· æĢ§
åħģ è®¸
c ont
y a
æį Ĳ
è Ł
çģ Į
éģĹ äº§
æ¬¡ å¹´
Ġpict ure
æĦŁ åĪ°
Ġd irection
çİ° åľº
åī§ åľº
Ġdef ined
æ·· åĲĪ
Ġwr ong
èĢĥ èĻĳ
åĮĹäº¬ å¸Ĥ
ĠM ary
äººæ°ĳ æĶ¿åºľ
åĨĽ çļĦ
Ġmus cle
Ġopportun ities
N ew
if ically
ãĥ³ ãĥ
str ial
Ġw atch
Ġg iving
æģĴ æĺŁ
C on
i os
åĲİ èĢħ
R O
e es
æĳ ĩ
Ġbo x
éĵ º
Ġthous ands
ç °
é©± éĢĲ
Ġp hen
è¯¥ åºĦ
Ġatt ract
Ġin sect
ä¸Ģ æĿ¡
ä¸ ŀ
éĺŁ ä¼į
i ate
ï¼Į ãĢĮ
çĹĩ çĬ¶
æ± ¡
ä¿Ŀ åŃĺ
197 8
Ġfam ous
åĽ½ åĬ¡
Ġass um
Ġstruct ures
å½¢ æĢģ
å°ĳ æķ°
çĬ¶ åĨµ
ĠA ut
åĲĪ æĪĲ
æºĲ äºİ
Ġcele br
ç»ı åħ¸
çŁŃ æľŁ
Ġextreme ly
8 1
ch ing
ä¹¡ è¯ķ
c are
æ¸© åº¦
ä¸Ń å±±
æ³° åĽ½
Ġopt ions
èĬĤ åº¦
è¯ķ éªĮ
ç£ ¨
Ġch ance
èľ ľ
Ġbal ance
Ġbelie ved
é£Ł åĵģ
ĠC he
éªĳ åħµ
éģ¿ åħį
Ġm ission
Ġexpl ain
Ã Ń
ĠL a
é»Ħ éĩĳ
ä¹ĭ ä¸Ń
Ġabs or
in ated
p ris
é¢ľ èī²
æĦı ä¸º
æīĵ åĩ»
h ors
Ġm ut
ĠN et
Ġsuggest s
æī °
åº· çĨĻ
Ġsignificant ly
å¤§ å¤«
æĬ¥ éģĵ
è´¢ æĶ¿
èĢĮ æĺ¯
ap ers
ãĤ «
Ġtechn ologies
ĠThe ir
Ġm ale
æĢĿ æĥ³
Ġrun ning
ĠL ord
ç»ĵæĿŁ åĲİ
op y
Ġf ix
M S
ĠDav id
è¥¿ æ´ĭ
Ġevent ually
Ġb ound
b ed
åĴĮ åħ¶ä»ĸ
åĽ½ ç«ĭ
r ich
Ġcoll abor
æĬ ½
ä¹ĭ ä¸ĭ
æłĩ æľ¬
ç«ŀ äºī
ĠRe v
Ġpl astic
Ġse ven
çİ° ä»»
Ġgl ass
åĿ¦ åħĭ
Ġut il
Ġconsum ption
å§ ľ
ãģ ı
Ġg ain
èĸ Ħ
åŁºçĿ£ æķĻ
i ant
Ġinst ruct
åħ¬ åĪĨ
Ġexper im
ra w
åįģ äºĶ
Ġex hib
Ġr iver
g l
Ġinc ome
Ġfor ward
å¹ ½
éĤ ĳ
åī§ éĻ¢
âĢĿ ,
ch ar
âĢ ĺ
Ġexperien ces
è£ħ å¤ĩ
Ġbre ast
åĳ¨ åĽ´
oy al
åĲ Ĳ
Ġtre ated
Ġclass room
Ġrequire ments
æĦ Ī
æĹ¥ æ²»
as ion
Ġoff ice
Ġf igure
å° Ŀ
ä¸į è¶³
om ic
åĵĪ å°Ķ
åħ¸ ç¤¼
å¤ļ ç§į
æĺİ æĺŁ
å¤ ķ
èī² åĪĹ
1 20
ess ion
ul um
æĸ° å¢ŀ
oc al
åŁĥ å°Ķ
Ġpl ans
æŃ¦ å¸Ŀ
ä¸Ī å¤«
æİ ĺ
or age
Ġstrateg ies
ĠJapan ese
ä¸ ĳ
ĠM useum
è¿ Ł
è´ «
æ¨ ±
åĲ¸ å¼ķ
ke y
Ġcitiz ens
le g
éļ ĭ
æĬµ è¾¾
æľ¬ èº«
Ġ iron
çīµ å¼ķ
Ġsepar ate
æĸ ¤
æĻ® éģį
Ġm o
Ġapp ly
Î ±
m et
194 9
ĠPl an
ĠTh us
ĠSoc ial
ĠFeb ruary
äºļåİĨå±± å¤§
Ġn ative
b al
Ġb one
Ġs ac
im ens
yn am
ä¹Ł åı¯ä»¥
æģ Ń
æĬ ĳ
å¯» æī¾
ĠCoun cil
ĠD ec
äº¦ æľī
åº ŀ
A fter
S c
å¼Ł å¼Ł
Ġres ource
Ġsur vey
ograph ic
çĶ± æŃ¤
çļĦ ä¸ī
Ġhapp en
æīį èĥ½
Ġ ä¸ŃåĽ½
ĠSp ec
pp ed
Ġeas ier
es sel
æĬ ¢
195 8
Ġem phas
Ġre ality
èĭ ĳ
æĿ¡ çº¦
æį¢ ä¹ĺ
Ġ åĪĺ
Ġplan ning
ĠP ublic
Ġconduct ed
ĠW estern
Ġtop ic
Ġb ed
Ġpass ed
åħ¨ éķ¿
èĬ¬ åħ°
9 1
Ġex cess
å¥ Ķ
èŀ º
G o
Ġfav or
Ġj ournal
ĠP aul
H O
Ġ â
Ġimmedi ately
å¥¥æŀĹåĮ¹ åħĭ
Ġb odies
åĵ² åŃ¦
ig en
çĲ ī
ag o
å¤ª éĥİ
ul f
å¹¶ éĿŀ
w ell
Ġpresent ed
ĠCong ress
äºĮ äºº
ĠM ac
Ġpop ulations
ä¸Ģ åº§
èħ º
Ġur ban
Ġ ãĢİ
Ġvis ion
ĠG ra
Ġcont rast
Ġmedic ine
çº§ èģĶèµĽ
a res
å±ķ ç¤º
Ġsl ight
ot hes
åľ° éĿ¢
ç¨ ¿
æľ¬ ä½ľ
åĦ Ĵ
èĤ ł
å½¢ è±¡
ä¸ĵ å®¶
ch ange
Ġclin ical
ä¸ĩ åħĥ
æĿ° åħĭ
æĮ ª
åįģ æľĪ
ĠO ver
it z
æ ª
éĹ ª
çŁ¥ è¯Ĩ
çļĦ æĸ¹å¼ı
ĠL et
ç¥ Ģ
k a
æł¡ åĮº
Ġgo als
Ġsa ve
å¸¦ é¢Ĩ
çĶ³ è¯·
ç¡ķ å£«
Ġaltern ative
ä»ĸ è¢«
Ġorgan izations
å¯Ł éĻ¢
Ġtrans l
æ± °
Ġst ream
Ġgra ph
Ġcar ried
å¾Ĺ çŁ¥
9 4
å¹´ é¾Ħ
ãģ ¯
ä¸ĵ éĹ¨
æł¸ å¿ĥ
Ġgener ation
Ġcont ract
Ġdec ades
Ġchall enge
éĢļ éģĵ
ĠE ach
æŃ¦ è£ħ
Ġcy cle
Ġre ference
c a
è ¤Ĳ
åľ¨ ä¸ŃåĽ½
åľ° è´¨
ag ue
un ction
ä¿ ĺ
Ġlet ter
w ood
çº ·
è¡¨ æĺİ
æľĿ å»·
èı² å¾ĭ
ĠIntern et
Ġv ary
Ġpart y
åįİ çĽĽ
ag er
Ġf ig
èı²å¾ĭ å®¾
éĺ² å¾¡
åı¦ ä¸Ģä¸ª
çļĦ ä½ľåĵģ
Ġm ath
å¦ Ļ
Ġviol ence
olog ist
Ġp ick
æıĲ åįĩ
ä¹Ł åľ¨
åŃ¦ å£«
çĶµ æ°Ķ
ãģ ¦
ĠWe b
éĿĴ å²Ľ
Ġbo ard
Ġhig hest
ĠRep ublic
ç»ı çĲĨ
æŃ¢ äºİ
6 00
1 000
Ġindu strial
Ġmin or
æī¾ åĪ°
å¾· åįİ
Ġrecord s
å¥ İ
Ġb ran
te e
è¦Ĩ çĽĸ
è½¬ ä¼ļ
ç¿ Ķ
Ġ è¥¿
ing ly
us es
éĢ ¢
ĠF ound
çĪ± æĥħ
å¾Ī å¿«
Ġro t
ĠMed ic
J ohn
k m
ç Ģ
er ate
æľº åħ³
ç¼ĸ è¾ĳ
Ġfl ood
åĩº åħ¥åı£
ä¹Ĳ éĺŁ
i ated
æ£ ĺ
Ġag g
Ġpers pect
ruct ure
åįİçĽĽ é¡¿
Ġcommerc ial
Ġ199 0
æĤ ī
é»Ħ èī²
ç¼º ä¹ı
Ġtr ust
U N
ĠC ur
r ans
åł Ĩ
ate gy
åįģ åħ«
ĠG reek
è¯ ¢
æĺ¯ä¸Ģ éĥ¨
Ġrele ased
æĮī çħ§
çĲĨ äºĭ
Ġdi vers
æĤ£ èĢħ
å®ŀéªĮ å®¤
ĠProg ram
c ular
Ġop in
Ġheav y
z a
Ġdist ribution
ä½ı å®ħ
Ġmil k
Ġliter ature
é©¬ æĭī
Ġpres ident
æ³¨ åĨĮ
Ġperform ed
ĠIs land
åħ Ĩ
ĠE gypt
ä¸Ĭæµ· å¸Ĥ
Ġlearn ed
å®ļ ä¸º
ç¯® çĲĥ
Ġm er
Ġno vel
Ġdec isions
k i
çĽ Ĩ
çļĦ æµ·
æĹĹ ä¸ĭ
åī§ éĽĨ
Ġ199 9
ä¸ĩ ç¾İåħĥ
ä»¥ èī²åĪĹ
åį¡ æĭī
ĠGe orge
Ġsam ple
t ical
æī® æ¼Ķ
Ġ esc
èĴ ¸
en ry
Ġtr uth
ä¸»é¢ĺ æĽ²
plic ations
Ġsp eech
åįĹ æĸ¹
Ġdis order
åĵ¥ ä¼¦
ĠM al
å¥¹ åľ¨
Ġrem ove
S S
æ¹ ĺ
Ġe ight
ä¼° è®¡
æľº åĻ¨
åĶĲ æľĿ
ĠS am
åħĭ éĩĮ
æīĢ å±ŀçļĦ
æĢ§ è´¨
Ġbu y
ä¸Ń æľī
Ġintrodu ced
å°Ĩ ä¼ļ
Ġact ual
Ġgra de
æĶ¹ åĲįä¸º
ĠGovern ment
Ġit ems
Ġmet al
åĿ ª
åĬ© çĲĨ
Ġrecomm ended
éĺ Ķ
Ġl iqu
o o
å®ŀéĻħ ä¸Ĭ
ĠB er
æī¿ è®¤
è´µ æĹı
ĠJew ish
Ġth r
Ġintern al
Ġdest roy
åıĳ çĶµ
ä» Ĩ
Ġfa ith
ä» ķ
çļĦ äºĭ
p ing
ed ic
åĲ ¾
å¹¶ æľª
åı° åįĹ
ä¼Ĭæĸ¯ åħ°
çĲ ¼
çªģ çĦ¶
A b
ĠU nder
ro ad
åı ł
ä¸» åľº
åħĭ èİ±
w orks
ãĢĭ ï¼ļ
Ġsp ring
Ġem ail
Ġrele ase
åĨħ éĺģ
åľ° å¸¦
Ġbec oming
éĥ¨ çļĦ
ç»¿ èī²
ĠR el
p ed
æĸ ĭ
éĺŁ éķ¿
å¥¥ å°Ķ
ĠâĢ ¦
Ġestim ated
Ġis ol
Ġassess ment
éŁ µ
å· ¢
æĹ¥ åĨĽ
éĻ¢ éķ¿
ä¿¡ ä»°
Ġtemperature s
Ġ ign
Ġ2 8
ĠP ort
æı Ń
å¸Ī èĮĥ
åįĥ ç±³
ç¬¬ åħ«
Ġpolic ies
çĶ¨ ä½ľ
æĵ İ
Ġrelationship s
k in
Ġbuild ings
ä¸ĭ æĿ¥
éĻĦè¿ĳ çļĦ
ĠA v
åľ¨ åħ¶
Ġser ve
Ġleg is
æĻĭ çº§
Ġcaus ing
B l
è¡ĮæĶ¿åĮº åĪĴ
Ġal g
ä¼ļ çļĦ
çĶ¨ éĢĶ
Ġt our
Ġint ellig
Ġor d
çĶŁ çļĦ
ä¸İ åħ¶ä»ĸ
ãĢĢ ãĢĢ
Ġpl at
åĲĪ çº¦
ond s
Ġmess age
D e
æ¼Ķ å¥ı
Ġwide ly
Ġindepend ent
å½ĵ å¹´
Ġexp ression
è¯ģ åĪ¸
Ġf ert
Ġsol utions
Ġorgan ic
por ary
çĮ Ľ
å¼Ģ è®¾
Ġcharacter istics
or ial
Ġb ank
å¼ ¯
å·ŀ åºľ
Ġox ygen
å¯ ¸
ol id
é¢ Ī
The y
ĠM ount
æŃ ĩ
Ġdep ression
R I
Ġst ore
Ġpre fer
u it
Ġnot ed
Ġcomb ination
ãģ Ĥ
ä¸Ģ çº§
éĻį ä½İ
ol ved
éĨ Ĵ
å®ī è£ħ
fe rences
ous ly
C T
Ġchang ing
Ġm ag
il it
ç»Ļ äºĪ
å¦Ĥ ä½ķ
olog ists
Ġdiscuss ion
Ġfrequ ently
Ġris ks
ç§» æ°ĳ
åĨ² çªģ
è¾¾ æĪĲ
éķ¿ åŃĲ
çł Ĥ
Ã ¶
çļĦ éĩįè¦ģ
Ġnot es
Ġto oth
æ± Ŀ
Ġdes p
åį ĳ
Ġout put
èīº äºº
ç§ĺ å¯Ĩ
å° ¹
ä¼ļ éķ¿
åħ¬ äº¤
Ġcom pl
åįģ åĽĽ
195 6
Ġoper ations
æľĢ è¿ĳ
a ult
åħī ç»ª
Ġnum erous
å¯ ¨
ĠR ich
ç»Ī äºİ
r um
ent h
Ġexper iment
åĬł åĪ©
m at
194 0
èµ ĭ
Ġapprox imately
éĵ Ń
Ġset ting
Ġc ris
æĸ ©
Ġv essel
Ġstate ment
ĠDevelop ment
ress ive
Ġtr ig
è®¿ éĹ®
!!!!!!!!!!!!!!!!!!!!!!!!!!!!!!!!!!!!!!!!!!!!!!!!!!!!!!!!!!!!!!!! !!!!!!!!!!!!!!!!!!!!!!!!!!!!!!!!!!!!!!!!!!!!!!!!!!!!!!!!!!!!!!!!
è´Ń ä¹°
ang ing
Ġdr ive
åľ¨ å¤§
åľ¨ è¯¥
Ġlo ad
ĠN A
è¶³çĲĥ è¿ĲåĬ¨åĳĺ
å¨ģ èĥģ
ĠT ur
éĥ¨ å°ļä¹¦
195 5
Ġp al
åľ¨ ä¸Ģ
Ġdog s
Ġmov ed
ĠS ee
äººåı£ æķ°éĩı
ä¸¾è¡Į çļĦ
Ġanx iety
é©¾ é©¶
Ġnucle ar
æ·ĺ æ±°
Ġd rop
ĠF ore
Ġconn ected
Ġparticip ants
Ð ²
Ġ2 6
Ġk illed
Ġl ived
Ġbott om
el ines
è¯· æ±Ĥ
Ġaspect s
ä¸¤ æ¬¡
èĤ º
éĢ Ĵ
æŃ£ æľĪ
è±¡ å¾ģ
ĠW ork
Ġnut rition
æĪĲ éĥ½
å¸ĥ èİ±
n am
å¹¶ å°Ĩ
lic k
Ġdis orders
Ġgen e
Ġcamp aign
çļĦ åĲĮ
ĠO b
Ġrad iation
è¥ Ħ
æ± Ģ
as ks
ä¸Ĭ æľī
è´ ´
ĠD em
èģĶ ç³»
Ġinj ury
R A
Ġill ustr
è§Ĥ æµĭ
é³ ŀ
m al
Ġh omes
ä¸ Ľ
è¡¨ è¾¾
é³ Ħ
è¿ħ éĢŁ
Ġc overed
Ġapp e
het ic
V D
å½± è§Ĩ
Ġd ri
Ġ199 8
å¤§ å¸Ī
id ers
è¿Ļ æ¬¡
ĠChild ren
Ġk m
Ġredu cing
ä¼ł æĴŃ
Ġclear ly
Ġconcent r
Ġrad io
Ġg od
Ġtechn ique
cl us
Ġin put
åİĭ åĬĽ
Ġg ender
ç¤¾ä¼ļ ä¸»ä¹ī
Ã ³
Ġdou b
ri a
ĠWh ite
Ġse ed
å¤į æĿĤ
å£° éŁ³
Ġget s
åħ¨ çº¿
ç¾½æ¯Ľ çĲĥ
ic ial
Ġfail ure
Ġrefer red
èĢ Ĺ
Ġrepl ace
äºĮ æľĪ
çļĦ æ°´
å¤§ åŃĹ
æł Ĺ
Ġvit amin
ä»ĸ ä¸İ
Ġmost ly
èģ ĺ
bo ard
O T
åħĭ æĭī
è° Ń
Ġdist inct
Ġfind ing
æ· »
éĨ ĩ
åľĨ å½¢
ä¸Ĭ å¸Ĥ
æł ı
Ġfre edom
ä»ĸ äºİ
Ġar m
æ¢ ¨
Ġconflic t
) ãĢģ
Ġbat tle
ãģ Į
Ġth ick
ĠM et
ç¨ į
g u
å±± åĮº
ä¼¯ çĪµ
èĬĤåº¦ ä½¿
è¥¿ æĸ¹
f ield
å±ķ è§Ī
æĸĩ åŃĹ
ĠM art
èĲ¨ æĸ¯
ĠB el
å¹¿ä¸ľ çľģ
ap ed
èľ ¥
Ġinit ial
ur ance
åľº æ¯ĶèµĽ
èĥ½ éĩı
Ġresult ing
iven ess
t es
ĠS al
am s
è£ħ é¥°
åĪ ·
E P
Ġk id
ĠPro ject
æĪĳ çļĦ
ĠAs ia
Ġaut hors
åĩł ä¸ª
Ġproper ly
Ġfeel ing
Ġter rit
Ġd ie
æĹ¶ ä»»
Ġrep rodu
è¾ĥ ä¸º
l i
å°± ä¼ļ
197 5
Ġinvol ves
Ġc and
erv ed
åĬ Ŀ
æĦı ä¹ī
è®¨ è®º
an cing
æĸ Ĳ
Ġhapp ens
A ccording
Ġwant ed
Ġo cean
Ġf ields
D C
æĹħ è¡Į
ĠM ark
éĢĢ ä¼ĳ
Ġremov ed
nd rome
ĠS er
Ġ ä¸ľ
ç¥ ł
èģĮä¸ļ çĶŁæ¶¯
Ġl ung
Ġp ric
ãģ ĵ
åł ª
Ġt rou
ç®Ģ åįķ
èģĶåĲĪ åĽ½
Ġ2 7
ç¨ĭ åºı
Ġstart ing
å§ »
Ġread y
åŁİ éķĩ
Ġany one
w in
ç»ı éªĮ
ç©º æ°Ķ
å¼ķ æĵİ
ĠOr gan
Ġpart ners
å®ī ä¸ľ
ogn itive
åľ Ń
Ġcolle ge
ri an
å¦ ĸ
row s
Ġ8 0
åĬ «
åįģä¸Ģ å¹´
çķ Ķ
Ġu pper
Ġpre par
åıĺ å¾Ĺ
èĲ¥ è¿Ĳ
Ġch ronic
ĠU N
ĠM ars
é¸Ł ç±»
I P
Ġst ation
Ġtre nd
ĠE v
æ´Ľ åħĭ
æ£Ĵ çĲĥ
Ġexact ly
äºĶ æľĪ
éĻĦ å±ŀ
on ic
ĠT est
ç¡ «
ex as
Ġcon v
Ġcl ick
éĴĪ å¯¹
pl ace
åĬł å·ŀ
é¸ Ń
How ever
Ġm ist
ç¢ §
Ġinf lamm
Ġc ore
åįł åľ°
Ġencoura ge
æĹłçº¿ çĶµè§Ĩ
S te
te red
èĴ ĭ
Ġvol ume
Ġw in
èĢĥ åı¤
çļĦ åĦ¿åŃĲ
åĽ½ éģĵ
Ġdet ect
ĠThere fore
Ġb urn
ant ed
æĥ Ł
å· «
ĠB ay
um n
Ġadj ust
ĠF ood
åĽł ç´ł
åįģ å¤§
ric ulum
Ġmention ed
h i
Ġre b
èĬ Ĵ
æ° ¨
æŃ£ å¸¸
ac ific
åĸľ åī§
Ġis land
ĠS ub
ĠL ou
ĠO ff
å°ı åŀĭ
iet ies
åıĳçİ° äºĨ
Ġsy nt
Ġcoun ter
æĹ¥ æľŁ
Ġinf ections
åħ³ æ³¨
Ġgr ass
Ġexp osed
å® °
ä¸ĭ åįĪ
çĵ ¶
ak er
Ġf ine
Ġsou thern
è ¤
Ġp i
æĵį ä½ľ
æĤ ²
ĠS T
æ³ ¡
8 00
Ġt im
æī ¶
æĸĩ çĮ®
ĠS un
Ġelectric ity
åľ° åĽ¾
éĹ´ çļĦ
Ġtrans form
ur ation
èį Ĩ
il ing
ĠH IV
æ¶Ī æģ¯
b ra
Ġconn ection
e k
m p
is her
åĴ ĸ
çľŁ æŃ£
g a
Ġdeg rees
åĪĹ åħ¥
ç»Ļ äºĨ
ĠH el
Ġsc en
Ġj our
å¾ĭ å¸Ī
çī¹ èī²
ï¼ ħ
197 2
Ġprinc iples
å¤ļ å¹´
Ġhouse hold
åİ ¢
ĠC ath
æ´Ľ æĿī
åıĤåĬł äºĨ
Ġst orage
Ġcred it
v ille
Ġadvant age
Ġup d
Ġlay er
I ON
éĥ¨ èĲ½
åĮĹ æĸ¹
ä¸º æŃ¢
æ¶ Ĥ
éº¦ åħĭ
Ġturn ed
Ġg ames
èĤ ¢
Ġhe ar
èĤ ¤
æ¸ Ĭ
Ġfil m
å¯¹ æĬĹ
åħ¶ å®ŀ
åıĳåĬ¨ æľº
M ar
194 1
ĠSp anish
åĮĹæµ· éģĵ
ish ing
åĪ¶ çļĦ
ĠWh y
v is
Ġbel ong
Ġadv anced
æĮª å¨ģ
Ġ9 0
Ġs av
æ¦Ĥ è¦ģ
é¡¾ éĹ®
Ġv ul
åı¯èĥ½ ä¼ļ
åĢĻ éĢī
Ġconf irm
Ġt rib
ä»· æł¼
Ġfarm ers
ĠB ur
é¢Ĩ è¢ĸ
Ġcop y
Ġmot or
Ġemot ional
ĠIs lam
æģĲ é¾Ļ
ç¥ŀ è¯Ŀ
æ³¢ æĸ¯
æĺİæľĿ æĶ¿æ²»äººçī©
Ġt um
at ically
Ġsol id
æ´ĽæĿī çŁ¶
è¾½ å®ģ
Ġh orm
å¼ķ åıĳ
åı² ä¸Ĭ
æĦı è¯Ĩ
è½¬ ç§»
åħ³ éĹŃ
çī¹ éĩĮ
ĠCl ass
R es
çļĦ ä¸¤
Ġph ase
ĠOn ce
ç»Ħ å»º
å¤§ éĺª
ĠIn f
æ¬§ åħĥ
cept ion
194 4
åĢ º
N o
ĠH uman
åĽº å®ļ
è´µ å·ŀ
Ġclass es
Ġlands c
m ark
åĬł æĭī
ĠCent ral
çľģéģĵ åı°
è´£ ä»»
Ġhtt ps
çĶŁ åŃĺ
op er
å¹´ åºķ
åĽĽ æľĪ
ç»ĦæĪĲ çļĦ
Ġexperien ced
èĢ Ĳ
Ġlangu ages
197 3
ä¹ĺ å®¢
æĪĺ å£«
I M
å»¶ éķ¿
Ġh op
Ġsur gery
æľĢ å¤ļ
æİ ª
ĠComp any
è½¬ åĲĳ
Ġmanufact ure
n y
Ġ ...
ä¼ ª
å¯¹ æĸ¹
Ġexper ts
Ġun f
Ġdis s
Ġra ce
æĶ¿ åħļ
c ers
. ;
å¤ĸ åĽ½
Ġrelig ion
197 6
Ġreact ion
ĠIS BN
åĨ ¢
w ith
Ġ ãĥ
ç© ´
ãĤ Ń
åīį çļĦ
æ²¿ éĿ©
b i
osy stem
ro g
Ġacad emic
S e
ip e
ber t
çĽ¸ æ¯Ķ
Ġhelp ed
åīį èº«
æ£ ķ
åĪĨ ç¦»
Ġn orthern
çļĦ ä¸Ń
Ġs and
ä¹ī å¤§åĪ©
Ġex cell
Ġback ground
Ġdang erous
p en
ç¦ ħ
Ġ20 21
ress ed
196 5
èµĦ äº§
æł ĭ
çº ¤
Ġo ption
al le
Ġcomp rehens
ä¿® å»º
Ġdep ending
çīĻ åĪ©
çľģ çļĦä¸Ģä¸ª
ortun ately
Ġmeet ing
as tern
è° ¦
Ġple ase
çı Ģ
197 4
åĮĪ çīĻåĪ©
Ġs ong
éĽ į
ç¡® è®¤
in i
çİ ²
è¢ ĭ
éº Ł
éĽ ĩ
åı¯ è¾¾
Ġphys ic
Ġ é¦Ļæ¸¯
ä¸° å¯Į
Ġa id
Ġdescrib e
çĪµ å£«
Ġse eds
åĨ¬ åŃ£
ç»Ī çĤ¹
æ¼ĶåĶ± ä¼ļ
Ġsh ip
åĳ¨ å¹´
æĬķ éĻį
çļĦå¥³ åĦ¿
ĠCour t
Ġf ol
ul es
Ġke pt
Ġinflu en
Ġp ages
çŃī çŃī
æĪĺ éĺŁ
Ġregard ing
çļĦ åĲİ
Ġp ul
19 30
Ġeffective ly
åħ´ è¶£
Ġmat hemat
Ġdeterm ined
èĩª æĿĢ
ĠL ife
ing er
è¿ ¦
Ġun ivers
Ġbeaut iful
bur g
196 8
Ġprep ared
I L
çľŁ å®ŀ
åıĹ æ¬¢è¿İ
éļ¶ å±ŀ
ĠPh ys
Ġd ram
èħ Ķ
Ġgen es
Ġann ual
re m
Ġhe ard
Ġlead s
H ere
å¹³ åİŁ
Ġveget ables
Ġm ort
H K
èģĮ åĬ¡
d ed
Ġin h
ot ic
I G
éŃĶ æ³ķ
ä½įäºİ æ³ķåĽ½
æĶ¯ æı´
Ġn or
ç¨ »
196 3
Ġd u
æĦı å¤ĸ
å§ ĳ
Ġlink ed
Ġincor por
re te
åĮĹ éŃı
194 6
èĤ ĸ
Ġconcer n
Ġcirc um
èĻ ¹
å¸ĥ å°Ķ
Ġserv ed
Ġoper ation
Ġinterest ed
Ġrele vant
ä¸Ģ æ®µ
æĽ´ åĬł
N e
Ġs em
æķ ¢
åĽ½åĬ¡ éĻ¢
W hy
æĸĩ ç«ł
æĽ´ å¤ļ
Ġatmosp here
åĪ¶ä½ľ äºº
å°¼äºļ å·ŀ
ä»»åĳ½ ä¸º
æ°ĳ éĹ´
ĠR em
Ġr ound
æĶ¶ èĹı
Ġcon ver
M y
Ġprocess ing
ose ph
æŀĦ éĢł
åħ¬ æ°ĳ
Ġexper t
ĠIt s
ad ian
Ġcom fort
æĮ ĸ
Ġinterp ret
os a
çģ« æĺŁ
ä¸İ åħ¶
Ġdefin ition
Ġinvol ve
at tle
iver se
å± Ī
äºļ ç§į
Ġsee k
Ġel imin
æĪĺ çķ¥
éĩĳ çīĮ
éĤ ª
ig ration
æľī æīĢ
Ġpre t
å¹¶ ä»¥
Ġprevious ly
Ġme ant
åıĤ è°ĭ
195 4
I R
ad o
å¼Ĺ æľĹ
ribut ed
Ġsqu are
Ġplat form
196 4
ĠB as
Ġun its
l ig
Ġw est
èĵĿ èī²
åī ª
Ġdec ided
stand ing
ĠG roup
é¦ĸ åħĪ
æµ· å¤ĸ
Ġk ill
ĠSt reet
ify ing
ç§ģ äºº
åĲ ¹
ok ing
è©¹ å§Ĩæĸ¯
å°¼ å°Ķ
è¯ģ æį®
Ġsay ing
Ġoffic ial
Ġamount s
Ġ7 0
ç¨ £
æĽ² çĽ®
åıĳ æĺİ
è¯ ±
ä»¥ ä¸º
Ġ çļĦ
æ° ¯
é¢Ĩ åľŁ
Ġcre ation
èħ ¿
çł ĸ
å½ķ éŁ³
195 2
augh ter
D F
åĳĬ è¯ī
ĠT exas
ĠServ ice
el ine
ä¸ĭ éĻį
Ġme at
å¹´ æĹ¶
ut ed
Ġh our
Ġinv ent
ä¼ ½
çĶ ľ
äº¦ æĺ¯
æµĭ éĩı
ä¸ī æľĪ
å®ĺ èĩ³
ĠTh omas
çŃ¾ çº¦
ç§ĳ åŃ¦å®¶
Ñ Į
le ase
æĻ® æŁ¥
C H
u ing
æĬ ±
Ġart icles
ear s
M any
åį³ ä½¿
Ġ åįĹ
å¤§ åį«
å¯¹ è±¡
197 7
åħ« æľĪ
196 2
åĪ¶ çīĩ
å¹´ åĪ°
ĠB en
Ġv ot
åĲ ŀ
éĹ ²
IN G
C R
Ġm el
Ġhelp ing
åĲ §
Ġstr ategy
Ġs ort
å¿ §
åĽĽå·Ŀ çľģ
çĽ¸ äºĴ
196 9
ĠD i
195 9
T S
æĸ¯ é¡¿
ãĤ ª
ĠPro fess
çĽ¸ ä¿¡
.. ..
um in
Ġsp ot
all ed
Ġmain ly
ä¸»æĮģ äºº
ä¸ī åĽ½
èĢ¶ ç¨£
ãĤ ¨
çĿ ¡
g ra
Ġ199 7
è¿Ļ éĥ¨
ĠNew s
cl usion
åĲĽ ä¸»
Ġprofess ion
orm al
196 1
åĨĽ åĽ¢
O ur
å¤© ä¸ĭ
and om
åħĭ ç½Ĺ
æ¯Ķ ä¾ĭ
ç¬¬äºĮæ¬¡ ä¸ĸçķĮå¤§æĪĺ
çŁŃæľŁ å¤§åŃ¦
Ġcons ervation
Ġim pl
Ġcons ult
s hip
c ol
å° ¿
çĪ ·
ĠStud ents
èģ ª
Ġconcept s
om in
Ġar my
Ġprom ote
Ġengine ering
et ers
Ġwh om
n ic
åĽ Ĭ
èĤ ¿
åį« è§Ĩ
ç¦ģ æŃ¢
197 1
Ġyou th
Ġsign al
å¤© çĦ¶
Ġconcer ns
it t
çľģ åĴĮ
åĪ© æĸ¯
åĪĽ å»º
Ġless on
åĵ¥ä¼¦ æ¯Ķäºļ
Ġman age
Ġvol unt
ĠD ist
è´ ¼
Ġp un
å¼ ĵ
ĠH ol
Ġeffic iency
èĢģ å¸Ī
éľĢ æ±Ĥ
Ġsp ent
Ġcl os
å¼Ģ å·¥
Ġpoll ution
v an
è¥¿ å®ī
ĠO ld
Ġchemical s
I nd
åŃĹ æ¯į
Ġdisc over
ĠMex ico
Ġc ere
ãĤ ³
åħŃ æľĪ
Al though
çº¦ ä¸º
ä»Ĭ æĹ¥
çİ» çĴĥ
Ã Ĺ
ĠB udd
éģ µ
æķĻ å®Ĺ
çŃ¾ ç½²
ä¸ĥ æľĪ
ĠAt l
ä½ĵèĤ² åľº
Ġc amer
äºĨ è§£
çİ°åľ¨ çļĦ
Ġegg s
æı ¡
æ± ª
å¤© çļĦ
ä¹¡ éģĵ
A meric
å¯ ĵ
Ġhe aring
d es
èĪ Ł
com es
è®¤ è¯Ĩ
Ġob vious
æĵ ħ
æĢ ķ
éķ¿ æ±Ł
çķĻ ä¸ĭ
re p
Ġre ached
Ġdef ic
ar p
åįģäºĮ æľĪ
èľ Ģ
èħ ĵ
å·® å¼Ĥ
w est
Ġn av
J R
æķ´ ä½ĵ
Ġrecord ed
C A
åħ¬ æĸ¤
ĠD ef
åķ ¡
æī «
è¿Ļ åº§
ä¸¤ ä¾§
ç¥ Ĳ
Ġcor resp
çĶ «
å·¥ äºº
æľ¬ åľ°
ar row
ãĤ Į
åıĳ åĩº
å¾Ĺ åĲį
è¿Ļ éĩĮ
ä¿ĥ è¿Ľ
Ġcomple ted
ĠC ivil
å®ĥ æĺ¯
ĠA rab
á Ģ
å¼º çĥĪ
ä¹¦ ç±į
éĴ »
z ing
ro id
as er
ol ute
ä¹ĭ å¥³
os c
in f
çļĦ éģĵè·¯
éĺ³ å¸Ĥ
wh ich
èµĦ éĩĳ
E n
é¦ĸ æĴŃ
ĠAc ad
æĴ¤ éĶĢ
Ġvacc ine
ĠSm ith
Ġcal c
åħ¬ ä¼Ĺ
åįĩ ä¸º
Ġident ity
çļĦ åħ³ç³»
Ġb ird
ec k
ä¸Ń è¢«
è° ¥
Ġ é©¬
èĩªæ²» åĮº
Ġown ers
çŁ ¢
ä¸į æķĮ
æ¡ ĵ
Ġprop osed
æŁ¥ çĲĨ
åľ¨ æĹ¥æľ¬
ä¸º äºº
Ġst orm
å·¥ åħ·
at o
ä»» èģĮ
Ġaware ness
ç² ¹
æĬķ æīĭ
åĽ½éĻħ æľºåľº
Ñ ĥ
æĹ§ å¸Ĥéķĩ
Ġfrequ ency
Ġprofess or
Ð ´
è¾ĸ åĮº
Ġconc lud
ä¸Ģ å®ļ
æĸ¹ è¨Ģ
éģĵ åħī
çĶ» å®¶
Ġ199 6
Ġc ast
æľ¬ é±¼
Ġapp oint
y e
Ġpract ical
Ġtox ic
çĶµ èĦĳ
èĭı ä¸¹
æĻļ ä¸Ĭ
ap es
çĤ ¼
æ¶ µ
T hat
ä½Ĩ çĶ±äºİ
ä¼ĺ åĬ¿
åŁ ĭ
éĦ Ĥ
u ke
stit ution
éĢĢ åĩº
è®¡ç®Ĺ æľº
è·¯ æ®µ
æĭ ±
194 2
u able
èĸ ĩ
åĲį ä¹ī
am ental
ĠBrit ain
Ġdiagn osis
Ġdat ab
Ġ æľĢä½³
ot a
çĶĺ èĤĥ
Ġsam ples
ĠJ er
è¿Ĳ çĶ¨
ä¸ĸçķĮ ä¸Ĭ
ri age
Ġsupport ed
Ġpurp oses
çĶµåĬĽ æľºè½¦
é¢ ĩ
æľį å½¹
çļĦ å·¥ä½ľ
åİŁ å§ĭ
æĳ Ĩ
å± ł
çĲ ª
Ġnot ice
Ġcont ribute
et t
Ġlo oks
am ple
éĽ ¾
å¤§ èģĶçĽŁ
ri er
193 9
éļľ ç¢į
åħ¬åħĥ åīį
è¾ ©
å¯¹ å¤ĸ
äºĭ å®ŀ
Ġ åĴĮ
Ġst one
Ġpi eces
åı¤ åħ¸
194 3
S u
äº¿ ç¾İåħĥ
çļĦ å¸Ĥéķĩ
ç²¤ è¯Ń
i xt
ĠM r
D r
å¸¦ æľī
å¥¥è¿Ĳ ä¼ļ
ĠComm ission
æĬ ĵ
is hes
os en
196 6
æĸ½ å·¥
æ¯ķä¸ļ åĲİ
SE E
N ow
Ġl ib
å¹¶ æŃ¢äºİ
åİŁ åŃĲ
Ġlarge ly
çĪĨ çĤ¸
æ°ĳä¸» åħļ
Ġwe alth
é¤Ĳ åİħ
Ġk n
58 5
Ġjob s
Ġsitu ations
Ġd ynam
èĿ ¶
' ll
d own
å®¶ äºº
ĠM iss
Ġint ended
ro ke
é£İ éĻ©
æ²³åįĹ çľģ
Ġsus p
èĤ Ŀ
Ġman ner
Ġext ensive
195 3
Ġd oll
è½¯ ä»¶
z y
è¾¾ å°Ķ
Ġform ation
Ġkind s
ç§° åı·
å¯¼ å¼¹
ĠVir gin
éĢ ¸
fe red
ĠCon f
ç¦» åŃĲ
Ġe ast
Ġr ou
æĸĩ ä»¶
Ġpres c
éĹ ¸
ac ing
Ġb ud
å¹´ åĪĿ
Ġimpro ved
Ġ å¤©
Ġh ospital
èĥ Ĩ
åĮĸ åĲĪçī©
éĢ ¼
éħį åĲĪ
æµĻæ±Ł çľģ
ç»´ åŁĥ
Ġ é»Ħ
Ġra il
D o
åĬ¿ åĬĽ
çļĦ åİĨåı²
è° Ĭ
oun ced
F rom
ind ing
æĽ¾ ç¥ĸ
çŁ³ æ²¹
Ġfin ally
ĠE very
C S
p oint
Ġl ic
Ġcomb ined
æ¼Ķ åĮĸ
æ³¢ ç½Ĺ
Ġallow ing
æł¹ å»·
Ġf lex
Ġhy per
Ġphen omen
å°¼ åħĭ
å¤ı ä»¤
éĥİ ä¸Ń
Ġproced ure
çĺ ¤
åĮĹ ç¾İ
éŃ ģ
ä¸º æ³ķåĽ½
Ġcontin ues
6 25
ç» ³
åįķ åħĥ
Ġk il
æ¶ī åıĬ
Ġredu ction
åį³ ä½į
ĠChar les
Ġy ellow
on a
in ent
Ġhe ight
å¤§ å¤ļ
28 1
Ġide al
ĠTechn ology
ä»¥ åĮĹ
un k
å±± åİ¿
Ġelect rical
Ġrev olution
Ġb rief
Ġset tle
Ġbro ther
ag s
åį° å°¼
196 7
ç½ĳ çĲĥ
os ite
ĠEn ergy
Ġfor ced
Ġfocus ed
Ġexist ence
å¸ Ĩ
æľ¬ çīĩ
é©¬ æĸ¯
å·¡ åĽŀ
ĠM ass
and a
è§Ĥ çĤ¹
ĠD el
åį¡ æĸ¯
çĪ± å¾·åįİ
å®ª æ³ķ
æĿŃ å·ŀ
ãģ §
Ġsec ret
195 7
Ġsustain able
ä¹Ŀ æľĪ
Ġthe r
çļĦ æĥħåĨµä¸ĭ
am ps
å¼ķ åħ¥
ak ers
Ġw aters
ĠB ook
ĠMed ical
åĬ³ åĬ¨
194 8
Ġmus cles
Ġindic ate
é¼ İ
é¦ĸ ä¸ª
å½¢ çĬ¶
Ġcertain ly
æİ¨ è¿Ľ
av a
éģ ¥
æ´¾ éģ£
Ġstra ight
Ġchar ge
åį± æľº
Ġex ternal
ç«ĭ æ³ķ
æ£Ģ æŁ¥
Ġauthor ity
åĲį äºº
è¥¿ åħ°
ipp ed
å¤© åłĤ
çļĦ æĹ¶éĹ´
oss ible
ĠEng ine
M ost
å¿ ĺ
æ² ¼
çĶ¨ æĪ·
Ġha z
Ġsh ared
ost er
è¾¹ ç¼ĺ
Ġ2 9
æ¶Ī å¤±
çº ¬
æıĲ åĪ°
æīĵ ç®Ĺ
Ġext ent
çİ° ä»Ĭ
è®º æĸĩ
åħ±äº§ åħļ
Ġbeg ins
h t
ĠAr my
è·Ł éļı
é¾Ļ ç§ĳ
Ġmet ab
æ±Łèĭı çľģ
å® Ľ
ĠU SA
Ġprim arily
Ġf ib
act ers
ĠSp ace
s es
Ġcollect ed
Ġtreat ments
Ġm aster
æĢ ĸ
çļĦ æĪĲåĳĺ
ä¼Ĭ æľĹ
ç´¯ è®¡
ĠC le
è· ĭ
Ġvul ner
ç¥ ¯
esp ite
éĢĤ åĲĪ
æĥ ¯
ä¸»è¦ģ æĺ¯
Ġco al
è¹ Ī
ce l
um ber
Ġpartic les
ä¸ŃåĽ½äººæ°ĳ è§£æĶ¾åĨĽ
Ġfact s
çĭ Ń
Ġp ark
Ġwond er
Ġv ent
åĪĨ éħį
193 7
r as
ä¸į ä»ħ
ĠE lect
ç¿ Į
Ġoccur red
æħķ å®¹
IN SEE
ä¼ļ åĳĺ
èĲ¨ å°Ķ
b and
Ġ19 80
æº ¯
ĠSt and
Ġdig est
æīĭ æľ¯
C E
ĠM ont
Ġdrink ing
ul ating
Ġsp end
é£Ł çĶ¨
èĴĻ çī¹
çº¿è·¯ åı£
ä¸» äºĭ
èīºæľ¯ å®¶
ĠR obert
n el
çļĦ çĶµå½±
194 7
Ġcris is
æĺ¯ é¦Ļæ¸¯
ĠSec ond
y r
æľ Ń
Ġmax imum
Ġg ar
çĪ ª
Ġv ital
ĠS ou
æĶ¹ åĸĦ
Ġcent uries
å°ļ æľª
æĿĥ åĬĽ
éĤ£ äºĽ
Ġco ord
Ġref ers
Ġtop ics
éĩĬ æĶ¾
Ġinstit utions
ĠF urther
å© ´
åĮº éĹ´
ĠW ind
å¾· çļĦ
æ¿ ĳ
æ¸¸ æ³³
ç¡® è¯Ĭ
Ġf oss
èĪ ±
éĴ¢ çĲ´
Ġs now
å¾· å°Ķ
å¢ŀ éķ¿
Ġtechn ical
ä¸į æĺİ
äº¬ éĥ½
Ġh it
ĠO ut
ç»´ æĸ¯
è¾ ¨
å¤§åŃ¦ çļĦ
G en
10 82
é©¬ éĩĮ
Ġshow ing
èĤ¡ä»½ æľīéĻĲåħ¬åı¸
Ġspec ifically
Ġl ov
ath y
ĠP acific
æ¯ ħ
ãģ £
æ¼ ł
ãĤ £
åĿĩ ä¸º
37 4
Ġrem ained
ä½Ľ ç½Ĺ
è¢« è¿«
å°Ĩ é¢Ĩ
Ġt aught
ä¸Ń åħ±
æĹ¶æľŁ çļĦ
éĺµ å®¹
ä½ĵ ç³»
ä¹Ŀ é¾Ļ
Ġadv ice
rast ructure
æĻ ´
ä¸Ĭ ä¸ĭ
è¥¿ æĸ¯
Ġth in
ç§¯ æŀģ
) ï¼ļ
ol ars
èĥ º
å¸¦ æĿ¥
Ġmor ning
Ġmot iv
D S
is p
æ¡Ī ä»¶
l ar
Ġd ro
éĵ İ
ĠTw o
çĽ´ å¾Ħ
åįĩ çº§
å¤ ¹
Ġv ast
f l
Ġra ised
å£« é¡¿
Ġt ail
Ġdivid ed
å¹´ åĴĮ
ĠU p
å¯Ĩ åº¦
å® ł
æ¯ĶåĪ© æĹ¶
al a
as ure
ĠJ ud
çķĻ åľ¨
æĭ ĸ
é¦ĸ å¸Ń
it ors
Ġoper ating
åĴĸ åķ¡
èĢĮ è¨Ģ
æ· ĳ
çļĦ åıĳå±ķ
èĭ ¯
Ġw estern
æĪĲ å°±
å¸Ĥ éķ¿
' ve
ĠH enry
ens is
Ġadv ance
ĠD ata
å¯¹ åºĶ
Ġof fered
æµ· å³¡
Ġflow ers
åĳĺ å·¥
Ġprote ins
Ġper man
ro c
éĩį éĩı
è¯¥ çīĩ
ĠM il
å®ŀ è¡Į
åºŁ éĻ¤
in du
M A
éĺ¿ æł¹å»·
Ġfl at
èĥľ åĩº
æĿĢ å®³
æįŁ å¤±
èĮ ħ
on ia
Ġs end
é¢Ĩ åľ°
ç§ĳ å¤«
Ġcru cial
å¾· æĭī
åĲī å°Ķ
rap y
ĠCar ol
ä¸į åĪ°
Ġrec y
oth ing
ist an
Ġtest ed
æ»¡ è¶³
ä»£ çĲĨ
åħ¥ çĲĥ
Ġcare er
çī¹ æĭī
çŃī çº§
åŃ ķ
am ily
ĠF re
ãĤ Ĵ
ä¹¦ éĻ¢
æĽ´ ä¸º
å¤į åħ´
çĬ¯ ç½ª
çļĦ è®¾è®¡
åľ¨ ä»ĸ
Ġn ations
Ġsu fficient
ĠJew s
åįģ ä¹Ŀ
angu age
éĤ» è¿ĳ
å¤ª å®Ī
åĪĨåĪ« ä¸º
Ġveh icle
Ã ¤
éĢī ä¸º
Ġsurround ing
ĠT em
Ġqu ar
ab il
ç§° ä½ľ
ific ial
ĠMedic ine
å©ļ å§»
Ġsal t
Ġec osystem
å·´ å°Ķ
Ġsubject s
M ore
it ness
å®ļ å±ħ
æĹł äºº
ĠQ ue
D P
æĬ «
Ġcom ment
åĲ »
å¼Ĺ éĩĮ
éĥ ģ
Ġrespons ibility
Ġre new
æĺ¯ ä¸ª
è®¾ å®ļ
Ġslight ly
å±Ģ éķ¿
Ġhelp ful
Ġare n
å»ºçŃĳ çī©
ĠFound ation
Ġdesp ite
æĲ º
çŃ¾ è®¢
Ġkeep ing
æī© å¤§
åĩº åĶ®
ç¿ ħ
Ġbl og
193 8
ç¼ħ çĶ¸
Ġcl im
Ġliqu id
ç±» çļĦ
Ġfac ilities
ĠT reat
å°Ŀ è¯ķ
ĠS l
Ġmo ist
å²Ľ å±¿
å·² è¢«
ic ed
Ġimpact s
Ġperspect ive
Ġpot entially
Ġnutri ents
Ġ199 5
é¢Ħ è®¡
Ġb ill
ĠL ake
éĺ ®
é£Ł æĢ§
Ġmeas ured
er ia
ĠM icro
åº ¶
Ġw ife
ĠT er
Ġfamil iar
è¶³ åįı
w ar
act ive
å±±ä¸ľ çľģ
Ġemer gency
C ar
Ġs ector
å®ī å¨ľ
Ġimm un
åħ¬å¼Ģ èµĽ
O L
åį¢ çĵ¦å°Ķ
Ġsp l
Ġother wise
å·² æľī
å°ĳ å°Ĩ
éĽ· æĸ¯
Ù Ħ
ĠNA SA
äºİ P
å¸ĥ æĶ¿
ãĢ ľ
à ¥
è¥¿ ä¾§
çī¹ åħ°
åĬŀ äºĭ
Ġsound s
Ġon to
å´ ©
Ġatt acks
ãĤ Ĥ
å¯¹ éĺµ
åħĭ å°Ķ
ĠD ise
åĲ« æľī
Ġexcell ent
at ric
åĩ ¶
åĳ¨ æľŁ
èħ Ĳ
ä¾Ŀ çĦ¶
æķĮ äºº
ä»ĸ è¿ĺ
ens es
èĥĮ é³į
Ġdetail ed
åľ¨ é¦Ļæ¸¯
ãĢĭ (
Ġme re
äººåı£æķ°éĩı ä¸ºP
E d
I m
èı Ĭ
åĪĨ æĶ¯
å¥³ çİĭ
ä¸»è¦ģ çļĦ
æģĲ æĢĸ
Ġconsequ ences
am il
åıĳ èµ·
Ġsc he
w hat
ãĥ ķ
Ġsy n
åĩ½ æķ°
Ġfor t
Ġwe ap
t ion
Ġsuggest ed
Ġchar acters
Ġmot ion
ĠM em
Ġdou ble
é¡ ·
Ġgood s
M V
çļĦ çĪ¶äº²
ç£ ·
ad d
ç½ ¢
æĥħ æĬ¥
è§£ æķ£
go ing
S P
ä»¤ äºº
Ġintern et
Ġro ots
åŃ£ åĲİ
æĦı å¿Ĺ
g ment
it a
Ġbr ight
Ġhabit at
Ġw et
å¥³ ä¸»è§Ĵ
æºĲ èĩª
ĠRuss ia
ä¸Ń æľŁ
éľ ŀ
om etimes
æ¸ ł
ough ly
] .
ĠI r
æĪ¿ å±ĭ
Ġinit i
æĸĩ èīº
atur ally
ç« Ł
ew ork
Ġlead er
ox ide
in n
Ġaffect s
Ġf aster
ĠM iddle
ĠL atin
Ġpol ice
Ġgreat est
ol a
é¥ ¼
Ġflu id
ak s
çĽĳ åĪ¶
åħ¼ ä»»
Ġres ist
Ġ æĹ¥æľ¬
å§ ¿
åĪĻ ä¸º
å¦¹ å¦¹
æĭ ¼
éĩĩ åıĸ
æīĢæľī çļĦ
Ġtyp ical
è½° çĤ¸
20 46
æľ¬ ç§ĳ
A m
Ð ¹
ä¸ľ ä¾§
Ġfund amental
ä¹Ł ä¸į
çĽ¸ éĤ»
Ġl iver
é² ¸
A K
Ġexpl an
åį± éĻ©
éĺ» æŃ¢
Ġpregn ancy
æİ¥å£¤ çļĦå¸Ĥéķĩ
æİĴ è¡Į
ç¬¦ åĲĪ
Ġdom in
ac he
èĩ Ĥ
ä¼ł åªĴ
å°Ķ å¤«
Ġc ert
çĤ ī
ov iet
n ame
ç¹ģ æ®ĸ
è¤Ĳ èī²
å¾ª çİ¯
Ġp ump
å¤§ å°ı
å·¥ç¨ĭ å¸Ī
å¤§ è¡Ĺ
åħ¨ éĿ¢
ä½įäºİ ä¸ŃåĽ½
Ġcontroll ed
ĠB ible
æ· ³
å¿ ½
é£İ æļ´
å¤ıä»¤ æĹ¶
ol f
è¯´ æĺİ
èĪŀ è¹Ī
Ġsubst ant
ĠLear ning
res ents
Ġstud ied
Ġdi am
en a
èĥ½ æºĲ
å®ģ æ³¢
Ġhar vest
Ġst ret
ĠD irect
æ¡ Ĳ
Ġph one
ĠT oday
æľī æľº
th at
Ġv oice
çĻ» éĻĨ
å¤© ä½¿
å¹³ éĿ¢
M P
Ġor al
è¥¿ åĮĹéĥ¨
Ġt ro
Ġl ose
ç§į æ¤į
M L
or ith
as p
ĠP sych
è¿Ľ çĲĥ
éĥ½ çĿ£
æĹ¶ æ®µ
æ¦ Ħ
Ġdep th
ens us
Ġf elt
u a
ĠA D
æģ °
Ġs ed
å¹¶ ä¸İ
æĪĲ çļĦ
Ġb le
åŁ¹ åħ»
æ¯Ķ å¦Ĥ
Ġaccur ate
Ġdivers ity
å®¶ ä¸Ń
Ġfollow s
åı¯ä»¥ åľ¨
çļĦ ä½įç½®
Ġexpl ained
Ġro ll
Ġplay ed
ä¸Ĭ äºĨ
Ġcons cious
ut ive
ies t
Ġr ural
æĮī å¯Ł
ĠR ad
Ġsur pris
st ood
åĽ° éļ¾
å¸¸è§ģ çļĦ
æĪĲ æľ¬
æİ§ èĤ¡
æĸĩ æĺİ
èı ©
Ġsub sequ
äº« å¹´
æĢ ¡
Ġmonitor ing
ĠSe a
Ġcompon ent
V ID
å¨ ¶
Ġl inks
ĠN or
ç¾İ åĨĽ
éļı åį³
Ġinvest ment
åģľ éĿł
åľ¨ äºİ
åĨ ķ
ãĥ Ĩ
c hers
ĠB oth
ãģ Ļ
æ¸¯ åı£
Ġexpl ains
æĪĲ äºĨ
ĠH all
ell a
å¥ ĭ
å·¡ æĬļ
ĠW ild
Ġsm art
Ġapp arent
èĦ ¸
Ġperiod s
Ġcrop s
I F
ar ia
ĠA N
å¡ŀ çº³
åł ¤
Ġfl oor
åľ¨ ä¸Ģèµ·
Ġcur riculum
åĮºä¸º UTC
éĢī åĮº
Ġfru its
ĠP ost
Ġt asks
ï¼ İ
åĲī æŀĹ
Ġre in
æĪĲ å¹´
ĠF orm
çļĦæĹ¶ åĮºä¸ºUTC
Ġt ips
Ġpro port
çº¦ çĳŁ
Ġbi ological
ĠEm p
or al
åĩº éģĵ
INSEE å¸Ĥéķĩ
Ġj u
è¯º å¤«
å· ·
æľī èĳĹ
èĹ »
ç¬¬ ä¹Ŀ
Ġappear ance
ĠSu pp
Ġhapp ened
æĬ¥ å¯¼
INSEEå¸Ĥéķĩ ç¼ĸçłģä¸ºP
çĶµ è½¦
Ġst ock
Ġpric es
Ġinterest s
e y
åİ¿ çļĦ
æļ ĸ
Ġpain t
è´§ çī©
Ġlet ters
ĠE conom
èĢĮ ä¸į
Ġagricult ural
éĤ®æĶ¿ ç¼ĸçłģä¸ºP
Ġ3 1
Ġinstru ment
Ġconcer ned
ĠLou is
æł¼ æĭī
Ġsuff ering
D NA
Ġ >
åħĭ çļĦ
å¸ĥ æľĹ
éĤ µ
Ġbehavi our
è± «
Ġval id
åģľ è½¦
äº¤ æį¢
èİ· å¥ĸ
Ġform at
åĨĴ éĻ©
Ġhundred s
èĩ Ģ
Ġfil es
pp ing
éĢļ ä¿¡
åİ¿ éģĵ
1 10
çļ® èĤ¤
Ġdom estic
æľ µ
ang es
Ġdel iver
èĬĿ åĬł
âĢ §
åĽŀ å½Ĵ
uild ing
Ġs in
ra cy
Ġcontin uous
ĠRuss ian
L E
å¯Į å£«
Ġwall s
ĠK h
å®Į å·¥
èĬĿåĬł åĵ¥
f ree
ĠM o
ĠF lor
Ġinst ruction
çħ§ çīĩ
æĹ¶çļĦ äººåı£æķ°éĩıä¸ºP
æµ· åŁŁ
éļ¾ ä»¥
ä¸»æķĻ ç»ĥ
Ġcon vent
Ġch ief
asc ular
Ġclaim s
p at
å¤§ è¥¿æ´ĭ
c est
Ġn erv
éĿ¢ç§¯ P
irc raft
äºĶ åįģ
ĠD iv
Ġ19 70
åĬ¨ è½¦
ä¿Ŀ éĻ©
Ġfeel ings
ot o
æĹ¶ åĢĻ
çİ° å®ŀ
æħ İ
Ġdep ends
æĭĨ éĻ¤
ç¨ Ģ
ç®¡çĲĨ å±Ģ
Ġc ognitive
Ġ å±±
éĩı çļĦ
Ġclose ly
Ġd ut
Ġhor se
Ġconcent ration
Ġp il
ä¸Ģ åĪĩ
ĠUs ing
Ġw el
æ» ķ
é¢ģ åıĳ
Ġdecre ase
Ġview s
ç±³ åħ°
åģ ¿
äººæ°ĳ å¸ģ
ĠFran c
Ġsy ndrome
æĤ ¦
ĠM ake
è± ¹
ĠIn formation
Ġd ial
Ġgir ls
Ġb and
ĠL ike
éĵ ¸
ĠSt r
åĪĽ å§ĭ
å¤§ å°ĨåĨĽ
ç½Ĺ ä¼¯çī¹
ĠG ood
ä¸į æ»¡
Ġ199 4
195 1
å¾Ģ å¾Ģ
âĢĻ .
Ġch ann
æĭ¿ ä¸ĭ
F C
åī¯ ä½¿
è½ ©
ĠB ro
Ġtra in
çļĦ ç¬¬äºĮ
å²© çŁ³
a ud
æĬ ¼
An other
éĻ¢ å£«
åľ£ ç»ı
Ġw ire
æĪĸ æĹ§å¸Ĥéķĩ
æĮģ æľī
O r
Ġs an
é«ĺçŃī åŃ¦æł¡
Ġtit le
Ġ3 5
Ġobt ained
ĠT V
éĹ ½
Ġne ut
Ġtr ial
æ½ľ èīĩ
Ġf irm
Ġl ik
ä½Ĩ ä»ĸ
ä¿® å¤į
è¶³çĲĥ èģĶèµĽ
è¯Ĺ äºº
Ġrep resents
è¶³çĲĥ éĺŁ
Ġgrow n
Ġsat is
I A
æĶ¶ éĽĨ
äº§çĶŁ çļĦ
éĩį å¤§
Ġappe ared
ĠS um
åı¯ è§ģ
Ġout comes
Ġrequ est
çĽ´ éļ¶
R NA
å® ´
åĬł å¼º
åľº æĻ¯
Ġincreasing ly
Ġlat est
éĢĶ ä¸Ń
Ġoffic ials
l iam
Ġf if
Ġmin imum
ä¼Ĺ å¤ļ
Ġpers ons
Ġext ract
åĬª åĬĽ
èİ· èĥľ
Ġprinc iple
çĲĨ å·¥
Ġcont aining
æĻ® é²ģ
æĪĲç«ĭ çļĦ
ï¼ī ï¼į
èĬ ¦
åı¸ èģĮ
åķĨ åĵģ
ar io
Ġthough ts
å¸Ĥ æ°ĳ
åº¦ çļĦ
Ġshe l
ĠM ag
éĢī åĮºä¸º
Ġpr ison
ic ks
ce ler
å¤ª åĲİ
Ġcons ists
ĠMan agement
å¦ĩ å¥³
n o
. |
ĠN av
å¸ ½
ĠB re
é¹ ħ
Ġplay ing
ĠGo ogle
Ġar ms
ĠS oviet
Ġadd ing
ç±³ çļĦ
å»ºçŃĳ å¸Ī
è° ģ
ç§į æĹı
åŁ¹ è®Ń
åĪĨåĪ« æĺ¯
æīĢå±ŀçļĦ çľģçº§
Ġrapid ly
æīĢå±ŀçļĦçľģçº§ éĢīåĮºä¸º
å¿ Ļ
ãĥ ī
Ġmor al
C an
è¯¥ çľģä»½
Ġst ars
èĮ µ
Ġintrodu ction
Ġrecogn ized
sp ec
æ£Ģ æµĭ
èĬ Ļ
æľº åĪ¶
Ġb ow
æ»¨ æµ·
Ġa qu
åĵ¥ åĵ¥
å¹´ ç¾İåĽ½
Ġinter view
Ġmove ments
æĥ ľ
åı¤ èĢģ
åĲİ è¢«
æĸ° åŁİ
èĩª èº«
ç¼ĸ åħ¥
å±± å¸Ĥ
m as
éĶ Ĳ
æĺ¯ä¸Ģ åº§
Ġreturn ed
Ġneigh bor
çľģçļĦä¸Ģä¸ª å¸Ĥéķĩ
l ong
èĴ ²
Ġast ron
Ġele v
Ġwe ar
Ġcreat ive
åįİ äºº
ç¤ ģ
éħį ç½®
åįļå£« åŃ¦ä½į
Ġvis ible
Ġappro aches
om pl
åľ° åĲį
åĲĪ åĲĮ
åºĦ ä¸º
ĠAn other
Ġdiscuss ed
f all
æ´Ľ å¤«
ãĥ £
Ġle aving
Ġmed ium
al se
ul in
ĠW omen
Ġselect ed
çŁ¥ åºľ
Ġmy th
ĠS en
c ript
Ġs en
rol og
ç«ŀ èµĽ
Ġlook ed
æľ« æľŁ
çļĦ ç¥ŀ
ĠStud ies
ĠCont rol
Ġst em
Ġport ion
Ġf le
ĠK ore
ä¼ł æķĻ
æĸ° äºº
Ġdis app
app ing
Ġcorresp ond
ä¸ľ åĮĹéĥ¨
æĸ¯ æĭīå¤«
Ġval uable
äº¤ çķĮ
ç¢ Ł
åĲ¸ æĶ¶
Ġabs olute
ĠCath olic
Ġcont em
æ²³ çķĶ
ĠG old
as ive
ver ty
Ġres idents
çĶµ è¯Ŀ
cl ing
Ġinte g
ä½ľ åĩº
Ġpo verty
Ġgr and
ĠW ell
åĿ ł
äº§ åľ°
or ter
ä¸Ń æľĢ
re y
èĮ İ
Ġn it
äºº å·¥
è¶³çĲĥ ä¿±ä¹Ĳéĥ¨
æ¢ µ
åľ£ æ¯į
an i
Ġless ons
liam ent
æľ¬ åľŁ
ten ance
Ġsec ure
Ġs ides
or a
Ġm igr
Ġregular ly
æŁ Ħ
Ġpo et
æ£Ģ å¯ŁéĻ¢
Ġcard i
ĠPhil ipp
ate ver
Ġch apter
æ°Ķ è±¡
Ġst ated
Ġag es
èĿ ł
èĢ ķ
Ġinf rastructure
è£ģ åĪ¤
b ing
ĠA lex
æĪĲ éķ¿
è½¨éģĵ äº¤éĢļ
Ġm ac
ĠS uch
éĶĢ éĩı
æĹ ¬
ä»İ æŃ¤
Ġt ried
ä¿® éģĵ
æĶ» æīĵ
Ġtou ch
os h
çľ ł
Ġpar am
çļĦ åĽ½å®¶
Ġab use
be ing
l ers
il ed
æŃ» äºİ
Ġp ray
åĮĹ ä¾§
æŃ¤ åī§
Ġsold iers
Ġal t
èģĮ ä½į
çļĦ è¯Ŀ
es ter
æī ģ
Ġr andom
ä¾Ľ åºĶ
æ¾ Ħ
ĠP ower
çĪ ¸
ç¢ °
P e
Ġp u
Ġp aid
çŁ ®
å®ī æīĵ
Ġcomput ers
Ġp ig
è½¦ éģĵ
åĽĽ ä¸ĸ
ç«ĭ åį³
Ġemploy ees
an o
å¤ļ å°Ķ
ĠHist or
åĲĳ åįĹ
ĠComm it
Ġle af
åĲĪ åĶ±
é¢ģå¥ĸ åħ¸ç¤¼
Ġvill age
çļĦ åĲįåŃĹ
å»ºç«ĭ äºĨ
U s
Ġprot ected
Ġing red
at al
ç»´ å¤ļ
æīĢ å±ŀ
Ġgovern ments
æī ĳ
ob e
ç¢ ±
Ġo d
çļĦ æĥħ
åŃĲ å¥³
åĲĮ çĽŁ
åİŁ æĿ¥
è¿Ĳ ä½ľ
Ġlab el
st ream
p ass
Ġ æŀĹ
Ġjust ice
ĠInst ead
Ġdirect or
ä¸» åĬĽ
Ġk new
æĢ§ æł¼
ç©º ä¸Ń
Ġansw ers
ä¸º åħ¶
è´ ©
ain e
èĪª å¤©
Ġdr iving
Ġm amm
ä¸Ģ åľº
åĨĽ å®ĺ
çİ° åŃĺ
éģĩ åĪ°
åįģä¸Ģ æľĪ
å´ ĸ
æĹ¥ äºİ
Ġasse mb
ä¾ĭ åŃĲ
çī¹åĪ« æĺ¯
éķ¿ è¾¾
äº² èĩª
o oth
åĪĨ è£Ĥ
èµĦ è®¯
çŃ Ĵ
Ġrec overy
åĳĪ çİ°
é¢ Į
Ġph r
èĢĥ è¯ķ
çīĻ é½¿
æĺ¥ ç§ĭ
Ġprevent ion
Ġdisc overy
å¼Ĺ éĽ·
çĸ« æĥħ
Ġpre m
Ġg all
æ±Ł æĪ·
å¹¶ çĶ±
ä¸ī äºº
è¯¥çľģä»½ ä¸ºæ³ķåĽ½
æł¡ åĽŃ
ĠDes ign
G e
ĠPar is
æĪĲ çĨŁ
ĠP ers
Ġne uro
äºĮ æĪĺ
åĲĦ èĩª
ãĢı ï¼Ī
çļĦ éĤ®æĶ¿ç¼ĸçłģä¸ºP
it age
Ġn arrow
ç© ·
ĠO F
å·´ åŁº
Ġdoc uments
æľ¬ äºº
è¾Ĳ å°Ħ
ste in
çļĦ è§Ĵèī²
çŁ ©
it ter
Ġg un
Ġtra d
Ġarg ument
ic ide
ãĢĭ ï¼ī
ä¸» ä½ĵ
Ġch ain
Ġcou ple
æµ Ĩ
Ġcircum st
ä¸¤ å¹´
æ¶ Į
if orm
D on
çłģ å¤´
ä»¥ åįĹ
ĠFran k
Ġp ure
ä¼¼ ä¹İ
al ysis
å¤§ ä¼Ĺ
å¾Ĺ åĪ°äºĨ
Ġst ages
ç«Ļ åİħ
åħ³ éĶ®
æ²¿ æµ·
å¿ Į
Ġinf ected
Ġdeath s
æ¯ı å¤©
Ġ ä¼Ĭ
ĠT HE
å·² çŁ¥
Ġnet works
â Ħ
æĿ¯ åĨłåĨĽ
Ġh unt
åĬłåĪ© ç¦ı
r ors
Ġinflamm ation
Ġm it
åįĹ éĿŀ
ä¸ĭ ä»¤
éĤ£ ä¹Ī
å°Ħ åĩ»
Ġer a
7 00
æĢ» è£ģ
äººåı£ æĻ®æŁ¥
äºĴ çĽ¸
Ġacc omp
ä¿® æĶ¹
ãĢĤ ãĢĤ
Ġp ush
h ist
èħ °
Ġsuff er
åĨĽ åĮº
Ġmin im
åĲ¯ åĬ¨
Ġspirit ual
Ġopin ion
Ġaccept ed
æİ¨ èįĲ
viron ments
æĶ¿æ²» å®¶
O P
ãģ ¤
é¡º åĪ©
Ð¸ Ñ
Ġagricult ure
ĠEnvironment al
Ġleaders hip
Ġd ream
Ġsu itable
Ġacc ompl
Q u
èĬ Ń
èĭı ç»´åŁĥ
Ġinc hes
æľº çļĦ
æĢ§ èĥ½
yp es
åıĮ æīĵ
æ´» è·ĥ
Ġproced ures
Ġ <
Ġrecogn ize
al ian
os ph
ocr atic
ail s
oc y
éĩĮ åħĭ
Ġalg orith
åŁİ çļĦ
U R
æİ ł
ĠD isc
åĴ ¨
å¼Ģ ä¸ļ
Ġdo i
Ġcap able
L A
ĠA tt
ĠN ature
ä»ĸ ä¸º
Ġte a
ĠK now
æĢ» çĽĳ
Ġveh icles
Ġlif est
Ġpict ures
ĠO x
å°¼ è¥¿äºļ
ç©Ĩ æĸ¯
ä¹Ł å°±æĺ¯
åİ ¨
Ġw ave
Ġr ub
åī¯ ä¸»å¸Ń
ç«ĭ æĸ¹
çĭ Ĳ
åıĳçĶŁ åľ¨
t age
ĠC a
Ġimp ossible
plic ated
Ġ20 22
Ġdist rict
è´§ è¿Ĳ
el lect
Ġlist ed
èµĽ ä¸Ń
é¾Ļ æ±Ł
Ġsubst ance
b ran
z il
ĠS ol
ä¹Į æĸ¯
Ġworks he
er als
ĠI N
è¯¥ åħļ
Ġexp ensive
Ġmob ile
é±¼ ç±»
hem ical
æ¡ĥ åĽŃ
å£° ç§°
Ġmill ions
in et
Ġmass ive
æĸ° ç«¹
Ġt un
ä¸¤ èĢħ
å¤Ħ çļĦ
ĠA p
ç½Ĺ å¾·
Ġre form
ä¸Ĭ è¿°
ĠL ibrary
Ġmedic ations
Ġfl ight
èµ· ä¹ī
æĦı æĢĿ
os al
ĠJ oseph
è¯Ń çļĦ
çĵ ·
åĮ» åŃ¦éĻ¢
æ¡¥ æ¢ģ
èĩ³ äºİ
Ġenh ance
åįĹ ä¾§
Ġrec on
èµ· æºĲ
å·¥ä½ľ å®¤
è¡Į ä¸ļ
ĠCan adian
D uring
m ic
Ġinc l
æĳ §
ĠPro v
çłĶ åıĳ
ĠAn n
Ġharm ful
å°ı å§Ĳ
II I
åįģ ä¸ĥ
Ġpl ate
Ġun like
åĤ ¬
Ġentire ly
Ġst ick
è¯ģ å®ŀ
çªģ çł´
åįĩ ä»»
Ġset s
Ġreve aled
ĠL ab
åĩº åıĳ
w o
Ġsens itive
é¹ ı
èµ Į
Ġtalk ing
çĪ± çļĦ
Ġn aturally
ĠM a
æĺ¯ ä¸º
ĠP eter
Ġmanufact uring
igen ous
åħ¶ä¸Ń åĮħæĭ¬
ot he
åĵģ ç§į
èµĦ æľ¬
m ary
u h
Ġnorm ally
èĲ Ŀ
Ġall erg
ut er
Ġa x
in ity
ä¸» å¼ł
éķ¿ å®ĺ
æĥ ¨
ä½ı åľ¨
Ġcor por
Ġwarm ing
Ġrout ine
ä¸» åĬŀ
éĺ³ åİ¿
Ġa part
éĶĻ è¯¯
ä¸ľäº¬ éĥ½
ĠEx p
idd en
èĤ ©
åıĳçİ° çļĦ
ĠL and
éĩĳ å±±
Ġsat ell
å¤§ çĲĨ
ä¸¤ ä½į
çļĦä¸Ģ æĿ¡
Ġb rown
æķĪåĬĽ äºİ
ĠOff ice
ex p
Ġorigin ally
ä¸Ģ èĩ´
ur a
åŁİ åİ¿
Ġrepe ated
å¯ ĩ
ĠVirgin ia
Ġn arr
è¥¿ éĩĮ
ç³»ç»Ł çļĦ
Ġposs ibly
Ġprec ise
N BA
at us
ab its
Ġra ise
ä¹Ĳ åĻ¨
hip s
ĠC ap
Ġunder stood
Ġsecond ary
Ġtra ffic
è¸ ¢
Ġintellig ence
r us
r ate
ä¼ł å¥ĩ
æĪĺ è½¦
å¤´ éĥ¨
ict or
Ġcol ors
Ġjour ney
è¾ Ł
å¤ĸ çļĦ
Ġcar s
ĠS k
ä¾ ¨
çĥ ·
èĮ Ħ
Ġsol ve
Ġachie ved
åı· çļĦ
Ġcall s
çī©ç§į çļĦ
Ġagree ment
ä¸ľ åįĹéĥ¨
ĠSc ot
ĠSc ott
ĠSc ient
å¯¹ æŃ¤
og ue
in ations
ĠB et
ect s
é© ³
ad y
æĪĺ èĥľ
Ġint ake
æľīä¸Ģ äºĽ
Ġfig ures
ct ic
Ġan cest
ä¸¤ åĲį
éĻ ¨
ins on
z en
ä¸Ń å¼ı
ĠD an
Ġposs ess
193 6
c her
e er
è¢« è§Ĩä¸º
Ġex change
åıĳ æĮ¥
ç¾İ ä¸½
å¥³ åŃ©
Ġreg ional
ä¿Ħ åĽ½
Ġ199 3
or gan
Ġ199 2
1 30
éª ı
äºĶ ä¸ª
è¿½ æº¯
æīĢåľ¨ åľ°
Ġform al
èĽ Ļ
Ġg al
çļĦ æīĭ
Ġsurv ival
Ġ éķ¿
Ġlandsc ape
? âĢĿ
Ġcl oud
åįĩ æł¼
å½ĵåľ° çļĦ
çĮª ç¬¼
st ruct
rit ing
Ġtrans mission
I nt
Ġc atch
å° ĺ
å¨ ħ
ĠComm on
Ġdi verse
åķĨ äºº
iot ics
Ġprodu cing
è¿Ļæł· çļĦ
i ology
çī¹ çĤ¹
åĬłåħ¥ äºĨ
ãĤ °
Ġ9 78
çĽ¸åħ³ çļĦ
çĶµ åĬ¨
åĭ Ł
æ¸¸æĪı çļĦ
Ġm ur
ab ric
ag ers
pr ise
d den
ĠL abor
st on
Ġn urs
Ġexpress ed
çĮªç¬¼ èįī
f ish
ic ago
Ġtell s
t ra
ĠL im
b ox
ct ive
æĹ¥ æŃ£å¼ı
op l
é¢ ĸ
éħ ·
Ġgener ate
Ġaccount s
Ġmount ain
C ont
ang ed
Ġwild life
åľ° ä¸Ĭ
ãĤ º
oles ter
æĪĺ åĽ½
åı° é£İ
ä¸´ åºĬ
it an
æĺ¯ åĽłä¸º
ĠT ime
åį §
ant a
Ġbusiness es
v a
Ġwor se
åĮħ åĽ´
Ġadv oc
ç¬¬ä¸Ģ ä½į
g ent
Ġto ler
æĬĳ åĪ¶
åĵ Ģ
Ġcl osed
æĺ¯ åı°æ¹¾
æº ĥ
Ġfund ing
ĠM ad
åĩº å¸Ń
Î ¿
çĪ ¬
Ġv s
è§Ĩ é¢ĳ
çĮ ´
å¤§ æŃ£
æ£ ī
å®¤ åĨħ
ĠC are
ä¸ĭ ä¸Ģ
Ġsupp lement
Ġch art
æĦŁ è§ī
cul es
æ³ķ å®ĺ
ãĤ µ
Ġlat ter
å² Ĳ
f low
Ġd ental
Ġed ge
åģ¶ åĥı
Ġguid elines
re ed
è¿Ļ é¦ĸ
å°ģ ä¸º
Ġdescrib es
rop ical
Ġfac ilit
Ġpret ty
å¥³ æ¼Ķåĳĺ
æĶ¹ ç§°
èº« ä¸Ĭ
çĽĳ å¯Ł
Ġa w
Ġst ored
2 50
ä¸Ĭ åįĩ
å« Į
éĿł è¿ĳ
çļĦ éĥ¨åĪĨ
Ġm m
åħħ æ»¡
Ġf iber
æĤ ł
ç²¾ çģµ
æĴŀ åĩ»
Ġadop ted
éĻ· åħ¥
æ³ķ æ¡Ī
ff ee
ans ion
ĠAd dition
Ġ19 60
Ġbud get
äº ©
æľĢé«ĺ çļĦ
. âĢĻ
Ġre ject
ä¸Ģ äºº
åĲį è¿Ľå£«
å¼ł ä¸ĵè¾ĳ
Ġind eed
è¸ ı
O D
åī Ĭ
ĠL ong
éĹ» åĲį
æ³¢ å£«é¡¿
çī¹ å®ļ
æĢ§ åĪ«
å¿ĥ èĦı
å¹´ èİ·
Ġact s
Ð¾Ð ²
è¶ ĭ
Ġam b
Ġab und
Ġauthor ities
æ³ķåħ° åħĭ
Ġcomprehens ive
èĲ¥ ä¸ļ
æ´¾ åĩº
b ody
Ġmar ine
Ġder ived
r id
A A
st ate
æľį è£ħ
ar n
Ġd edic
St ud
éĢ »
æİ¢ æµĭ
Ġer ror
ç½Ĺé©¬ å°¼äºļ
Ġsch olars
çĲĨ æŁ¥
å²Ľ å¼ı
Ġrem aining
èĽ Ľ
if ies
Ġwind ow
ill a
äº ¥
Ġ3 00
Ġworld wide
Ġeng age
è¾ħ åĬ©
ĠR ights
å¸ĥ éĽ·
u nder
w ing
Ġen vironments
Ġste el
Ġa f
äºĮ çº§
te en
ĠO h
å¥¹ ä»¬
æĽ¾ äºİ
az ine
Ġa ircraft
Ġb ones
le ts
æľ¬ çº¿
Ġdec line
æĺŁ ç³»
çļĦ éĹ®é¢ĺ
é«ĺ è¾¾
çļĦ éŁ³ä¹Ĳ
æµİ åįĹ
åĮĹ èµ·
èĢĮ éĿŀ
act s
Ġs ick
om ach
éĤ ±
C P
å°Ķ é¡¿
çļĦ æľĢ
N ot
W ill
f aces
éĻ ª
ä½ĵ éĩį
æķĳ æı´
å°¤åħ¶ æĺ¯
b orn
D VD
åľº åľ°
è¿ĳ å¹´
ĠCommit tee
ð «
æĹ Ń
æĮĩ å®ļ
æ¶Ī è´¹
Americ an
Ġf rag
åĲĳ åĮĹ
Ġsu dden
ĠR ob
ãĥ Ĭ
çķ ħ
æ® ·
å¼ı çļĦ
ä¼ļ è¯ķ
Ġhealth care
Ġsu c
Ġ )
Ġpart ies
å¥½ åıĭ
æİª æĸ½
P r
Ġl ibrary
åĺī å®¾
n ormal
s is
Ġd ust
ot ed
é«ĺ éĽĦ
é©¬ ä¸ģ
ĠVal ley
Ġswe et
he im
ĠRe view
äººæ°ĳ æ£Ģå¯ŁéĻ¢
éķ¿ å®ī
çĻ¾ ä¸ĩ
æİ¨ åĬ¨
æıĲ çĲ´
æ¯ı æĹ¥
Ġhous es
E G
i h
æĬµ æĬĹ
ir us
Ġun known
Ġaff ord
Ġdist ingu
æ³ķåħ° è¥¿
æķ ²
çĶŁ æĪĲ
è¡Į çļĦ
Ġad equ
åŃ¦ çļĦ
Ġopen ed
olester ol
Ġse lection
Ġin ject
å¼ Ħ
é©±éĢĲ èĪ°
Ġcomp osition
æģ ¨
Ġrat io
é¦ĸ ä½į
ãĢĭ ãĢĬ
éķ ĳ
Ġrem ote
um s
Ġdo or
è·¯æĺĵ æĸ¯
Ġcand id
E F
ä»Ĭ å¤©
å¾Ī å¤§
Ġ5 00
æĸ° å»º
æł¼ å°Ķ
æµģ æµª
åı¬ å¼Ģ
ç¼© åĨĻ
k es
ĠS ing
ĠI II
ä»ĸ åĴĮ
Ġun less
åıĺ ä¸º
Ġt al
Ġth or
æµ· ä¸Ĭ
çłĶç©¶ éĻ¢
Ġsim pl
ĠProfess or
ĠP an
ĠE xt
um a
Ġposs ibility
Ġ å®ī
b our
Ġy ield
åĢĻéĢī äºº
æ±Ł åįĹ
Ġstart s
å¼Ģ å±ķ
Ġcol our
æ© Ħ
c m
ĠI d
çľ¼ çĿ
Ġtw ice
è¿ŀç»Ń åī§
åĬŁ çİĩ
ind er
æĻļ æľŁ
å¥¥æĸ¯ åį¡
æķĪ åºĶ
åį¡ ç½Ĺ
æĥ³ è¦ģ
ç»¼ èīº
ĠRep ort
r d
Ġdown load
Ġprep are
Ġw ants
ol ve
Ġcreat es
å¥¥æŀĹåĮ¹åħĭ è¿ĲåĬ¨ä¼ļ
å¸Ĥ æĶ¿
èĪ Į
M e
Ġexperim ents
ĠB ank
æ°ĳ ä¼Ĺ
ĠCol umb
Ġm oon
èĲ½ æĪĲ
Ġimpro ving
O ther
è¥¿ åįĹéĥ¨
Ã ¨
æł¼ éĩĮ
çĶ° æĿĳ
Ġdatab ase
ed u
Ġf ill
åħį è´¹
Ġopt im
Ġinj uries
Ġb an
le ments
ç» µ
ĠB ab
ĠV er
å·´åŁº æĸ¯åĿ¦
ym ph
æ³¢ å°Ķ
ç»ĺ çĶ»
ä¸Ń ä¹¦
th rop
çľ ī
éĢ ®
Ġpl ays
Ġcult iv
æ¹ĸåįĹ çľģ
Ġw id
çļĦ æĢ»
å·¥ èīº
äº¤ åıī
æ Ĩ
oc racy
æ®ĸæ°ĳ åľ°
se y
åħĭ æŀĹ
åĸ Ļ
âĢĻ ,
Ġequ ival
it tle
åĬŀäºĭ å¤Ħ
æł¼ éĽ·
Ġp ull
Ġen able
åħ· ä½ĵ
Ġsw itch
èĦ± ç¦»
å±± åı£
ib ilities
è¯¥ åħ¬åı¸
ç¼ĸ ç»Ħ
å¹¶ è¢«
çŁ Ľ
Ġd ensity
oc c
ç¦ı å¾·
Ġmed ication
Ġsign als
Ġbro ken
æī© å±ķ
ĠC am
æ¯ Ĺ
ag ues
ä½ĵ éķ¿
æ²³ è°·
Ġaud ience
ĠN atural
Ġrest rict
Ġ ;
ĠAn y
ç§ĳ å°Ķ
èĭ± éĩĮ
åĽ½å®¶ çļĦ
é¢ Ĥ
äº¤ åĵį
ĠF e
Ġ199 1
Ġforest s
Ġfl av
Ġconsist ent
ĠC amp
èµ« å°Ķ
ct or
Ġsk ill
åĨħ éĻĨ
193 3
Ġmechan ism
ä»ĸ ä¹Ł
å·¨ å¤§
ĠI ll
æĸĩ åºĵ
193 5
æīĵ çł´
æĢĢ çĸĳ
Ġtru ly
Ġim per
de red
rodu ction
ä¸ĭ äºĨ
g ans
çļĦ åİŁåĽł
æĪĲ åĪĨ
å¾Ĺ åĪĨ
Ġspe aking
B M
Ġt iny
Ġind ex
Ġsurv ive
t ic
or row
Ġp apers
æĥ §
æľ¬ ä¹¦
ä»¥ ä¸ĬçļĦ
ĠE nd
ĠAb out
è¿ŀ è½½
çİĭ ä½į
åİŁ ä¸º
ĠGl obal
Ġhapp y
Ġf asc
çİ° ä¸º
çŁŃ æļĤ
Ġmult i
ä½¿ åħ¶
Ġun iverse
ä¾Ŀ æį®
å¸Ĥ ä¸Ńå¿ĥ
æ© ¡
åº ļ
éĺ² æŃ¢
Ġsequ ence
Ġd ent
åĳĺ å¤ĸ
ç© Ĺ
Ġshe ll
ä¸» åĶ±
åİŁ ä½ľ
ĠPart y
ĠEx per
Ġbenef icial
C ol
æ·± åº¦
è¯Ħ ä¼°
T A
Ġread ers
Ġto w
le vel
åľ° äº§
ĠTh ose
èĻ ı
us al
æ©Ħ æ¦Ħ
çģŃ ç»Ŀ
é© ¹
ab ul
Ġbe ar
ĠH ome
ä¸ľ æµ·
çĶµå½± èĬĤ
Ġtrans ition
å®īå¾½ çľģ
åľ° åŁŁ
Ġelect ron
æĶ¾ åľ¨
çĹħ ä¾ĭ
ä¸º æŃ¤
èĤ ¾
ĠJ e
çļĦä¸Ģ äºĽ
ĠOn ly
Ġdoct ors
æĽ´ æĸ°
èļ Ģ
æĳ§ æ¯ģ
ç§° åĳ¼
ed y
Ġg ather
åŁºéĩĳ ä¼ļ
ĠFlor ida
190 1
p et
ç» ĳ
st one
ash ion
åĩ °
Ġfix ed
æµģ åŁŁ
æ¸¸ å®¢
éķ¿ æ²Ļ
æĪĺ åľº
æŃ£ éĿ¢
ĠW he
ä¾ £
Ġext ended
å¡ŀå°Ķ ç»´äºļ
ç»´å¤ļ åĪ©äºļ
éĺ¿ éĩĮ
èĻ ¾
lud ing
å¾ģ æľį
Ġrespons es
åĪĨå¸ĥ åľ¨
å¼Ģ å¹ķ
çĽ´ æĴŃ
å¼Ĺ æĭī
n ce
ç¿° æŀĹ
Ġobt ain
æĴ° åĨĻ
ĠCl in
èĥ¡ åĲĮ
æľĪ çĲĥ
è¥¿ èĹı
Ġch rom
ç½Ĺé©¬ å¸ĿåĽ½
ĠM ill
ä¹ĭ ä¸º
ĠG ard
Ġun s
å¤§ è¿ŀ
è¯Ħ ä¸º
P C
éĥ½ åľ¨
Ġf ell
Ġstrugg le
a it
ter ies
å¹³ è¡¡
ven ue
åı² å¯Ĩ
Ġapp rec
åıª è¦ģ
åĴ ı
æ°Ķ ä½ĵ
èģĶ ç»ľ
å±Ĭ åħ¨åĽ½
Ġag encies
Ġsee ing
Ġmain tenance
åĬł å°Ķ
æīĢ è°ĵ
Ġcomp ounds
ĠTh rough
åĽŀ åĲĪ
å¥ĸ ç«ł
Ġcut ting
ar ant
å» ĸ
Ġloc ations
F igure
åĲ Ĭ
ĠT or
åĲĦ ä¸ª
æľĪ çļĦ
Ġstudy ing
èµŀ åĬ©
æĶ¹ å»º
çĥ ¯
æıĲä¾Ľ äºĨ
Ġ åĮĹ
Ġelect ronic
r ine
æĸ¹ ä¾¿
190 9
ut ch
åįķ æīĵ
Ġrepresent ed
Ġfert il
us ing
èĭ± è¶ħ
Ġpr on
æĮ ¡
å½ĵ å±Ģ
P er
ic ians
æĬ Ħ
çº§ åĪ«
äºĨ ä»ĸçļĦ
ç»ĩ çĶ°
Ġsuccess fully
Ġd aughter
Ġle ct
Ġslow ly
el ess
Ġf ract
è¿Ĳ æ²³
Ġprinc ip
ä¸Ĭ å¸Ŀ
ĠW ood
ç§į ç±»
Ġac celer
193 4
Ġcho ices
éĢļ å¾Ģ
Ġour selves
å´ĩ ç¥¯
åħ¬ é¡·
åĭ ĺ
ä¸ĭ åįĬ
çº¤ ç»´
Ġout l
åħį çĸ«
Ġbreat hing
åŃ£åĲİ èµĽ
è¿ģ èĩ³
Ġvessel s
h av
e per
es ity
Ġm ice
ific ations
æİ¨ å¹¿
Ġfram ework
Ġprofession als
ãĥ ł
åħ Ķ
å¤§ éĢī
Ġdes ire
èı² åĪ©
r ates
Ġin hib
å¼º è°ĥ
st ract
å°¼ åı¤
Ġmar riage
Ġw aves
is k
Ġl ots
ä¸ļ ä½Ļ
æĦ ¤
Ġadminist ration
ĠRich ard
æľĪ åľ¨
ĠEx pl
r ons
ä¸¤ åĽ½
h and
å±Ĥ çļĦ
ä¼ļ æľī
æĸ° è®¾
ãĥ Ĺ
æŁ¥ å°Ķæĸ¯
ä¸Ĭ åįĪ
ĠRo ad
Ġsh op
æ´Ľ æĸ¯
Ġfail ed
Ġchild hood
å»ºçŃĳ éĿ¢ç§¯
Ġgreat ly
b ut
n et
çª Ħ
åħ¶ä¸Ń ä¸Ģä¸ª
Ġc m
ç« £
è½¦ åİ¢
éĩį è¿Ķ
19 18
Ġarchitect ure
å²Ľ ä¸Ĭ
æļ ¨
Ġopen ing
â Ī
åĮº åĨħ
L et
Ġun p
çĶ· ä¸»è§Ĵ
å¹ķ åºľ
çĩĥ æĸĻ
éŀ ĭ
æŀ¢ çº½
Ġdep os
ris on
Ġcircumst ances
ĠF ort
ian a
ink ing
Ġv oc
Ġcour ses
ãĥ Ł
Ġimmedi ate
ĠG et
Ġdesc ription
ãĥ ĩ
çĥ Ĥ
Ġatt end
é»ĳ é¾Ļæ±Ł
Ġw ww
ĠV is
ce ived
ir t
Ġne ck
æ´Ľ éĺ³
Ġ åĳ¨
Ġde fe
m l
èģĶèµĽ åĨłåĨĽ
åĪ¶ä½ľ çļĦ
Ġwrit er
ä½ ĳ
Ġint ellect
ig ation
æ¼ ı
éħ ¿
å·´ æĭī
å¤§ åħ¬
æĶ¹ åĲį
è¶³ å¤Ł
Ġeth nic
å®īä¸ľ å°¼
ĠR oyal
æī© å»º
ĠMich ael
ä½ľæĽ² å®¶
ä¿®éģĵ éĻ¢
ors es
Ġac ids
Ġbo ost
Ġf illed
ĠY et
Ġindic ates
Ġ æĹ¥
åĶ ¤
Ġimplement ation
Ġs ell
Ġlabor atory
Ġsk y
Ġf ly
æĪ Ĭ
èį ¡
æĶ¯ æµģ
ir ation
åľº æīĢ
äº¤æµģ éģĵ
Ġmix ed
åıį æĺł
ä»ĸä»¬ åľ¨
Ġorgan isms
it ative
Ġhigh light
Ġw ish
æĸ¯ æ´Ľ
Ġcrit ic
Ġsent ence
f rom
ic an
Ġdec ide
æıı ç»ĺ
å¹³ æĪĲ
éĢī ç§Ģ
Ġopp osite
Ġass istance
hes is
é¦ĸ çĽ¸
Ġcompar ison
ãĥ ģ
è·¯ ç«Ļ
æĸ¯ åį¡
èĢĮ ä¸įæĺ¯
om er
ĠN ations
åĨł çĬ¶
æ²³åĮĹ çľģ
éĻĨ ç»Ń
çļĦ æ¯ĶèµĽ
å¹´ å¤ıåŃ£
èº« åĪĨ
Ġconsum ers
åĲİ åį«
ĠH ill
ĠRev olution
Ð ¼
å¸ Ĳ
Ġperman ent
Ġs od
ĠC ult
æ² ª
Ġsp orts
Ġmach ines
Ġ çĻ½
ĠD et
Ġphilos ophy
iction ary
Ġst omach
ph one
å²Ľ çļĦ
ç´§ æĢ¥
æŃ¤ æ¬¡
Ġprodu ces
Ġz one
Ġbat tery
Ġhyp othes
æ³ķ è¯Ń
åīį éĶĭ
Ġdisc ipl
ĠH aw
H D
ant ly
Ġfew er
å¹² çº¿
Ġfeed ing
rib ed
éĨ ī
in ction
çĲĨ æĥ³
è¾¹ å¢ĥ
Ġstand ing
Ġmole cules
ĠF ederal
ç¥ŀ ç§ĺ
ia h
193 2
ĠEmp ire
É Ľ
æį ī
ä¿Ŀ å®Ī
i very
å¾Ī å°ĳ
åıĻ è¿°
Ġult imately
U T
Ġmagn etic
ĠAustral ian
Ġconvent ional
C o
Ġh abits
Ġdec ade
åĨľ æ°ĳ
Ġsupport ing
Ġ4 5
Ġdifficult y
ĠR ome
Ġcirc uit
çĽ¸å½ĵ äºİ
ir ds
Ġro of
Ġdoub t
Ġclos er
ĠAd d
Ġinteract ion
Ġinter vention
Ġdestroy ed
R ead
éĥ½ è¢«
æĹł è®º
Ġlifest yle
åĪĽ æĸ°
ä¼ļ ç¤¾
Ġfound ation
Ġorgan ized
çļĦ æĪĲç»©
Ġman aged
æŃ¥ æŀª
itud es
and on
å½° åĮĸ
og a
Ġthous and
æŁ´æ²¹ æľºè½¦
Ġs ight
è¾¹ ä¸º
Ġwalk ing
ç©Ĩæĸ¯ æŀĹ
æĦı è§ģ
ĠCarol ina
Ġsh ift
æŃĮ è¯į
æ±¡ æŁĵ
S ince
ploy ment
ç«ŀ æĬĢ
Ġrepl aced
Ġinsect s
èµ· çĤ¹
è½¬ æį¢
Ġm useum
æĹ¶ä»£ çļĦ
å½ĵ ä»£
rib e
åĺī ä¹ī
ĠSp ain
Ġf er
ĠS il
ag on
Ġbig gest
Ġtro ops
A V
c omm
ãĤ ¦
Ġreg ulations
Ġgra v
Ġmar ried
ä¸Ń å°Ĩ
èĭı å·ŀ
Ġarr ived
in ate
Ġa er
åĩº åľŁ
å¤´ è¡Ķ
Ġdedic ated
åĲĮ åĲį
Ġla un
Ġjo in
ĠBra zil
ic on
æł¼ æŀĹ
çº³ ç²¹
æĪ· éĥ¨
Ġcult ures
Ġgener ated
åį ¸
åı¸ æ³ķ
çª Ŀ
ĠE ss
Ġhand le
éĽķ å¡ĳ
å¹» æĥ³
Ġn ine
çĽ Ī
ĠP ub
çĤ Ń
éĢĤ åºĶ
br idge
æĽ¹ æĵį
S ee
w ord
Ġprot ocol
éĵĥ æľ¨
id ae
Ġch osen
ãģ ł
Ġ æĿ¨
ä¸Ģ è¯į
Ġlim its
Ġpar alle
ĠSou thern
å¹´ ä¸İ
åľ¨ æĸ°
æıĲ åıĬ
æĿĥ åĪ©
Ġread er
æ»¡ æ´²
ĠM er
çĲĨ è§£
ãĤ Ħ
æİ¥ æĽ¿
Ġbehavi ors
u gh
Ġm eth
éħ ®
æ° Ł
ä»¥ æŃ¤
Ġ19 50
Ġmechan isms
Ġfoss il
Ġeas tern
Ġnecess arily
E E
a o
çļĦ éķ¿
æĸ¯ æīĺ
Ġart ificial
C omp
è®° å¿Ĩ
åĺī åºĨ
çļĦ æ¯ĶèµĽä¸Ń
é» Ľ
éģĹ ä¼ł
çļĦ åŁºç¡Ģ
èĭ į
çľ¼çĿ Ľ
çļĦ æĸ¹æ³ķ
åķĨ åĬ¡
ĠAcad emy
éĿĴ å°ĳå¹´
az ing
F irst
è¯¥ æł¡
åįķ çĭ¬
ĠSu per
å¤§ è§Ħæ¨¡
ĠCon stitution
Ġcare fully
æĬ Ľ
ç¥ Ī
ï¼Ī ãĢĬ
åĪĨ æł¡
us iness
ä¹ĭ å¤Ħ
äºĨ ä»ĸ
ĠCh icago
æĶ¯ ä»ĺ
t hen
im m
Ġeval uation
ä¼ļ è¢«
æŃ£ å¾·
Ġmark ed
Ġ ç½Ĺ
Ġg ram
åĳ¼ åĲ¸
åı¦ æľī
Ġz ero
ä¸Ģ çĻ¾
ãĥ ¥
åº§ åłĤ
as ters
å¤« å¦ĩ
ĠDise ase
åĴ Ĵ
æ¸ħ æ°´
ç¦ıå»º çľģ
åĪ¶ å®ļ
åİŁ åħĪ
å¸Ĥ æĶ¿åºľ
Ġlist en
åı² èĴĤ
è£ ´
æ°¸ ä¹ħ
äºĨä¸Ģ äºĽ
åĩ¤ åĩ°
çļĦ å½¢å¼ı
æľī è®¸å¤ļ
ter ing
ä½ĵ åŀĭ
st ruction
ç¥ŀ ç¤¾
ĠO cean
y th
ir atory
è¿Ľ æŃ¥
å¤© åĲİ
çļĦ ç¾İåĽ½
åĬł éĢŁ
æİĴ åĪĹ
åĨĻ ä½ľ
çİĩ åĨĽ
ut s
Ġrou te
è§ī å¾Ĺ
Ġconc rete
E l
ĠG al
ov en
æ¼ Ĥ
Ġb ond
è¯¥ åĽ½
af ety
è¿ĩ çļĦ
èĵ Ħ
äºº å¤§
ĠW orks
he ast
ĠN orthern
Ġac know
et ime
éĺ² å®Ī
è´§ å¸ģ
pr int
æĪĺæĸĹ æľº
Ġparticip ate
æľĢ ä½İ
Ġyoung er
äºº ç§°
ell ed
Ġnew sp
è§Ĥ éŁ³
Ġent ry
Ġ198 7
ç±³ äºļ
Ġgl uc
Ġve ter
lev ision
ĠL ib
ag ram
çĽ´ åįĩ
L a
é¦Ļæ¸¯ éħįéŁ³
æĺ Ķ
è¾ Ī
æł¼ åĭĴ
éª Ĺ
èĵ ¬
æ²Ī éĺ³
Î ½
æĺ ı
Ġcamer a
it ivity
ir ty
O C
èĪª çıŃ
or ous
ä¸Ģ æľŁ
Ġinstit ution
1 12
ĠT imes
ä»£ æĽ¿
æ¸¯ åħĥ
ĠCan cer
z ed
ĠIt aly
Ġatt ached
è®¨ ä¼Ĳ
çļĦ æĶ¯æĮģ
Ġover l
æĮĩæĮ¥ å®ĺ
æĳ Ķ
éĿĴ æĺ¥
å¾· åĨĽ
Ġn an
å¢ŀ å¼º
Ġemot ions
Ġcommunic ate
Ġrem ark
é¢ ħ
æİ¢ ç´¢
Ġsm oking
op ic
æİ ©
è½¦ç«Ļ ç»ĵæŀĦ
Ġend s
Ġ198 9
Ġd in
fe rent
Ġreg ul
Ġtw enty
ä¹Ŀ å·ŀ
å®Ī æĬ¤
C omm
Ġ1 50
åĩºçİ° äºĨ
çļĦ æĥħåĨµ
Ġf abric
ä¹¦ ä¸Ń
Ġch olesterol
rim ination
O V
å¸Ń ä½į
åĽ½ å°ı
å¹´ ä»ĸ
Ġw itness
å¸¸ å¸¸
Ġunder lying
iz er
Ġfl o
Ġconstit ution
ä½ ¥
åĵ ª
ear chers
Ġ æľ¬
å¾· å·Ŀ
å¸ĥ éĩĮ
Ġt all
or ph
Ã ¢
ge bra
Ġcont ained
Ġf r
ä¸ª ä½ĵ
ĠCol or
Ġpercent age
è¿ĳ ä»£
äºĭåĬ¡ æīĢ
f ortunately
Ġ ä¸Ĭ
åŀ £
è§Ĩ è§ī
ĠSt ar
éĶ ħ
ĠSc iences
* *
Ġk it
Ġdeb ate
Ġth y
ä»» æľŁ
Ġwhere as
ĠAd minist
Ġadminist r
å§Ĭ å¦¹
ãĢ ĳ
åĨħ èĴĻåı¤
ipp ing
Ġreact ions
ld er
Ġacc um
é¢ĳ çİĩ
è¯¦ ç»Ĩ
ä¹ ŀ
Ġp up
Ġpers ist
æĳĩ æ»ļ
Ġrel ax
èĿ Ļ
ãĢ Ĳ
Ġm os
Ġobserv ations
Ġun able
è§Ĥ åħī
å¡Ķ å°Ķ
çļĦ æ¯įäº²
åį³ å°Ĩ
èĿĻ èĿł
å¤§ æ°Ķ
od ing
åıĳè¡Į çļĦ
ĠI P
ĠB C
ĠN ative
è®¾ äºİ
ç»Ĩ èıĮ
èµ· åĪĿ
ab eth
ç«ĭ éĻ¶
um es
Ġpre v
Ġvol tage
åľ¨ ä¸Ń
å¤©æ´¥ å¸Ĥ
èĪ¹ åıª
å®ĮæĪĲ äºĨ
èĽĭçĻ½ è´¨
Ġcompet ition
ĠP ract
Ġhe ro
åħ¶ä¸Ń ä¸Ģ
Ġg one
çĽ¸ è¿ŀ
ä½ı æ°ĳ
Ġvari able
å¯¹ åħ¶
is ters
æ¶ Ľ
ï¼īãĢģ ãĢĬ
ä¸½ èİİ
å·¡ æ´ĭ
Ġsh aring
Ġtiss ues
ĠFore st
ri ers
Ġno ise
å·¨ å¤§çļĦ
Ġmem bran
ĠD ar
çłĶç©¶ ä¸Ńå¿ĥ
çļĦ åľ£
Ê ģ
Ġv ote
æµ· åįĹ
Ġocc asion
Ġf alse
åľ¨ èĭ±åĽ½
ãĥ ĭ
äº¤ ç»Ļ
åĨ »
é¸ ¦
Ġdep artment
ĠP et
é¢Ĩ éĺŁ
Ġne ur
ĠKe ep
æĶ Ģ
cy cl
Ġst able
å¤ª åİŁ
ace book
Ġra w
c ons
Ġsupport s
Ġvirt ual
æĪ Į
æµģ ä¼ł
çĸ ¯
åıĽ ä¹±
æĸ¯ èĴĤ
è¶ħ è¶Ĭ
åī¯ ä¸»ä»»
Ġl ies
æ¡ Į
èĩª ç§°
ç¼ Ŀ
éĩĳ åĪļ
åıĻ åĪ©äºļ
Ġco ffee
äº¤æĺĵ æīĢ
å¥ ¸
Ġfunction al
Ġpurch ase
ç»ı çĶ±
Ġres erv
åĲĮæĹ¶ ä¹Ł
èª ĵ
Ġprogram ming
Ġjo ined
èı© èĲ¨
æľī ä¸ī
æ± ¶
ĠL anguage
Ġtr ials
N G
ãĥ ĵ
åįģ ä¸īå¹´
Ġinstru ments
Ġpre val
çļĦ å¤©
Ġst ands
éĽħ åħ¸
Ġro w
ĠBo ard
Ġb order
å®ļ æľŁ
Ġresult ed
es is
ä»ĸ æĽ¾
ç«ĭéĻ¶ å®Ľ
19 19
éķĩ åĮº
é»ĳ æļĹ
h op
h ow
Ġbelief s
ĠStud y
re land
Ġobject ive
Ġlay ers
Ġcalc ium
il a
Ġexpl o
c alled
Ġt aste
ak ed
Ġcont amin
æİ¥ èĳĹ
æļĤ æĹ¶
Ġc art
åº ¸
ç»ıæµİ åŃ¦
Ġimprove ment
e g
et her
ãģ ĺ
Ġsuc ceed
çļĦ ä¸Ĭ
çªģ åĩº
O M
åĩº èµĽ
ĠB rown
åīį åĲİ
äºĶ ä¸ĸ
æīĵ è´¥
çģ« è½¦
Ġprom pt
åĨłçĬ¶ çĹħæ¯Ĵ
A G
Ġfound ed
ĠKing dom
b a
ç«£ å·¥
Ġm ild
ç¥ ¸
èĬ ½
p es
åĽ½ åħ¬
åĩĨ åĨ³èµĽ
å¸ĥæĶ¿ ä½¿
éĢļ è®¯
è®© ä»ĸ
y les
éĺ ľ
æĮĩ æķ°
Ġcapt ure
Ġvulner able
Ġn est
åĽ¾ æ¡Ī
æ¤ ħ
æĻ®é²ģ å£«
Ġacc ident
åħĪ è¿Ľ
Ġris ing
Ġemploy ment
Ġb read
éĢł åŀĭ
æĤ Ł
Ġc row
å¦Ĥ ä»Ĭ
Ġleg s
Ġtransport ation
Ġag ency
Ġsub s
Ġturn s
Ġfight ing
Ġp ool
å¤§ å¹ħ
æĭ ¨
Ġh us
ä½Ĩ åĽł
g s
ĠD ig
éķ¿ å¤§
åĲİ äºİ
æĿ° åĩº
å¤ĸ åĽ´
åŀĴ æīĵ
èŃ¦ æĸ¹
ĠA I
ä»» å¤©åłĤ
æİ¥ æĶ¶
Ġins urance
Ġser ver
all s
æĦı åĳ³
ĠAd v
æī ĩ
è´ ·
ä¿Ŀ éļľ
èĳĹ æľī
åºĦä¸º éĤ»
çĶ² ç»Ħ
p an
ro vers
æĶ¯ çº¿
å§Ķ æīĺ
åºĨ ç¥Ŀ
æľĢæĹ© çļĦ
Ġdemonstr ate
Ġb ot
åĩº èĩª
Ġsupp lies
åıĭ è°Ĭ
éĻĦ åĬł
æ²¿ çº¿
æī© å¼ł
å¤§éĩı çļĦ
Ðº Ð°
äºļ ç¾İ
æĴ¤ éĢĢ
åĲĳ ä¸ľ
Ġtra ined
M et
Ġknow s
åįı è°ĥ
æĪ¿ éĹ´
éĺħ è¯»
Ġla unch
åİ Į
å·² äºİ
è¾¹ çļĦ
wh ile
éĺŁ åĳĺ
Ġfe ver
O W
çº¦çĳŁ å¤«
Ġr u
Ġcl ust
è®¾è®¡ çļĦ
æĹ¥ åĲİ
æĹ¥ å¼Ģå§ĭ
é¥ ²
Ġstr ing
ä½Ļ äºº
éĺŁ åıĭ
Ġwill ing
Ġdi oxide
æī £
ĠE r
æĵ ¢
ì Ŀ
ç«Ļ çļĦ
Ġrel ation
çłĶç©¶ çĶŁ
Ġcolle agues
æĶ¹ç¼ĸ èĩª
Ġdraw ing
Ġm ales
ä¹ĭ å¹´åı·
oc ation
æĺİ ç¡®
ĠFor ce
å¤ļ äºº
è¶ ģ
ä¸ľ äºļ
Ġphot ograph
æĸ ¥
éĢī åĩº
çĽ¸åĲĮ çļĦ
Ġst roke
è¾ŀ èģĮ
Ġ åĲ´
åĪĻ åľ¨
r ite
åķĨ åºĹ
Ġconf idence
iot ic
æĸ¯ åł¡
æĽ´ å¤ļçļĦ
Ġreg ist
æĢ» ä¼ļ
L L
åº µ
è¡Į äºº
æ¬¡ åŃĲ
Ġsc ene
Ġor ient
Ġpart ner
é¢Ĩ åħĪ
åŁİ å¢Ļ
so ft
Ġiss ued
Ġconn ections
æħķ å°¼
he red
Ġv an
Ġgener ations
Ġin ner
æĹħå®¢ éĵģéģĵ
R S
ent ed
è¶Ĭ æĿ¥
Ġfeed back
Ġweap ons
å¤§ å®¶
è´ ¬
é¢ ł
æĽ¿ ä»£
ĠMus ic
èĩª æĪĳ
èĭ± éķĳ
æħĪ åĸĦ
å·¡æ´ĭ èĪ°
ãĢģ ãĢĬ
æ¯Ķ å°Ķ
Ġgu arant
A pp
å¹´ èİ·å¾Ĺ
Ġsupp osed
Ġinstruct ions
Ġterrit ory
åĨħ åľ°
ä¿Ĺ ç§°
H A
im a
éħįéŁ³ åĳĺ
R ec
ĠC y
æ¡ Ĩ
ĠF amily
æ¨¡ æĭŁ
éĽķ åĥı
åľ° ä¸Ń
å¾· æĦıå¿Ĺ
g ov
æľī ä¸¤
Ġpro ve
Ġr hy
èī ³
æ» ĭ
åħ¬ ä¼ļ
éĥ½ å¾¡åı²
å°± åľ¨
ĠGr and
ig an
èĳ µ
B T
å¸ ĸ
Ġcon clusion
æĪĲ äºº
Ġcr ime
éĢ® æįķ
Ġc os
åĬ ¾
è¯Ħ å®¡
ç»´ ä¹Ł
f it
ç»´ æĬ¤
Ġpresent ation
çĭ¬ç«ĭ çļĦ
se ll
Ġgreen house
k ins
ãĥ Ĳ
åĪĳ éĥ¨
æ³ķ çļĦ
çĨ Ķ
Ġor gans
Ġun us
Ġfl ag
p read
Ġp ip
ĠF ree
ä¸ĵ çĶ¨
Ġres olution
åĽ¾ åĥı
Ġex ists
ç§ĳ çļĦ
åı· ä¸º
ĠEar ly
ä¸¾åĬŀ çļĦ
r ial
æīĵ è¿Ľ
æ¿ Ĵ
åĿļ æĮģ
F ran
Ġpos itions
äºº çĶŁ
19 29
æ³ Ħ
ä»¥ è¥¿
Ġgre w
è¶ĬæĿ¥ è¶Ĭ
åĩº å±Ģ
ro t
Ġm aps
ic ious
åĩ ¸
ä¸ĸçºª çļĦ
æ²¿ å²¸
Ġm and
ear ing
èĤ¡ æĿĥ
Ġre cept
Ġ3 2
Ġbreat h
æħķå°¼ é»ĳ
Ġdiv ision
Ġdemonstr ated
æĿ ı
ĠI reland
if est
æĥħ èĬĤ
é©± åĬ¨
å¾· æĸ¯
Ġp air
è®¾è®¡ å¸Ī
s uch
ä¸ĵ ç§ĳ
Ġmet ers
z o
å¾Ĺ å¥ĸ
æĪĺ æľ¯
åİŁ åĪĽ
Ġconsum er
ĠG ree
é¢Ĩ äºĭ
Ġ ç¬¬äºĮ
æ¸ħ ä»£
Ġindepend ence
! <|
el esc
æ£ ±
çĶ· å¥³
æĭĵ è·ĭ
N S
al i
åĨħ æĪĺ
Ġexam ine
ä¸Ģ éĥ¨
19 28
çļĦ æĹ¥
æµ ¸
å§ĭ å»ºäºİ
in ating
ĠB ig
éĢļ çĶ¨
å¥ĸ æľĢä½³
ç¥ĸ åħĪ
ides pread
Ġn erve
å½ĵ å¤©
Ġput ting
å¥ ł
ä¸į è¯¦
æĶ¹ è¿Ľ
åĸ Ŀ
åĳ İ
çİ¯ çĲĥ
man n
Ġestim ates
çī ²
æ¸© æ³ī
m es
Ġ éĥĳ
ĠW here
å°Ĩ åľ¨
æĺ¾ èĳĹ
åŃĺåľ¨ çļĦ
èĥ ĥ
ĠE st
ĠGe org
O ver
åĽ½ æľī
Ġshe et
s en
èĻ ŀ
çĻ» ä¸Ĭ
193 1
Ġhe m
é¾Ļ ç±»
Ġdel ay
H S
å« ©
Ġsp ok
çĲĨ åŃ¦
æĸ Į
ç§¯ åĪĨ
èĳ£äºĭ éķ¿
Ġequival ent
M ed
åŀĭ çĶµåĬĽæľºè½¦
çĻ¾ å§ĵ
ç¡® ä¿Ŀ
è¯Ĭ æĸŃ
ĠMart in
er a
ĠCO VID
O f
Ġsh ips
qu it
Ġun iversity
è¿ª å£«
èĢ¶ å¤«
Ġsubst ances
Ġpolit ics
h ma
ĠH y
Ġrecogn ition
d r
çª ¦
åģļ åĩº
è¢ ľ
ãģ ĳ
èŀį åĲĪ
ĠĠ ĠĠ
M C
Ġa head
ĠC ast
æĿĳ åºĦ
ra v
åĽ ļ
æĿ¥èĩª äºİ
c ar
Ġp ed
çİ° æľī
Ġhous ing
Ġc av
Ġn ob
ĠA cc
ap h
æĸ¹éĿ¢ çļĦ
oura ge
19 22
æīĭ æľº
çļĦ éĺ¿
åįĹ æĺĮ
æľĢ ä¸º
sc ale
Ġc ats
ĠV ictor
åį« éĺŁ
Ġcent ers
ure au
éĴ ł
ä¼ļ ä¸Ĭ
ä¸į çŁ¥
igh ter
Ġdist ur
T P
çĶµè§Ĩ èĬĤçĽ®
ç»´ä¹Ł çº³
è¢« æĿĢ
ast y
çļĦ çĶŁæ´»
Ġr ank
Ġpsych ological
ad ing
um ps
æĸĩ å¸Ŀ
å¤© åºľ
Ġcom ments
Ġevery day
åħĥ å¸ħ
Ġcar b
æĹĭ è½¬
ĠC re
Ġpass age
æĺĨ èĻ«
Ġassoci ation
Ġhor iz
Ġsett ings
ĠP o
åıĳ æİĺ
åľ¨ éĤ£éĩĮ
et ics
åĲį ä¸¾äºº
ãĥ ¡
çĽĳ çĭ±
Ġmeasure ment
è¿ªå£« å°¼
al m
Ġf old
Ġh ur
ä¸İ æİ¥å£¤çļĦå¸Ĥéķĩ
çĮ ľ
Ġsm ooth
è¯º æĽ¼
å± ¥
ĠJ ac
Ġele ction
æĹ¥ æĬ¥
ĠP enn
ç»´ åħĭ
Ġexp ansion
ĠDist rict
Ġnear by
å¹´ ä»»
rit is
åĸ ī
ĠAtl antic
u ps
æŀ «
ãĥ ĸ
çº º
Ġart ists
ro oms
Ġg ap
èĭ± åĨĽ
ä¸ŃåĽ½ çļĦ
éģ ®
ign ed
å¥½ è¯Ħ
åĨľ åľº
ay a
Go ogle
çĹ ķ
éħį è§Ĵ
åİ¦ éĹ¨
çī© çļĦ
åį° åĪ·
åįĩæł¼ ä¸º
abul ary
Ch ar
E ven
ĠP op
åĽł åħ¶
ãĤ Ī
ib l
éĢı éľ²
Ġmat ters
è¿Ļ é¡¹
é¢Ħ å¤ĩ
Ġemploy ed
Ġpow ers
19 00
ä½¿çĶ¨ äºĨ
éģŃ éģĩ
ä¸Ĭ æ¸¸
æ¯ı åĳ¨
æİĪ æĿĥ
Ġh ole
ä¸Ģ èģĮ
Ġ198 8
åĲĦ åĽ½
è¾ĥ å¤§
ä¸ĸçºª åĪĿ
Ġpain ting
Ġsc ript
Ġ ï¼ļ
Ġwh atever
ä»ħ æľī
çļĦ åĪĨ
19 27
åĮº åĪ«
Ġwas n
Ġe pid
ĠA ge
éķ °
èĭ± å°º
Ġmeasure ments
lies t
ur rent
Ġdef ine
ä¸İ æŃ¤
åįķ ä¸Ģ
ĠTe am
ĠE astern
Ġag reed
Ġdel ivery
Ġ æľĪ
äºĭ ä¸Ń
éĽĨ çļĦ
æĽ¾ æĺ¯
Ġob lig
èĩĢ é³į
ite ly
åĲĮæĹ¶ ä¹Łæĺ¯
3 000
Ġout bre
ä¹¡ æĿĳ
èĹ¤ åİŁ
Ġd ys
éĩĮ è¾¾
å°Ħ åħ¥
æĺİæ²» ä¸īåįģ
us hed
å¾· è¯Ń
çº§ çļĦ
% )
å¾· ç½Ĺ
Ġinvol ving
Ġfund s
Ġlegis lation
å¹´ ä¸ĸçķĮæĿ¯
ĠAg ricult
ĠE th
èĲ¥ åħ»
æ²Ļ æ¼ł
os ion
ĠE ffect
æĺŁ çļĦ
Ġoff ering
c hen
or i
âĢĿ ï¼ī
è¾ĵ åħ¥
Ġm ent
Ġsp ending
æħ °
éģĹ è¿¹
Ġinteract ions
å¥ĸ éĩĳ
ever al
ĠServ ices
Ġcry st
ä¸į è¦ģ
Ġstrong ly
Ġsur ve
èı² å°Ķå¾·
ä¸» äºº
é«ĺ æł¡
ĠY ear
Ġpo ison
èĸ ª
ol i
èĢ¶ å¾ĭ
åı¸ä»¤ éĥ¨
at i
æĢ» éĿ¢ç§¯
åĽŀ å¿Ĩ
Ġtri p
Ġ7 5
S m
ĠCon n
Ġte le
éĵ¶ æ²³
ĠGu ide
Ġchalleng ing
èº« ä¸º
åĴ¨ è¯¢
åĢ ¡
Ġcol umn
é¢Ĩå¯¼ äºº
G l
ãĢĤ âĢľ
äºİ æŃ¤
éķ ¶
ĠH ave
åŁİ éĻħ
ä¿Ŀ è¯ģ
åįł æį®
ä¼łç»Ł çļĦ
ĠW ik
Ġdeb t
O K
å¥³ ç¥ŀ
Ġaccess ible
Ġfrequ ent
åŀĤ çĽ´
Ã ±
Ġvol can
g ers
æ¢¦ æĥ³
Ġv ac
Ġr ice
çº³ å¾·
æĭħ å½ĵ
ç«ŀ éĢī
é¼ĵ åĬ±
ĠF il
we ight
èĲ¨ æĭī
ish ment
å·Ŀ åİ¿
åĶ¯ä¸Ģ çļĦ
Ġs ections
æľ¬ åī§
åĨħ æľī
å¼ķ è¿Ľ
åĭĴ æĸ¯
Ġmod e
èı ±
åľ¨ ä¸Ģä¸ª
Ġarch ae
Ġh olid
åĵ Ń
o om
it amin
Ġme al
Y our
Ġc up
s m
æ¹ĸ å¹¿
å°¸ ä½ĵ
ç¾İåĽ½ çļĦ
Ġrel ief
Ġpublic ation
Ġhyd rogen
æĺ¯ ä»İ
Ġus age
çĽ¸ åºĶ
éĩİ çĶŁ
ĠC D
åħ¨ åŀĴæīĵ
ult s
ä¹¦ åºĹ
è§Ĵ åº¦
æĻ¯ çĤ¹
rain ing
er ior
æĭī å°Ķ
æĦŁ æĥħ
Ġfem ales
åĮ ł
æĶ¶ è´¹
Ġexplan ation
ĠP olic
S M
å± ¡
åįĹ èĩ³
Ġend ed
N HK
Ġful f
çĽ® çļĦæĺ¯
åĲĦ ç±»
çª ĳ
Ġ çŁ³
ĠR ock
åĬł å·¥
Ġmark ets
Ġt ank
åįģ åĽĽå¹´
å½¢ å®¹
Ġcustom ers
g ical
Ġw idespread
Ġmaint aining
åĬł æĸ¯
çĶ· åŃ©
Ġfun g
å¿ħ è¦ģ
Ġindic ated
Ġmoist ure
Ġb low
ĠPl ant
åĪĽå§ĭ äºº
é¥ ¶
ä»¥ ä¾¿
æĶ¶è§Ĩ çİĩ
æŃ §
ab led
èĢģ æĿ¿
é² ¨
æ¨¡ çī¹
Ġ âĨĴ
ä»¥ ä¸ľ
æ²ī ç§¯
çĸ« èĭĹ
å¹´ æ¯ķä¸ļäºİ
åı°åĮĹ å¸Ĥ
Ġunder t
Ġear n
Ġins ulin
s he
åŃ¦ åĽŃ
é© °
iz abeth
Ġmin erals
åı¦ä¸Ģ æĸ¹éĿ¢
Ġarr ange
Ġf u
ĠM el
åĪ© çļĦ
ãģ ²
çĽ¸ åıį
Ġdiagn osed
Ġso le
Ġrun s
è½¯ æĿ¡
å®¹ çº³
æ§ ½
ĠM en
ä¹Ł åı¯
æĬ¥ çº¸
ĠE qu
æľª æľī
åĬŀ çĲĨ
å¼º åº¦
ir al
åĲİ åľ¨
åľ° äºļ
æł¼ é²ģ
çĳ °
ĠAs ian
å®¡ åĪ¤
ĠT ake
äºĮ å±Ĥ
æ¬¡ äºİ
ä¼Ĺ è®®éĻ¢
é¥® é£Ł
Ġlaun ched
åĽ½ è¯Ń
ĠP rop
æĭī å¾·
Ġform ula
æĳ© å°Ķ
Ġdecl ared
Ġmort ality
åł Ģ
Ġmin ing
P P
Ġcomp are
Ġhold ing
æį· åħĭ
Ġis lands
Ġfor get
Ġwor ry
Ġbl ocks
Ġparticip ation
ĠM ah
Ġsh ot
Ġrec ip
åİŁ åŀĭ
ĠCent re
ä¸Ģ éĥİ
èķ ĥ
Ġexerc ises
åĮĸ ä¸º
Ġsac r
op es
ĠO pen
æĪĺäºī ä¸Ń
ãģ Ī
è° Ĳ
ä¸¥ æł¼
e rest
Ñ ı
åĨľ æĿĳ
19 24
ĠL ow
Ġrel iable
åĪº æ¿Ģ
æļĤ åģľ
ĠNet work
os aur
ĠN az
åľ¨ åĨħçļĦ
äº¤ æ±ĩ
å®¢ ä¸²
èĪª çº¿
æľĽ è¿ľ
ĠA ccess
Ġcomp osed
Ġcateg ories
çİ «
åħ¥ åĽ´
åĪ¶ æĪĲ
å¤ĸ è§Ĥ
æŃ£ ç¡®
Ġh un
Ġn one
æ· Ģ
ot ton
ä¾ Ħ
v in
ĠW all
æ¬§ çĽŁ
æĵħ éķ¿
y er
Ġl aser
åħ¶ åŃĲ
ĠL ee
L C
il i
åĪ© çĽĬ
è´¢ åĬ¡
å¸Į çī¹
ä½İ äºİ
çĴ ĭ
ä¸Ń åľº
é©¬ æģ©
Ġoper ate
åľ¨ è¥¿
On ce
Ġmiss ing
çļĦ èĥ½åĬĽ
åħ¬ å¯ĵ
è¶ħçº§ èģĶèµĽ
ä¸ľ æ±ī
äºļ å½ĵ
åī§ ä¸Ń
Ġbr ings
Ġplay ers
ĠSte p
w an
åĪ° çļĦ
æĶ¹ è®¾
Ġest imate
in ally
åĨ Ģ
Ġsc an
ç¥ŀ åľ£
èľ ĺ
åºı åĪĹ
ĠJohn son
ĠSpec ial
æ© Ļ
op eration
æ¥ ł
æ¹ĸåĮĹ çľģ
Ġf ashion
åĩ ¹
el i
ç§ĳ è¿Ľå£«
çº¦ æľī
å®¢ è½¦
Ġmetab ol
E ar
Ġhold s
ĠMus lim
ĠScot land
L ear
ĠP C
Ġdep art
Ġcapt ured
á ¹
æŃĮ åĶ±
çļĦ ä¸ĸçķĮ
ri end
åĪĨ ä¹ĭä¸Ģ
éĵģè·¯ å±Ģ
å¹³ å®ļ
15 00
Ġinfluen ced
æĹ ±
æ³ķ åºŃ
å®ŀ åĬĽ
é£İ æĻ¯
Ġbre eding
Ġwith d
çĶŁçī© åŃ¦
Ġindust ries
Ġ id
Ġthe ore
èĤĮ èĤī
çģ« è½¦ç«Ļ
çĶ· äºº
Ġco vers
æ³° åĭĴ
Ġtext s
Ġpregn ant
çİĭ åĲİ
ĠJ o
Ġte en
åħĪ åıĳ
Ġent ered
éĶ ¥
force ment
à ¦
åĲĮ åŃ¦
åıĤä¸İ äºĨ
Ġmat ch
Ġinstall ed
E very
æĢ ¨
åľ£ æ®¿
è¡Ģ æ¶²
çļĦ é©¬
åīį è¿Ľ
æĢģ åº¦
ä¼ļè®® åĳĺ
èľĺ èĽĽ
ä¸ª æĢ§
Ġmechan ical
çļĦ ä¸į
è¿Ļ åľº
Ġsh if
éĩĩ è®¿
åħµ éĥ¨
åĳĺå¤ĸ éĥİ
Ġh orses
åĮº åĪĨ
Ġevalu ate
Ġann ounced
ĠHe b
çĶ» éĿ¢
å±ħ å§Ķä¼ļ
ĠCl imate
å®¢ æĪ·
ãĥĥ ãĤ¯
Pl ay
Ġsignific ance
æ³ ª
ĠH or
Ġob esity
åĻ¨ çļĦ
åĪĩ å°Ķ
èģĶåĲĪ ä¼ļ
Ġneg ot
Ġdest ruction
å±±è¥¿ çľģ
çľŁ äºº
ä¼¤ å®³
z er
çļĦ åľ°åĮº
ac her
å¹¸ ç¦ı
Ġb oy
æľĽè¿ľ éķľ
Ġp ra
ĠA st
ĠS ir
du le
ĠC reat
çľĭ è§ģ
Ġfram e
est ival
å¤ļ ä¼¦
Ġsm oke
ĠYou ng
Ġa ward
åĲİ ç»Ń
é«ĺ æŀ¶
èµĦ åĬ©
Ġess ays
çī© åĵģ
ĠSec ret
ĠL ist
è¯ŀ çĶŁ
et te
åħ¶ ä¸º
Ġr ig
çºªå½ķ çīĩ
è¢« å¹¶åħ¥
pl ant
åĶ ĩ
æİ¢ éĻ©
æľī çĿĢ
æĿĢ äºº
Ġ6 5
ĠSec urity
Ġgluc ose
æĥ ĳ
18 0
ç´¢ æģ©
Ġfac ility
ç©¿ è¶Ĭ
ult y
éĩį å¤į
Ġar ts
Ñ ĸ
Ġpro of
Ġab andon
10 1
Ġask ing
å®ĥä»¬ çļĦ
å¸¸ åĬ¡
Ġout come
Ġparalle l
Î ²
ot al
åıĭ å¥½
S he
g reg
ç¬ ĥ
èĢĮ æĿ¥
åĿ ¤
Ġconstruct ed
Ġw ound
å° §
Ġsp aces
ap se
Ġappro ved
Ġguid ance
Ġhistor ic
æ± ģ
è¯¥ çī©ç§įçļĦ
Ġint ense
çĽ´åįĩ æľº
Ġ ille
Ġthe ories
ĠN ov
ãĤ ı
åĽĽ å¤§
å¤į æ´»
Ġed ition
èĢĥ å¯Ł
çģµ éŃĤ
ID S
Ñ ĭ
å¹´ æĪĲä¸º
Ġredu ces
Ġcont rovers
Ġsee king
Ġart ist
çħ§ é¡¾
Ġrecommend ations
Ġt ube
Ġcon ven
çĽ¸ è¾ĥ
åĿ ŀ
ç¿ ¡
Ġsur faces
èĮĥåĽ´ åĨħ
ĠIm m
Ġtrou ble
ç¬¦ åı·
d f
Ġdesign s
Ġimm igr
Ġcirc le
o ir
äºļ çĽ®
ren cy
ç¼ĸ åĪ¶
Ġmere ly
ç»´ ä¿®
ĠIt alian
é¢ĺ æĿĲ
ä¸ģ çĽ®
ä¹Ł æ²¡æľī
åĽŀ åºĶ
Ġbr idge
ç¾İæľ¯ é¦Ĩ
Ġc ards
Ġsh ut
ç³ ķ
ĠAr ist
ĠAng el
R C
åľ° å½¢
ĠD ou
æ¼Ķ èīº
Ġro cks
ĠH oly
ä½į çļĦ
ä»» æķĻ
æ¨¡å¼ı äº§åľ°
Ġfor th
Ġcom plicated
Ġbo ys
æ¶Ī éĺ²
Ġvisit ors
æłª å¼ı
åĬ¨è½¦ ç»Ħ
19 23
Ġdam aged
Ġmicro sc
ä¼Ļ ä¼´
ĠWind ows
éŁ ¶
ç¦ §
çĶº æĿĳ
èĻļ æŀĦ
Ï Ħ
Ġcent re
å½¢æĪĲ çļĦ
Ġa th
ĠR ef
å£ ¬
è¡¥ åħħ
Ġcomp ound
ä¸ĭ æ¸¸
ãĤ ¬
åĲĳ è¥¿
è´Ŀ åħĭ
Ġfac ing
ive red
æĽ¾ è¢«
æķĻèĤ² éĥ¨
ä¸ľåįĹ äºļ
åº ĩ
æĸ¯ åĴĮ
æłªå¼ı ä¼ļç¤¾
i ro
è¿Ļ ä¹Łæĺ¯
Ġar rest
Ġcontrol s
Ġdang er
æĩ ¿
ä¸ĭ æĸ¹
Ġprov en
æ¸¸æĪı ä¸Ń
Ġ æĺ¯
æ° ®
çĮ ¿
Ġro les
Ġintegr ated
Ġproport ion
Ġhe aling
å¸¸ è§Ħ
è´¹ çĶ¨
u an
çļĦ æīĢæľī
å¹´ åĩºçīĪ
æŃ£ ä¹ī
å¼Ĥ å¸¸
ĠEngine ering
B O
å¤§ åĲĮ
Ġaccur acy
id ity
éĿ¢ ä¸´
ne um
Ġph arm
Ġphot o
å§Ĳ å¦¹
Ġbo at
ç¯ĩ å°ıè¯´
çİĽä¸½ äºļ
b ar
åĽ½ éĵģ
åı¤ å±ĭ
äº® çĽ¸
ĠB ill
æ¸¸ åĩ»
Ġrece iving
è°ĭ æĿĢ
çĽĨ åľ°
äºĨ è®¸å¤ļ
ç¦ı éŁ³
éĻķè¥¿ çľģ
Ġre ly
äºī å¤º
çĶŁæ´» åľ¨
Ġhon or
Ġingred ients
å¾ Ļ
èį£ èİ·
Ġprepar ation
è¡Ģ ç®¡
Ġdra wn
c raft
190 3
ç¬ Ľ
ĠL o
Ġint est
oun ter
Ġconvers ation
å¼Ł åŃĲ
M an
em a
å¹¶ æĹł
åİŁ åĪĻ
èī² å½©
ä»į åľ¨
è´¢ äº§
å¤§ä½¿ é¦Ĩ
ars h
% .
t rans
è½¦ ä½ĵ
Ġdo se
å¤ı å¤©
Î ¹
Ġs ession
ic it
å¤§ äºĭ
æĢ İ
ĠChrist mas
Ġvirus es
æīĺ é©¬æĸ¯
ĠRes ources
Ġclean ing
am ins
éĽĨ åĲĪ
åľŁ å£¤
Ġcount y
Ġbur ning
t op
ĠT re
Ġon going
æ³¢ çī¹
Ġhaz ard
Ġrad ical
åķ ¤
åľ£ è¯ŀ
Ġconstant ly
è¿Ļ æĹ¶
æ°¸ è¿ľ
Ġcateg ory
è¢« åıĳçİ°
å¸ĥ ç½®
æ¶ ¡
ä¼Ĭ æĭīåħĭ
Ġrep air
åķĨ åľº
Ġp estic
å¤§ åĨĽ
ĠS ym
å¼º çļĦ
Ġt ight
åıĳ èĤ²
å±ħä½ı åľ¨
Ġbab ies
ç¿¡ ç¿ł
ĠS a
rou s
C N
æķ ·
åĬł åĪ©äºļ
çĶ° ä¸Ń
ĠBe fore
' m
Ġdist ributed
i ological
Ġst re
Ġin her
ä¸Ģ å¤©
æ¸ħ æ¥ļ
èİ± èĮµ
i ability
Ù ħ
åĿ Ł
å±± çļĦ
ä¸Ģ å±Ĥ
Ġr ivers
èģĶ åĨĽ
éĽĨ ä½ĵ
Ġsw im
!!!!!!!!!!!!!!!!!!!!!!!!!!!!!!!!!!!!!!!!!!!!!!!!!!!!!!!!!!!!!!!!!!!!!!!!!!!!!!!!!!!!!!!!!!!!!!!!!!!!!!!!!!!!!!!!!!!!!!!!!!!!!!!! !!!!!!!!!!!!!!!!!!!!!!!!!!!!!!!!!!!!!!!!!!!!!!!!!!!!!!!!!!!!!!!!!!!!!!!!!!!!!!!!!!!!!!!!!!!!!!!!!!!!!!!!!!!!!!!!!!!!!!!!!!!!!!!!
oc ial
éķ¿ æĺ¥
çľģ çļĦ
Ġfall s
æµ ´
èĤ ĩ
Ġpl us
åĮĹ å®ĭ
ĠZ eal
çº ł
éħ ĭ
åĵĪ åĪ©
ĠEd ward
æł¼ æĭīæĸ¯
l ast
ä¸» åĬ¨
erson al
Ġrespect ively
h ar
åĬ £
e ers
éģĵ å¤«
ou l
ä¸Ģ ç³»åĪĹ
are t
Ġvar ieties
P art
ĠâĢ ¢
Ġstim ul
Ġintellect ual
he nt
Ġy e
é©¬ å¾·éĩĮ
åı¯ æĺ¯
çī Ł
Ġcoast al
æİĴè¡Į æ¦ľ
Ġs ke
is dom
Ġmicro b
å¸ĥ åħ°
ru ption
çī¹ æĢ§
ãĤ ģ
éħ ¯
æĴ ĳ
Ġsome what
Ġmin ute
Ġche st
æ¶Ī çģŃ
S D
ol ving
Ġtur ning
Ġw ine
if ferent
ç¥ ·
é¦ĸ åº¦
è¯» èĢħ
å¤©æĸĩ åı°
r ary
Ġb ath
ä¼ ŀ
op les
æľĢ æľī
Ġthem e
åºĦ æĿĳ
Ġtem ple
Ġst reet
æ¬ ł
ĠInd ians
ex ample
Ġnerv ous
æĪ ļ
ĠL ar
Ġev il
èº ²
ç»Ļ äºĭä¸Ń
Ġphys ics
Ġ198 6
Ġconsider ing
Ġgal ax
ual ity
Ġresp iratory
æ·¡ æ°´
Ġbut ter
å¦Ĥ åĲĮ
Ġbe ings
19 25
æī Ń
åĢ¼ å¾Ĺ
èĤ¡ ä¸ľ
Ġesc ape
ä¸Ģ åıª
å¯¹ ç§°
æ¦ ´
ixt ure
her ic
Ġman ip
å®Į é¢ľ
èĦĬ æ¤İ
am i
è£ ¸
Ù Ĩ
19 17
ud e
æį® è¯´
H z
ä¸º æľŁ
å¸Į å°Ķ
æ´¾ çļĦ
æİ¨ æµĭ
S im
éĹ ¯
å±ķ çİ°
è®¤ åı¯
Ġunc ertain
Ġmole cular
Ĥ ¬
Ġcharacter ized
Ġlegis l
th ritis
æĪĲç«ĭ äºĨ
en ess
ä¸º ä¸ŃåĽ½
ĠT op
ĠE U
ä¸ľ åĮº
Ġref uge
ç¬¬ä¸Ģæ¬¡ ä¸ĸçķĮå¤§æĪĺ
éĻ¨ çŁ³
Ġfor g
åĭĩ å£«
cycl op
ĠN on
ĠCh ange
Ġfarm ing
Ġvict ims
Ġlov ed
ä¸Ģ æĶ¯
å®¶ ä¹¡
Ġr id
å¥¥ åı¤
ident ial
æĶ¿åºľ çļĦ
åĲİæĿ¥ çļĦ
å½Ĵ ç±»
Ġanal ys
å·¨ äºº
è¾ĥ ä½İ
Ġprevent ing
å¢ŀåĬł äºĨ
ro x
ĠS at
ä¹ĭ ä¹±
è· Į
P R
åĽ´ æ£ĭ
è¯ĳ ä¸º
é£ŀè¡Į åĳĺ
Ġbeaut y
Ï Ĥ
Ġp ounds
Ġopp osed
Ġfish ing
Ġvari ables
å®° çĽ¸
æ³ Į
å¼Ģ åĬŀ
é¦ĸ åºľ
ĠWh o
æŁĵ èī²
åŃŁ åĬłæĭī
åŃĲ åħ¬åı¸
ĠR om
out s
16 0
ad ed
ä¸» ç®¡
Ġne ither
èģĮ åĳĺ
ä¿ĿæĬ¤ åĮº
å·¥ éĥ¨
Ġown er
åıĤè°ĭ éķ¿
ĠP ot
çķ ľ
Ġpar as
ç©¿ è¿ĩ
Ġmov es
Ġdepend ent
å¹´ ä»¥
ä¸Ĭ åľº
ä»İ æľª
åĽŀ åĽ½
è¿ģ ç§»
Ġsecond s
ĠS up
ä¸Ĭ æĸ¹
ç¼ ´
edi atric
Ġcollabor ation
è¾ £
éħį å¤ĩ
ç¦ı å·ŀ
Ġsubsequ ent
æľĿ æĹ¥
Ġmaint ained
P V
Ġs ales
it als
ol k
çº ±
Ġinc red
Ġmess ages
Ġwa it
ĠT im
æ£ ļ
é¡º æ²»
Ġd ates
åĨħ äºļ
ç»Ħ éķ¿
è¶³ æĢ»
ä½ĵèĤ² é¦Ĩ
Ġad vert
ĠOx ford
Ġtra ct
ç¦» å©ļ
äºĮåįģ åİħ
Ġinterpret ation
or ic
éĵ Ŀ
èĪªç©º åħ¬åı¸
elf are
Ġ198 5
Ġexcess ive
s k
ot es
åĨĽ äºº
æĿĳ æ°ĳ
G u
æĢ» æķĻåĮº
iv a
Ġdisc rimination
Ġbr ush
ĠCo ast
ä¸º é£Ł
åħĭ éĽ·
çĲĥ è¿·
Ġab normal
Ġreal ize
Ġadequ ate
he rent
ic y
å¯¼ å¸Ī
oh yd
Ġcare ful
çĤ¸ å¼¹
ĠZeal and
è¿ĺ åľ¨
ĠMore over
åİŁ ä½ıæ°ĳ
è¿Ľè¡Į çļĦ
æģĭ çĪ±
an es
ĠH ospital
é» ı
ail ed
Ġbl ind
ä¸»ä¹ī èĢħ
çŃĸ çķ¥
Ġrare ly
ĠCommun ity
ĠD en
un icip
æĹ¥æľ¬ çļĦ
Ġ4 00
èŃ¦ åĳĬ
Ġlight s
Ġeng aged
am ber
åĲį åı¤å±ĭ
æŃĮ åī§
æī¿ æĭħ
Ġir rit
Ġ ç¾İåĽ½
æĺ¯ ä¸ºäºĨ
19 14
ĠM oon
å½± è¯Ħ
Ġj ump
io x
Ġfavor ite
â Ĺ
Ġcommit ted
æĮĩ ç¤º
ollow ing
Ġch ick
Ġcl othing
air y
Ġst rict
ĠI V
ä¸Ńåįİ èģĮæ£Ĵ
Ġspect rum
Ġcal ories
ä¿ ±
é²ģ æĸ¯
æĵ ¦
Ġt ons
æľĪ èµ·
ri z
æĸ° åĮº
ä¼Ĭ åĪ©
åĽ½å®¶ åħ¬åĽŃ
Ġseem ed
Ġhe ating
åħĭ åĬ³
Ġsc ore
row ing
19 12
am ing
ish op
g on
m aking
éĩį è§Ĩ
äºĭå®ŀ ä¸Ĭ
Ġb iod
Ġgradu ally
åı°ä¸Ń å¸Ĥ
åĵĪå°Ķ æ»¨
äºļç¾İ å°¼äºļ
äºº ä¸º
æĥ³ æ³ķ
éĥĳ å·ŀ
o is
ĠS ometimes
æĹ¥ çĶ±
Ġag ents
T oday
ost on
æĺİ ä»£
æĺŁ éĻħ
cl ass
ĠPr inc
èµ¢å¾Ĺ äºĨ
ä¸įå¾Ĺ ä¸į
Ġcontem porary
ov ascular
é¡º åºı
he alth
19 26
èµĽ çļĦ
æĶ» åħ¥
âĦ ĥ
es ides
åįĹ å®ĭ
Ġelect ro
D av
çī¹ çĥĪ
isc o
ç§ĺä¹¦ éķ¿
N ational
ĠA gency
æ¯ı æ¬¡
åĪĿ å¹´
Ġoffic ers
ãĥ §
T E
o ids
è· µ
é¢Ħ ç®Ĺ
Ġphot os
Ġs ought
Ġpl enty
sp ect
Ġb omb
å¤§ å¸Ŀ
Ġdet ection
Ġsil ver
å« ¡
éĢłæĪĲ çļĦ
B ecause
Ġt ut
Ġin n
æĮ º
Ġover w
Ġabs ence
èŀº æĹĭ
çļĦ è¥¿
å¹¿ å²Ľ
Ġcop per
ĠTh ree
éª ļ
Ġdef ense
b les
ad der
æµ ĳ
ĠM ethod
å¤© æ°Ķ
æµģ åĬ¨
Ġtrans p
éĻ¤ æŃ¤
åįģ äºĶå¹´
åŃ£ èĬĤ
åį° è±¡
ä»£è¡¨ å¤§ä¼ļ
Ġconfirm ed
id al
èĭ ¹
è¯¥ åī§
Ġcr im
m i
Ġm ood
çĭ ©
Ġbran ches
èħĵ çī¹çĥĪ
Ġsubstant ial
Ġd ance
æĹ¥ è¯Ń
Ġr ing
Ġsh ock
ĠQu est
æľī ä¸¤ä¸ª
Ġpres ents
ĠLe g
è°Ī åĪ¤
ĠFurther more
ot le
ç§ĳ ä¼ļè¯ķ
ask a
Ġattempt s
Ù Ĭ
Ġdel ivered
ĠR am
å¤ļ æł·
Ġpo em
Ġjud ge
Ġscreen ing
åľ¨ ä»ĸçļĦ
æľº åĬ¨
çī¹ å°Ķ
çīĩ å°¾
Ġac ute
Ġbring ing
Ġencoura ged
Ġfair ly
act ion
Ġknow ing
Ġgu ard
ĠM D
Ġwrit ers
åŀĭ æľºè½¦
ĠE c
çĳ ¶
éĢģ åĪ°
æ²ĥ å°Ķ
n ight
am ination
æĢ» åĨ³èµĽ
è´ ª
ĠTh ough
Ġ3 6
Ġplan e
æ£ĭ åŃĲ
Ġremov al
l ines
ä¸ ¢
in er
å¯ ħ
Ġcomfort able
Ġim plications
åķ ¦
Ġsign ed
åĽŃ åĮº
ĠDiv ision
a us
Ġt ub
åĴĮ ä»ĸçļĦ
op her
Ġfocus es
Ġang le
ç¿Į å¹´
B L
ĠS and
éħ °
Ġprincip al
ä¸į åıĺ
ĠJ ul
Ġflow er
Ġmathemat ics
ĠP ak
åħ± è®¡
ĠSt at
éĥ¡ çİĭ
å·¦ ç¿¼
acc o
ç¥Ń ç¥Ģ
Ġimplement ed
çĬ¹å¤ª äºº
ĠL ight
Ġte levision
åĩºçİ° çļĦ
Ġ åŃĻ
ä¸Ģ çŃī
19 21
å¹³ å®ī
Ġcomp ris
çģ° èī²
ĠOh io
éħ ±
Ġnew ly
Ġdoll ars
h tt
Ġa ims
åĩº æĿ¥çļĦ
em ia
erm an
Ġpan el
å¹´ ä¸Ń
Ġg ro
ĠO l
ĠArt icle
Ġp it
pt ions
å·¥ åķĨ
å¸ĪèĮĥ å¤§åŃ¦
Ġcarry ing
ec ess
ä¹ĭ éĻħ
Ġexam ination
Ġgr ant
æĹ©æľŁ çļĦ
Ġv on
un a
åĽ´ ç»ķ
Ġ åīį
ä¿Ŀ åĬłåĪ©äºļ
çī§ å¸Ī
Ġo v
ï¼ī -
Ġtrans lation
p rodu
Ġf urn
Ġem pt
åĢ¾ åĲĳ
Ġphenomen on
g ence
è·¯ ä¸Ĭ
Ġsp in
Ġexam ined
å¹´ çĲĥåŃ£
Ġg ut
Ġit em
ĠP en
ist ical
åĵ º
og ether
åı¸ æľº
æĹ§ åĿĢ
Ġ ç¬¬ä¸Ģ
å½¢ çļĦ
Ġcrit eria
ĠM ult
ä¹ĭ åĲį
å¨ģ å°¼æĸ¯
éĺ¶ çº§
Ġfil ter
æľ Ķ
åľ¨ ä½į
ĠW ay
æī§ æķĻ
æ±¤ å§Ĩ
ĠChe ck
çļĦ æľºä¼ļ
Ġl ake
çĻ» è®°
Ġb anks
æł ½
å¯» æ±Ĥ
Ġstat istics
lish ing
åĭ ¾
æĬĢ å·§
Ġdes ired
å¯Į æ±Ĺ
Ġstrong er
Ġdiam eter
ir th
æ¬ º
éĩį ç»Ħ
190 5
) ï¼Ī
P re
ĠP M
å§ĭ äºİ
åĲī ä»ĸ
Ġmod ified
vent ions
çĭ® åŃĲ
st s
Ġun ion
Ġeffect iveness
ĠD espite
èµĽ é©¬
å§Ķ ä¹¦è®°
____ ____
çº¿ ä¸Ĭ
æĴŃ æĺł
çħ Į
Ġess entially
Ġfour th
Ġla id
å¹´ æľŁéĹ´
are n
r ance
çĽ Ĵ
çŃ ĭ
èĬĤ å¥ı
åħĭæĸ¯ åĿ¦
Ġst ability
Ġdis char
è´¹ å°Ķ
Ġserv ing
ç»Ŀ å¯¹
Ġcor rel
è¡į çĶŁ
y al
Ġequ ally
Ġadvant ages
åı²å¯Ĩ æĸ¯
æĺ¯ èĭ±åĽ½
Ġsh apes
our se
æĺ¯ä¸Ģ å®¶
es h
åĲĮ æĢ§
ä¾¦ æİ¢
åĪĨ æĪĲ
ä¸¤ æĿ¡
Ġthan ks
éĢĶ å¾Ħ
Ġearth qu
åı¯ åľ¨
ane ous
Ġer rors
åĲį èªī
Ġro ads
å½ķ åĪ¶
åį° ç¬¬
ĠE p
Ġrenew able
Ġk ne
Ġ åľ£
æīĭ ä¸Ń
å¼Ģå§ĭ åľ¨
åľ°ä¸Ń æµ·
ĠN ut
åįģ åħŃå¹´
Ġwor ship
æ¸ħ åįİ
Ġbig ger
åĪ¶ åĵģ
åħĪ éĶĭ
è¿ª äºļ
å¥¥æĸ¯ æĽ¼
Ġev olved
è§Ĥ çľĭ
Ġher b
uck y
çĤ ³
ren e
æıĲ è®®
çĶ² çº§èģĶèµĽ
åķ¤ éħĴ
ĠW il
è´¨ çĸĳ
Ġteam s
i u
ĠS afety
é±¼ éĽ·
ĠAm ong
Ġtrad itions
ol n
ä¼¦ æĸ¯
åĲİ æĸ¹
ip edia
æĢ» å±Ģ
Ġkid ney
å½ķ å½±
Ġp in
Ġmay be
å¥¹ æĺ¯
ä¹ł æĥ¯
ĠAdminist ration
9 00
ro at
as y
Ġch lor
ak a
Ġdem ands
Will iam
A F
ag raph
é¦ĸ é¢Ĩ
ĠIr ish
Ġf ed
Ġsub t
çĶ± è¯¥
æĶ¿ åįı
Ġrob ot
ç¡ķå£« åŃ¦ä½į
ĠHeb rew
å¥ ķ
æ¼ Ĩ
ä¼ł åĬ¨
inc luding
ric ts
the less
Ġclaim ed
Ġsatell ite
ä¹ĭ åľ°
og rap
å¡ Į
Ġpass ing
çī©çĲĨ åŃ¦
Ġ èµµ
ĠS aint
è¡Ĺ åºĦ
ç»§ ä»»
ä¸»æķĻ åº§åłĤ
ut en
åħĭ åĪ©
è®¤ è¯ģ
Ġprov ed
ont al
åľ¨ åīį
ĠH and
æµ· çĽĹ
åĪĹ åĩº
èĽ ®
éĩĮ æĺĤ
æĽ´ æį¢
çłĶ åĪ¶
å£° æĺİ
æıı åĨĻ
Ġunivers al
A nt
äºº æ°Ķ
Ġwhe el
æ¢ ĵ
ç¦ı åĨĪ
Ġst ead
ĠR esp
åĨį è½¬
oun ce
å¹² éĥ¨
ä¼ĳ æģ¯
Ġinterp re
Ġl ie
çĹħ éĢĿ
è®¸ åı¯
åº Ĳ
åĸ »
Ġprom inent
il ation
èĲ Į
Ġint ensity
åħ³ èĬĤ
Ġinf ant
åĽ¢ éķ¿
ple te
èĩ´ åĬĽ
Ġinform ed
Ġins ert
ç§ģ ç«ĭ
Ġf ro
åľº çļĦ
çŁ³ å¤´
Ġdec or
åģĩ è®¾
Ġconsider able
æ·» åĬł
Ġ ç¥ŀ
Ġr ational
åĬł åĭĴ
åĩŃ åĢŁ
æĶ¾ éĢģ
Ġdom ain
S C
t les
éģĵ çļĦ
Ġ19 40
ç§° ä¹ĭä¸º
ild ren
äºĳåįĹ çľģ
an ing
Ġsh arp
ä¹Ĳ åĽŃ
Ġear liest
EN T
a is
ĠT ype
å½ Ĺ
èĥ Ģ
å·´ èµ«
Ġprint ing
è¯ Ľ
ĠV en
Ġcomb at
åį°ç¬¬ å®ī
å» ¿
pl ing
éĽĦ æĢ§
ä½Ĳ èĹ¤
as m
æĹ¥ å¸¸
ĠL ove
é«ĺ åİŁ
çĲĨ çĶ±
ang er
åĪĻ æľī
Ġst rain
æĪĲ æŀľ
æľ¬ åĲį
æłĩ é¢ĺ
Ġen emy
æŁ ľ
æīĺ å°Ķ
å¤º åıĸ
Ġdecre ased
Ġspl it
19 11
æĭľ åįł
éĢīæĭ Ķ
v i
å¹´ ä¸Ĭæĺł
æĭ ¯
éĽ ģ
ri x
æķ° çļĦ
è§Ħ èĮĥ
Ġsus cept
Ġsp ort
çĻ ¸
ĠK ar
å®½ åº¦
19 10
æĹ¶ éĴĪ
Ġwar ning
Ġd rain
Ġpro hib
Ä «
åľ¨ åįĹ
åīį æĿ¥
ä½Ĩ åį´
èįī åİŁ
Ġimag ine
ook ing
æĶ¶ åĪ°
çĳ ľ
åıĳçĶŁ äºĨ
ä¾Ŀ èµĸ
Ġconcer ning
ä¸º æĸ°
Ġdis rupt
Ġgra in
Ġexperim ental
é©¬ åĬĽ
æĪĺ ä¸Ń
æ°¸ ä¹Ĳ
ĠS und
ĠC ross
çĶµå½± çļĦ
Ġf ra
å¾· åħĭ
æķ° åįģ
ä¸ĵ åĮº
å±ĭ é¡¶
Ġmar ks
Ñģ ÑĤ
æĸ¯ åĽ¾
ä¸ľ è·¯
åĲĮ æŃ¥
æĭħ å¿ĥ
Ġg ained
ag en
ä¿¡ å¾Ĵ
ä¼ģ åĽ¾
ou red
èĩª æŃ¤
Ġfac ed
Ġ æ°´
im ents
å¤ļ é¡¹
Ġrem ind
å½¼ æŃ¤
èº« äº¡
Ġthreat s
r h
å°Ĩ äºİ
Ġhapp ening
åĲı éĥ¨
Ġcon qu
Ġcomm ission
æĭ¿ çł´
Ġtarget s
ĠR ail
Ġserv es
æĦ¿ æĦı
è¯¥çī©ç§įçļĦ æ¨¡å¼ıäº§åľ°
a ired
ç¼ Ķ
çĦ °
å¤ı å¨ģ
Ġisol ated
Ġde aling
ç«Ļ æĪ¿
Ġvar iation
æĹ¨ åľ¨
ĠOrgan ization
d oor
Ì ĥ
Ġm ic
int s
å¯Ĩ åĪĩ
Ġsou l
Ã §
æĺ¯ ä¸Ńåįİäººæ°ĳåħ±åĴĮåĽ½
ĠO per
Ġobs erve
Ġtrig ger
Ġfind s
ç½ķ é»ĺ
ĠOn line
Ġassign ed
ãĥ ı
å¤ª ç¥ĸ
çº³ åħ¥
æī§ æĶ¿
ç«ĭæĸ¹ ç±³
Ġhus band
å¹´ æ¬§æ´²
æĹ¥ åıĳè¡Į
è° ¨
ç±»ä¼¼ çļĦ
Ġ ï¼ī
å¤ ¸
æīĵ å¼Ģ
ĠN ote
ost ic
Ġrec over
ä¿¡ éķ¿
åıĳçİ° äºİ
æĻº èĥ½
éĶ ¯
ç»ĵ å±Ģ
Ġdynam ic
å·ŀ éķ¿
Ġph osph
æĽ¾ ä¸º
æ±ī è¯Ń
ĠDo es
çļĦæĦı æĢĿ
ĠS ign
Ġus ual
å§Ķ ä»»
æ¤ Ń
æĻº åĪ©
åĨ· åį´
S ec
T ra
se mb
çĶ¨ ä»¥
æ¹ Ľ
å¹¿ å·ŀå¸Ĥ
è½¬ æĬķ
å®Ĺ å®¤
å»¶ ç»Ń
Ï ģ
Ġr oughly
åħī è°±
çŁ¿ çī©
ç¿°æŀĹ éĻ¢
Ġ ×
Ġcl ar
è¿ŀ ç»ĵ
Ġtreat ing
ç»Ħç»ĩ çļĦ
Ġvoc abulary
M O
å½ ¬
å°Ĩ ä»ĸ
æŃ¤ äºĭ
Ġor dered
ĠH am
Ġprov ider
ĠMin ister
å°±è¯» äºİ
å¹´ æĪĲç«ĭ
Ch rist
Ġbi ology
å¤ıå¨ģ å¤·
Ġaut ism
æ© ĺ
åı¤èĢģ çļĦ
çļĦåľ° ä½į
ç» ¥
ot ype
åĲį åı«
è° ķ
åıĤ è®®éĻ¢
Ġinit ially
on al
çļĦ åĽĽ
ĠT able
ä½Ľç½Ĺ éĩĮè¾¾
Ġh osp
Ġlist ening
Ġn ose
ĠM ach
Ġra cial
Ġconf ig
éª¨ éª
æ³ķ ä»¤
åıĤ æĶ¿
ĠFin ally
å¹´ ä»¥æĿ¥
Ġelect ed
éĩĩçĶ¨ äºĨ
usal em
æĭ¿çł´ ä»ĳ
ĠS ar
ort ion
å§Ĳ å§Ĳ
Ġ vel
éĺ¿ å¯Įæ±Ĺ
ert y
Ġfl our
ic ate
åıĸå¾Ĺ äºĨ
è·¯ å¾·
ust ain
æµģ éĩı
ä»ħ æ¬¡äºİ
æľº ç»Ħ
è¯¥ åľ°åĮº
ik a
å©ļ ç¤¼
Ġexcept ion
ä¸Ĭ éĿ¢
å¤± è¸ª
Ġconsider ation
Ġl es
é»Ħ æ²³
ä¹ĭåĲİ çļĦ
M ay
ĠF und
Ġro se
éĵģè·¯ è½¦ç«Ļ
ĠSw ed
Ġ æµ·
ĠT own
ĠF our
å½± å±ķ
åĸľ çĪ±
Ġstruct ural
Ġnit rogen
åİ¿ çŁ¥åİ¿
çĳ ļ
Ġhorm one
Ġst uff
è¯º è´Ŀå°Ķ
å© ·
Ġbre ed
Ġbran ch
ĠI ran
ab b
ĠW ord
ĠN ever
Ġed itor
Ġ198 4
S O
åİ ī
Ġex ceed
çĵ £
ç»§ ä½į
çĩ ¥
Ġkil omet
Ġsen ior
ĠColumb ia
Ġcrim inal
è¡Į é©¶
åĳ¨ åĪĬ
com ing
Ġplan ned
å¹¶ æľī
å¾Ĺ ä¸»
Ġint ent
èĤ¿ çĺ¤
ãĤ Ĩ
åŀ ©
æĹ¥ è¢«
ĠB attle
ĠV iet
å®£ ç§°
çªģ åĩ»
az on
Ġsens itivity
j ust
ç¬¬äºĮ ä¸ª
ĠChrist ians
çļĦ åĲįç§°
åħ¨ åı°
éĵ¶ çīĮ
Ġfin ished
ber ry
Ġinf ect
ç¾İåĽ½ æµ·åĨĽ
Ġ3 3
çº³ æĸ¯
æľºåĻ¨ äºº
Pe ople
æĹł éĻĲ
è§Ĥ èµı
Ø ±
Ġc aught
åĨ ¥
Ġdet ected
Ġident ification
å¦ Ĩ
Ġpl ot
æ¬¡ åĪĹè½¦
T R
it arian
å¼ §
per or
ç² ĺ
ha ust
åľ¨ åı°æ¹¾
ç« ĸ
å¹´ çĶµå½±
æĢ» ç»ıçĲĨ
Ġass ume
en ger
ent er
åĽ½ ä¸Ń
ä¸ģ åł¡
Ġsuff ered
ĠPar liament
D D
Ġg iant
ä¸Ĭ åįĬ
åĪĨ åĮº
ĠU t
çĥ ¦
çĤ¹ çļĦ
èģļ éĽĨ
br id
Ġ ì
åıĬ åĲİ
æ²³ éģĵ
æĻ¶ ä½ĵ
Ġinnov ation
Ġ ä¸Ģ
Ġp and
Ġpe ak
åıĤ çľĭ
ç©Ĩ ç½ķé»ĺ
æµª æ¼«
åģľè½¦ åľº
it i
ĠL ess
all ow
æŃ¤ åľ°
Ġadd s
ç»ĥ ä¹ł
Ġscient ist
ane ously
ĠS qu
åİŁ çĲĨ
æł¹ æľ¬
Ġmus ical
è¿½ æ±Ĥ
åĿĲ èĲ½
è£Ķ ç¾İåĽ½
Ġquant um
å·´ å¡ŀ
ĠBl ue
Ġcommit ment
ãĥ ĳ
Ġ19 30
Ġdis aster
åĮ» èį¯
hy d
å¤ļä¼¦ å¤ļ
éĻĲ å®ļ
å·¥ä½ľ äººåĳĺ
Ġstate ments
A c
B I
Ġde eper
ä¸ī ä½į
äºĴ åĬ¨
ç§Ł çķĮ
est ed
åħ° å·ŀ
äºī åıĸ
å¦Ī å¦Ī
æ´» æĢ§
å¿« ä¹Ĳ
åĴ¸ ä¸°
Ø§ ÙĦ
Ġunus ual
ĠPolic y
åľ¨ æ³ķåĽ½
çĽ ²
åī Į
ĠF igure
Ġr an
èµĽ åĨłåĨĽ
åĬ¨ å·¥
è° £
è°¢ å°Ķ
Ġcook ing
ä½Ĩ ä¸į
ä¿® æŃ£
é¢Ħ æµĭ
ä¼Ĳ åĪ©äºļ
Ġcorn er
æĹı ç¾¤
æŃ» åİ»
Ġbi om
æĲº å¸¦
åŀĭ åı·
Ð° Ð½
d ef
Ġ åĪ¶ä½ľ
re qu
å¥³ äºº
ç§» å±ħ
Ġelimin ate
çļĦ å¦»åŃĲ
åĪĨ è§£
Ġlearn ers
it ory
éģĵ å¾·
æľ¬ æĿ¥
åĬł ä»¥
Ġcomp ens
Ġout er
ĠCl ub
å®¿ èĪį
Ġre aching
ä¸ī æ¬¡
Ġheav ily
ç»Ń éĽĨ
è¾ĥ é«ĺ
åįģäºĮ åİħ
Ġsatis f
ĠAddition ally
u ber
ar ks
Ġphr ase
e ffect
Ġpro ceed
ian o
âĢĶâĢĶ ãĢĬ
è¯Ĩ åĪ«
æĭĽ çĶŁ
ĠSystem s
P I
åħ¬ åŃĲ
æľĢ åıĹæ¬¢è¿İ
å½¢ çĽ®
Ġag ed
åĴĮ å¤§
åħ¬ æ¼Ķ
ĠF ind
çī¹ åĮº
æĺİæĺ¾ çļĦ
ĠPhilipp ines
if er
æľ¬ å±Ĭ
æľº æŀª
åĪĽä½ľ çļĦ
ä¸Ģ å¼Ģå§ĭ
ol esc
åŃ¦ éĥ¨
ĠF acebook
å®ĥ åľ¨
Ġam pl
Ġmeas uring
j i
ĠW al
ç¡¬ æ£ĺ
as ant
æĹ¶ åĪ»
Ġsl a
å½± åĥı
éĽ· è¾¾
æĶ» åįł
Ġmin eral
ĠSim ilar
ç» °
æĺ¯ ä¸į
è½¬ ä¸º
éģŃ åıĹ
ogen ic
çİ° å·²
heim er
ç»ı çºª
ap ing
use t
Ġexperien cing
å¹´ äºİ
Ġst ores
Ġal ter
æĹ© åľ¨
çĭ¬ çī¹çļĦ
ä¸Ģ éĥ¨åĪĨ
ä»£ çłģ
ãĤ į
Ġra b
éķľ å¤´
å¹¸ åŃĺ
æĺĨ æĺİ
çº Ĥ
Ġcon j
çĻ¾ å¹´
Ġsl aves
IS BN
èı²åĪ© æĻ®
ĠF ire
Ġprov iders
è¾½å®ģ çľģ
æĭľåįł åºŃ
U nder
á ŀ
ĠP lease
åĩº èī²
åİ¿ åŁİ
æ´ĭ åŁº
Ġdifficult ies
Ġcat tle
ä¼Ĳ åħĭ
Ġaccomp an
Ġ æĿ¾
åĪ ł
åĬĽ åŃ¦
åĲ Ĺ
Ġreve al
ĠSur vey
Ġdut y
G et
Ġcom plications
éĩĮ éĿ¢
Ġdr iven
å§ĵ æ°ı
åĬłåĪ©ç¦ı å°¼äºļå·ŀ
H ar
åĳ½ è¿Ĳ
æĻ® æĭī
on ym
æĹ¥ ä¸¾è¡Į
åĲĮ æ²»
cent ury
J ust
Ġter ror
e en
åĮĹ ç¾İæ´²
Ġdesc ript
åįİ è¯Ń
ä½ £
ĠF ar
åįĹ æµ·
14 0
è®¤ä¸º æĺ¯
å¼Ĺ åħ°
Ġvide os
Ar t
çļĦ åĽ½éĻħ
Ġh oles
Ġst ations
éĽĨåĽ¢ æľīéĻĲåħ¬åı¸
åŃĺåľ¨ äºİ
åİ»ä¸ĸ åĲİ
Ġquant ity
w orth
re ated
ĠM ax
ä»ĸ å¯¹
åĨĽ åľ¨
å¥ĸ çīĮ
äº§çĶŁ äºĨ
ĠAN D
ic ing
çĲī çĲĥ
Ġsettle ment
å¥´ éļ¶
ç¼ ¸
æ» ¤
èĲ¨æĸ¯ å·ŀ
M D
it ure
åĶĲ ä»£
èĲ¨åħĭ æ£®
ç¬ ł
ç½ ©
å¤ļ ä¸º
ograph ical
åĨ³èµĽ ä¸Ń
ĠBo oks
è½¬åĲĳ æŀ¶
è·ĳ éģĵ
ĠArist otle
èį «
å°± ä»»
ĠMich igan
ĠKore a
Ġpol ar
Ġsla very
å¤ª å®Ĺ
åģļ ä¸º
å½» åºķ
ic ular
Ġsu p
æŃ¦ çĶ°
çģŃ äº¡
w a
ative ly
æ·· åĩĿ
Ġcy ber
âĶĢ âĶĢ
Ġre ward
ç§ ©
am ples
ess ions
åħ¶ é¡¿
ĠL y
å°º å¯¸
f ts
çļĦ ç»ĵæŀľ
æ¬¡ éĥİ
ap or
ĠC ell
åĩº åĵģ
åĪĨ åī²
èµ Ķ
æĪĺ ç»©
åĸ ĩ
ä¼Ĺ äºº
ä¹Ł åĽłæŃ¤
éĢļ çŁ¥
æĳ ĺ
omm od
å¹´åº¦ æľĢä½³
Ġprotect ive
Ġconclud ed
åĮĹ å¸Ĥ
ä¸Ģ èĩ³
ac ent
çī© ä½ĵ
ç¦ı çī¹
C om
Ġ èī¾
æľī çº¿
ans as
å¹´è½» çļĦ
ä¼ļ è®¡
å®Įæķ´ çļĦ
ĠIslam ic
Ġphysic ian
å®ļ ä½į
æĶ¾ å°Ħ
è°ĥ èĬĤ
Ġhard ware
æĽ¿ è¡¥
ç²Ĵ åŃĲ
äºĭ æĥħ
åĽ¢ çļĦ
ä¼į å¾·
Ġstreng then
ĠMod el
æĴŃ åĩºçļĦ
inc oln
omet ric
re al
ĠC at
çŃī å¾ħ
ip her
éŁ³ä¹Ĳ ä¼ļ
Ġprogram me
æłĸæģ¯ åľ¨
s ur
Ġex clus
æīĢ éľĢ
å·´ æĸ¯
Ġtrend s
ĠC orn
ist ed
çĶµæ°Ķ åĮĸ
ï ¹
ĠM ath
ĠB usiness
Ġim aging
å¼º å¤§çļĦ
ĠEl izabeth
é¥Ń åºĹ
Ġlung s
å©´ åĦ¿
Ġregard less
ç²® é£Ł
åĵ ©
åĪĹ å®ģ
åĵĪ éĩĮ
Ġequ ation
ç§ ī
åħ· å¤ĩ
å£° ä¼ĺ
Ġdef end
ç¬¬ä¸ī æ¬¡
æĲ ŀ
éĴ¢ éĵģ
æ°Ķ æĹĭ
Ġam azing
å®Į ç¾İ
è¯¸ èĳĽ
Ġpsych ology
Ġdri ver
am ine
é«ĺ äºİ
ä¼¯ æł¼
ĠPre vention
Ġmos quit
m iss
ĠT om
ach uset
ç¦ı å°Ķ
æı´ åĬ©
Ġinsp ired
çİ« çĳ°
Ġad vent
é¦ĸ å°Ķ
é»İ æĺİ
Ġconsum e
æŀ¢ æľº
éĺŁ åľ¨
éĤ ¨
Ġwrit es
ĠLe ague
u is
Ġor bit
åŁ ł
ĠB al
åįĹ è·¯
æĭī çļĦ
åħĥ æľĿ
sy l
Ġinvestig ation
ç° §
éĤ ¸
Ġwor st
æĪĺ è´¥
å¢ ©
Ġline ar
Ġdiet ary
âĪ Ĵ
Ġm g
åĪ© çī©
è®¾ åľ¨
å·´ ä¼ĲåĪ©äºļ
ä¸ĸçķĮ çļĦ
Ġext end
Ġsepar ated
èĩªè¡Į è½¦
ä¸º å¤§
æķĪ çİĩ
Ġsit ting
Ġcorrect ly
ä»¥ åħ¶
ĠM ot
Ġad verse
æĹı èĩªæ²»
å®« æ®¿
iox id
éĽ ¯
çİĭ å®¤
ä¸ĸçķĮ å¤§èµĽ
ĠCur rent
Ġ ä¸İ
Ġm ir
ä¸ĭ å±ŀ
é¦ĸ æī¹
éĴ ©
èŁ ¹
ĠSup reme
Ġold est
åİĦ å°Ķ
ĠConf ed
Ġc ash
èµ £
è¯Ĺ æŃĮ
arent s
Ġinh abit
ĠC r
ĠL ead
æĽ´ æĺ¯
Ġprof it
Ġaffect ing
ç§ĳ çłĶ
çĭ ¸
çĻ½ åŀ©
åĳ¨ æľ«
Ġautom atically
Ġchann el
åĽł åŃĲ
Ġman ifest
å°± æľī
åħī ç¦Ħ
è¯» ä¹¦
ç§Ł åĢŁ
achuset ts
ä¸ī å¤§
æĪĸ ç§°
æİ¥ ä»»
åĵº ä¹³
è® ¼
ĠS et
van ia
Ġsche dule
æ··åĩĿ åľŁ
çļĦ å±±
çļĦ åŃ¦çĶŁ
Ġm igration
ĠU r
çĽ´ å±ŀ
Ġany where
Ġprint ed
å¯¹ æĪĺ
éħį ä¹Ĳ
è´¹ åŁİ
Ġdis abilities
Ġdes ert
è½¬ ä»»
R T
S L
ĠD utch
æīĭ æŀª
åĩł åĨħäºļ
ĠMed ia
ä¸» æĴŃ
æĢ» äººåı£
åľ¨è¿Ļ éĩĮ
åľ¨ å½ĵæĹ¶
st ru
ç«Ļ èĩ³
çľŁ èıĮ
äººæ°ĳ æ³ķéĻ¢
å§Ķåĳĺä¼ļ å§Ķåĳĺ
Ġcomput ing
æ´ª æ°´
Ġt ropical
å¦ ¾
Ġen ables
éĥ½ ä¸į
æıĲ åīį
ç®Ģ åİĨ
ra ys
Ġen orm
ä½¿ èĢħ
æĪ¿ åŃĲ
Ġobserv ation
ĠCam bridge
Ġd rought
Ġk illing
ĠProt ection
Ġ åĲī
ĠI ss
æĶ¹ è£ħ
ä¾Ľ å¥ī
æĿ¿ åĿĹ
æ²³ åı£
è¾ĵ åĩº
è´Ń çī©
v ard
å¹´ åĬłåħ¥
æľĪ åºķ
åħ¬ çº¦
æĢ§ åĴĮ
åĥı æĺ¯
Ġreport ing
Ġme als
å®Ī å¤ĩ
ils on
Ġfat ty
ä¹ĭ æĹ¶
Ġcover ing
f ast
ĠC H
ä¹ĭ ä¸Ĭ
å¸ĥ ç½Ĺ
è° ı
Ġra c
å¤į ä»ĩ
E X
åİĨ ä»£
Ġprocess ed
d a
ĠDe v
â ĸ
éĹ ¹
ç¤º èĮĥ
æĻ¯ è§Ĥ
ĠInd ones
åįģ ä¸ĥå¹´
å¹³ è¡Į
æł¡ èĪį
F ig
èģĶ ç½ĳ
æľĢåĲİ çļĦ
roll ed
Ġbacter ial
åĬ² çĪĨ
ĠAut hor
ol t
ie val
ob ile
æ¸ħ çľŁ
å¤©æĸĩ åŃ¦å®¶
Ġ çĪ±
ĠP ur
Ġwhe at
Ġintrodu ce
Ġvers ions
æ¡£ æ¡Ī
C L
it ual
ort ed
æĸ¹ å½¢
ĠJer usalem
éĿ¢ åĲĳ
é¦ĸ æĺł
åħŃ ä¸ª
ĠHe art
Ġse at
Ġover come
b ell
æ¯į èĪ°
Ġdep ict
Ġdem ocracy
ĠMod ern
Ġemphas is
ĠK enn
Ġsc ar
éº ĵ
æ·± åħ¥
epend ent
Ġag ent
Ġmanufacture rs
éĢ ¾
ä¸ĸçºª æľ«
æ¼ ³
ç¨ ½
æĲŃ æ¡£
Ã³ n
E ng
å® ¦
ol s
çĶµ è·¯
ĠSt art
ĠPl ay
ä¸¥éĩį çļĦ
çĩĥ çĥ§
ĠDirect or
Ġparam eters
et ary
æ· ĭ
åħ¶ä»ĸ çļĦ
æĺ¯ å¤§
çĮ ©
è¿½æº¯ åĪ°
åŃ ¢
æº¶ æ¶²
çĽ¸ ç»§
ĠPak istan
Ġsc ores
Ġengine ers
T H
st ra
éĥ¨ ç½²
å¢ ħ
Ġgr anted
æļ´ åĬĽ
m ond
éĻ ĩ
Ġas c
ĠD own
ä½ĵ éªĮ
Ġdirect ed
acks on
Ġantib iotics
Ste p
éĽį æŃ£
at hered
çļĦ å®¶
ut ing
çķ ı
æĿĳ åĲĪå¹¶ä¸º
æ´Ľ ä¼Ĭ
Ġsl ave
åĪ©çī© æµ¦
Ã º
æ°´ åŁŁ
Ġmount ains
ĠQue en
Ġb rows
åħ¶ çĪ¶
ç¦ ¾
çīĽ æ´¥
ä¸İæŃ¤ åĲĮæĹ¶
c in
iv est
aw a
åį¢çĵ¦å°Ķ çľģ
Ġm ine
ä¸Ń åİŁ
å¤© ä½ĵ
éľ ī
ange red
æĸŃ å±Ĥ
å¼Ģ åĲ¯
Ġ19 20
æĹ© ä¸Ĭ
éĢļå¸¸ æĺ¯
çĶŁäº§ çļĦ
èħ¹ éĥ¨
éĩįçĤ¹ æĸĩçī©ä¿ĿæĬ¤åįķä½į
ac hers
Ġpe oples
åĵĪ å¾·
åľ¨ åĨħ
ad ow
çĶµ æ±ł
ag an
è¶ ¾
Ġcor on
Ġ198 3
Ġneighbor hood
ç©Ĩç½ķé»ĺ å¾·
ä¸Ń ä¸ĸçºª
æ°´ ä¸Ń
Ġreg ulation
Ġins ight
éĽĨåĽ¢ åĨĽ
Ġchem istry
çļĦ å»ºçŃĳ
ç¤¼ éĥ¨
æİĮ æı¡
1 18
ĠP ass
åĪ¶ åĬ¨
éĤ£ ä¸ª
Ġworkshe ets
è¿· ä½ł
Ġidentify ing
ĠB ang
ide o
æĬĢ èĥ½
Ġperson ality
åĩ»è´¥ äºĨ
åľ¨ ç¬¬
ä¸ĭ æĿ¥çļĦ
Ġgrow s
ul pt
é¥ ¥
Ġpre ced
å§Ķåĳĺä¼ļ ä¸»å¸Ń
èī¯ å¥½
æıĲåĩº äºĨ
Ġcont ribution
ä½įäºİ è¯¥
è¥¿ è·¯
æľĢ å¤ļçļĦ
è° ľ
çĪ ½
è¦ģ å¡ŀ
ĠWith out
Ġfall ing
æ±Łè¥¿ çľģ
Ġvict im
W here
h us
Ġ ç¾İ
çħ ®
éĺ² ç©º
æ¸Ĳ æ¸Ĳ
Ġvacc ines
éĵľ çīĮ
çĻĮ çĹĩ
ĠC reek
ä¸º åŁºç¡Ģ
Ġk g
Ġaddress ed
ĠLear n
N ote
æ² §
ĠB oston
ang le
ä¸ĩ å¹³æĸ¹ç±³
Ġacqu ired
Ġab ilities
Ġcre w
Ġoverw hel
é² Ī
åı¯ä»¥ æĮĩ
ä¼Ĭæĸ¯åħ° æķĻ
Ġl ip
ä¸Ĭ å°Ĩ
åįĹ æŀģ
åĽŀ çŃĶ
åįłåľ° éĿ¢ç§¯
ra ham
ĠB ack
éĥ¨ éĥ¨éķ¿
éĢĲ æŃ¥
éĩĳ æĸ¯
è¿ľ å¾ģ
Ġpoint ed
å¤ľ éĹ´
Ġther mal
Ġd im
èİ º
æľŁ åĪĬ
èĨ Ģ
Ġc ort
ig er
ĠG ar
èº« é«ĺ
Ġvit amins
ĠM ur
Ġsens or
Ġh idden
ä½Ĩ ä»į
Ġsur ge
çļĦå¤§ åŀĭ
Ab out
è¯º æĸ¯
å®¡ æŁ¥
åİ ¥
åĲį è¯į
åħŃ ä¸ĸ
åĽ½å®¶ è¶³çĲĥéĺŁ
Ġm ixture
å°Ħ æīĭ
m ia
Î µ
å¯¹ è¯Ŀ
Ġep is
åĬ² æŃĮ
et ing
og s
èĵ ī
Ġappoint ed
Ġs izes
ĠC irc
Ġsp ray
å½ĵ æĹ¥
dition al
Ġper mission
ç£ ħ
Ġhypothes is
Ġt on
Ġf inger
å°¼ æ³Ĭ
æĢ» æĺ¯
ä¼Ĭ å°Ķ
å±Ģ çļĦ
opy right
åĲİ åĽł
åıį å°Ħ
Ġcontribut ed
Ġal ph
Ġhe nce
pl ay
ĠOr ig
Ġprotect ing
éļĶ ç¦»
çī© è¯Ń
ãĤ »
æīĭ æ®µ
åĽŀ æĿ¥
Ġsens ors
Ġinteract ive
. ).
Ġh al
Ġab stract
Ġsim ult
åŃ¦ ç³»
æĻ® ç½Ĺ
P L
ri p
aw s
åĨĻ çļĦ
æİĴåĲį ç¬¬
Ġveget ation
æµĵ åº¦
åī© ä½Ļ
Ġn ice
å¾· çĶ²
åĽŀ å®¶
Ġoccur ring
ĠCons ervation
åıĤèµĽ èĢħ
ĠPal est
b ul
r at
ð ¬
æ°´ çļĦ
Ġ4 8
å±± é¡¶
ast s
æ¡ ¶
æ£ į
è¾ĥ å°ĳ
Ġlog ic
åĴ ¬
ĠF ather
ä¸ī å±Ĥ
å·´ åĭĴ
Ġobject ives
Ġer u
Ġoffic er
ä¸Ģ çĶŁ
æĸ¯ éĩĮ
æ°´ åĪ©
Ġform ing
Ġweak ness
Ġchrom os
è§ģ åĪ°
bo oks
Ġcelebr ated
èĭ¹ æŀľ
S N
ä¹Ł ç§°
ĠAss ess
Ġregard ed
Ġinnov ative
Ġconscious ness
éĿĴ æµ·
çļĦå¥³ æĢ§
Ġsun light
å°¼åı¤ æĭī
åį ¯
ç¦ ¹
C ons
Ġc otton
ĠC ode
åıĬ åħ¶ä»ĸ
ä½¿ ä»ĸ
ä¸Ńå¿ĥ çļĦ
ĠCol l
Ġwind ows
ä¿ĺ èĻı
Ġcere mon
äºº ä½ĵ
é©¬ åħ¶é¡¿
Ġar ray
æ» ´
Ġcharacter istic
ä¸ŃåĽ½ ç§ĳåŃ¦éĻ¢
ä¾Ŀ çħ§
Ġsent ences
èĴ¸ æ±½
A ut
ĠP oint
ric ted
Ġplay er
åĨ ¶
Ġad m
ail able
åīĳ æ¡¥
Ġtum or
à ¹
Ġh all
TV B
r in
ĠB u
é«ĺ åľ°
Ġun iform
é£İ äºĳ
Ġtechn ological
Ġvis ited
å¼¹ åĬ¾
Ġox id
e ut
w ords
Ġc oc
Ġthere by
