{"<｜UNK｜>":0,"<｜begin▁of▁sentence｜>":1,"<｜end▁of▁sentence｜>":2,"!":3,"\"":4,"#":5,"$":6,"%":7,"&":8,"'":9,"(":10,")":11,"*":12,"+":13,",":14,"-":15,".":16,"/":17,"0":18,"1":19,"2":20,"3":21,"4":22,"5":23,"6":24,"7":25,"8":26,"9":27,":":28,";":29,"<":30,"=":31,">":32,"?":33,"@":34,"A":35,"B":36,"C":37,"D":38,"E":39,"F":40,"G":41,"H":42,"I":43,"J":44,"K":45,"L":46,"M":47,"N":48,"O":49,"P":50,"Q":51,"R":52,"S":53,"T":54,"U":55,"V":56,"W":57,"X":58,"Y":59,"Z":60,"[":61,"\\":62,"]":63,"^":64,"_":65,"`":66,"a":67,"b":68,"c":69,"d":70,"e":71,"f":72,"g":73,"h":74,"i":75,"j":76,"k":77,"l":78,"m":79,"n":80,"o":81,"p":82,"q":83,"r":84,"s":85,"t":86,"u":87,"v":88,"w":89,"x":90,"y":91,"z":92,"{":93,"|":94,"}":95,"~":96,"¡":97,"¢":98,"£":99,"¤":100,"¥":101,"¦":102,"§":103,"¨":104,"©":105,"ª":106,"«":107,"¬":108,"®":109,"¯":110,"°":111,"±":112,"²":113,"³":114,"´":115,"µ":116,"¶":117,"·":118,"¸":119,"¹":120,"º":121,"»":122,"¼":123,"½":124,"¾":125,"¿":126,"À":127,"Á":128,"Â":129,"Ã":130,"Ä":131,"Å":132,"Æ":133,"Ç":134,"È":135,"É":136,"Ê":137,"Ë":138,"Ì":139,"Í":140,"Î":141,"Ï":142,"Ð":143,"Ñ":144,"Ò":145,"Ó":146,"Ô":147,"Õ":148,"Ö":149,"×":150,"Ø":151,"Ù":152,"Ú":153,"Û":154,"Ü":155,"Ý":156,"Þ":157,"ß":158,"à":159,"á":160,"â":161,"ã":162,"ä":163,"å":164,"æ":165,"ç":166,"è":167,"é":168,"ê":169,"ë":170,"ì":171,"í":172,"î":173,"ï":174,"ð":175,"ñ":176,"ò":177,"ó":178,"ô":179,"õ":180,"ö":181,"÷":182,"ø":183,"ù":184,"ú":185,"û":186,"ü":187,"ý":188,"þ":189,"ÿ":190,"Ā":191,"ā":192,"Ă":193,"ă":194,"Ą":195,"ą":196,"Ć":197,"ć":198,"Ĉ":199,"ĉ":200,"Ċ":201,"ċ":202,"Č":203,"č":204,"Ď":205,"ď":206,"Đ":207,"đ":208,"Ē":209,"ē":210,"Ĕ":211,"ĕ":212,"Ė":213,"ė":214,"Ę":215,"ę":216,"Ě":217,"ě":218,"Ĝ":219,"ĝ":220,"Ğ":221,"ğ":222,"Ġ":223,"ġ":224,"Ģ":225,"ģ":226,"Ĥ":227,"ĥ":228,"Ħ":229,"ħ":230,"Ĩ":231,"ĩ":232,"Ī":233,"ī":234,"Ĭ":235,"ĭ":236,"Į":237,"į":238,"İ":239,"ı":240,"Ĳ":241,"ĳ":242,"Ĵ":243,"ĵ":244,"Ķ":245,"ķ":246,"ĸ":247,"Ĺ":248,"ĺ":249,"Ļ":250,"ļ":251,"Ľ":252,"ľ":253,"Ŀ":254,"ŀ":255,"Ł":256,"ł":257,"Ń":258,"Ġt":259,"ï¼":260,"ä¸":261,"Ġa":262,"he":263,"in":264,"ãĢ":265,"ï¼Į":266,"re":267,"on":268,"Ġthe":269,"er":270,"äº":271,"at":272,"Ġo":273,"Ġs":274,"çļ":275,"çļĦ":276,"ãĢĤ":277,"en":278,"Ġc":279,"æľ":280,"es":281,"Ġw":282,"is":283,"an":284,"åı":285,"åħ":286,"it":287,"or":288,"å¹":289,"al":290,"Ġp":291,"Ġan":292,"ed":293,"Ġb":294,"Ġof":295,"Ġf":296,"ä»":297,"ing":298,"å¤":299,"ar":300,"Ġin":301,"ou":302,"åľ":303,"Ġm":304,"Ġand":305,"ic":306,"åĲ":307,"Ġto":308,"åĪ":309,"ion":310,"Ġd":311,"å¹´":312,"å®":313,"åĽ":314,"çĶ":315,"le":316,"ä½":317,"åį":318,"ro":319,"æĹ":320,"as":321,"âĢ":322,"å°":323,"æĸ":324,"ãĢģ":325,"æĺ":326,"ä¹":327,"è¿":328,"Ġh":329,"ent":330,"Ġth":331,"ç»":332,"åŃ":333,"ct":334,"il":335,"Ġe":336,"æĪ":337,"Ġre":338,"åľ¨":339,"ä¸Ģ":340,"om":341,"ï¼Ī":342,"ï¼ī":343,"ä¸º":344,"ve":345,"Ġl":346,"ä¼":347,"st":348,"å¸":349,"åĬ":350,"åĮ":351,"Ġn":352,"åĨ":353,"æĿ":354,"è¯":355,"20":356,"ä¸Ń":357,"ly":358,"Ġbe":359,"Ġis":360,"å·":361,"æĺ¯":362,"ĠT":363,"çī":364,"è®":365,"å¾":366,"åĽ½":367,"ol":368,"se":369,"å¼":370,"åº":371,"éĩ":372,"çº":373,"Ġg":374,"ation":375,"å¤§":376,"äºº":377,"et":378,"im":379,"19":380,"id":381,"ç§":382,"äºİ":383,"å±":384,"ce":385,"ot":386,"åĩ":387,"æī":388,"ut":389,"ur":390,"ch":391,"éĥ":392,"ra":393,"ĠA":394,"ĠS":395,"ow":396,"æľī":397,"è¡":398,"éĢ":399,"åİ":400,"èµ":401,"åĴ":402,"æŃ":403,"ig":404,"Ġfor":405,"æľĪ":406,"å¥":407,"ĠC":408,"Ġu":409,"åĴĮ":410,"å½":411,"Ġon":412,"Ġthat":413,"éĻ":414,"èĢ":415,"çİ":416,"æķ":417,"Ġst":418,"ver":419,"çĽ":420,"æĶ":421,"æĹ¥":422,"ir":423,"ĠI":424,"éĺ":425,"Ġy":426,"å¯":427,"am":428,"ul":429,"æĭ":430,"èĩ":431,"ay":432,"el":433,"æł":434,"åĲİ":435,"æ°":436,"åŃ¦":437,"ith":438,"ad":439,"æ²":440,"Ġas":441,"æ³":442,"ç«":443,"ä»¥":444,"æµ":445,"her":446,"Ġ(":447,"è§":448,"Ġpro":449,"åĳ":450,"Ġare":451,"äºĨ":452,"ï¼ļ":453,"çĲ":454,"Ġcon":455,"æĹ¶":456,"ĠM":457,"è½":458,"Ġwith":459,"if":460,"åī":461,"è´":462,"æĪĲ":463,"åľ°":464,"è¾":465,"Ġyou":466,"ter":467,"Ġor":468,"od":469,"Ġwh":470,"Ġal":471,"æĸ¯":472,"åŁ":473,"Ġit":474,"éĹ":475,"ĠP":476,"ä¸Ĭ":477,"æĢ":478,"nd":479,"ç¬":480,"åĩº":481,"ä¼ļ":482,"ä»ĸ":483,"ĠThe":484,"ge":485,"æ¯":486,"ment":487,"çĶŁ":488,"ä¸ª":489,"æ´":490,"th":491,"ĠB":492,"éĥ¨":493,"ãĢĭ":494,"ãĢĬ":495,"op":496,"éķ":497,"æŀ":498,"Â·":499,"æĽ":500,"us":501,"ist":502,"æ¸":503,"ers":504,"Ġde":505,"ä¸į":506,"ä¸İ":507,"ä½ľ":508,"ä¹ĭ":509,"ate":510,"éĿ":511,"ab":512,"ill":513,"ess":514,"ç¬¬":515,"éģ":516,"èĥ":517,"ies":518,"æĬ":519,"åĲį":520,"åħ¬":521,"Ġex":522,"Ġhe":523,"è¡Į":524,"å°Ķ":525,"âĢľ":526,"ä¿":527,"um":528,"âĢĿ":529,"ect":530,"âĢĻ":531,"ore":532,"ĠH":533,"and":534,"Ġwe":535,"ä¸»":536,"å®¶":537,"åĮº":538,"Ġcom":539,"è¥":540,"ac":541,"æİ":542,"ç½":543,"ity":544,"est":545,"è¥¿":546,"os":547,"201":548,"ure":549,"åĪĨ":550,"åħ¶":551,"ive":552,"è¢":553,"åıĳ":554,"éĽ":555,"åŃĲ":556,"å¿":557,"è·":558,"Ġv":559,"ĠW":560,"rom":561,"ke":562,"!!":563,"çŃ":564,"ant":565,"ld":566,"em":567,"iv":568,"qu":569,"Ġsu":570,"ĠD":571,"ain":572,"Ġby":573,"Ġ1":574,"æ±":575,"nt":576,"00":577,"æľ¬":578,"æ¬":579,"åĨĽ":580,"ĠE":581,"pp":582,"å»":583,"ç¾":584,"ĠR":585,"é¦":586,"Ġat":587,"çĶ¨":588,"åĪ°":589,"igh":590,"åĵ":591,"è¢«":592,"ud":593,"Ġha":594,"oc":595,"å§":596,"ĠF":597,"ä¾":598,"èĭ":599,"Ġcan":600,"end":601,"å¹¶":602,"Ġwas":603,"åįĹ":604,"é¢":605,"Ġfrom":606,"Ġr":607,"èģ":608,"Ġch":609,"ort":610,"èĢĮ":611,"é©":612,"éķ¿":613,"ä¸ĭ":614,"èī":615,"200":616,"çī¹":617,"çľ":618,"res":619,"åıĬ":620,"Ġne":621,"ç±":622,"ial":623,"ĠG":624,"çĶ±":625,"å¸Ĥ":626,"ä½į":627,"un":628,"ä¸ī":629,"Ġse":630,"ĠL":631,"æĮ":632,"ä¸ľ":633,"æĿ¥":634,"ĠN":635,"èµĽ":636,"å¾·":637,"æľĢ":638,"art":639,"åħĭ":640,"åĲĮ":641,"èİ":642,"æ³ķ":643,"te":644,"ical":645,"Ġnot":646,"Ġle":647,"é«":648,"åĮĹ":649,"ri":650,"éĩĮ":651,"å¼Ģ":652,"æĸ¹":653,"åı¯":654,"å£":655,"éģĵ":656,"å¤ļ":657,"æĻ":658,"å²":659,"é«ĺ":660,"çŁ":661,"æĸ°":662,"çĶµ":663,"ãĥ":664,"og":665,"çī©":666,"äºļ":667,"ç¥":668,"åīį":669,"åĿ":670,"è¿Ļ":671,"èĩª":672,"Ġhave":673,"äºĮ":674,"åĳĺ":675,"çĲĥ":676,"åĬł":677,"æĸĩ":678,"å¯¹":679,"åĬ¨":680,"ä»»":681,"è·¯":682,"åĪ©":683,"è½¦":684,"Ġsh":685,"èĪ":686,"Ġsp":687,"ä¸ĸ":688,"èĬ":689,"å±±":690,"å»º":691,"å¾Ĺ":692,"Ġthis":693,"ãģ":694,"ç¾İ":695,"å¦":696,"èĩ³":697,"all":698,"åįģ":699,"æµ·":700,"pt":701,"æīĢ":702,"ich":703,"æ¼":704,"ç©":705,"å°ı":706,"çİ°":707,"ä»£":708,"é¡":709,"åĽł":710,"äºĭ":711,"ight":712,"é©¬":713,"rou":714,"Ġwor":715,"red":716,"æľº":717,"èĲ":718,"æĪĺ":719,"¦ģ":720,"The":721,"Ġab":722,"éĹ´":723,"æĭī":724,"åħ¥":725,"è¿Ľ":726,"our":727,"ost":728,"åĨħ":729,"éĺŁ":730,"çķ":731,"ä¹Ł":732,"ions":733,"ç»ı":734,"è°":735,"ine":736,"çĪ":737,"éļ":738,"è¿ĩ":739,"ther":740,"gh":741,"ãĢį":742,"ãĢĮ":743,"æķĻ":744,"éĵ":745,"å¤©":746,"åľº":747,"ould":748,"ag":749,"ome":750,"ard":751,"å°Ĩ":752,"æŃ¤":753,"per":754,"du":755,"è¶":756,"ated":757,"Ġim":758,"è¦ģ":759,"èĤ":760,"åĲĪ":761,"çŃī":762,"æĶ¿":763,"çĻ":764,"Ġus":765,"ell":766,"åı°":767,"ĠO":768,"å·¥":769,"çº¿":770,"å¹³":771,"ä½ĵ":772,"ç¤":773,"å·ŀ":774,"act":775,"ff":776,"æľŁ":777,"Ġpl":778,"ide":779,"çİĭ":780,"èĥ½":781,"çĲĨ":782,"é£":783,"out":784,"æĥ":785,"åĪ¶":786,"ç«Ļ":787,"ä¸ļ":788,"Ġen":789,"ĠJ":790,"Ġtheir":791,"pl":792,"éĢļ":793,"ãĤ":794,"ak":795,"æ¬¡":796,"Ġ19":797,"ans":798,"è®¾":799,"ç®":800,"ç«ĭ":801,"ear":802,"æ¼Ķ":803,"å½ĵ":804,"age":805,"ec":806,"å¤ĸ":807,"ç§ĳ":808,"Ġk":809,"æ°ĳ":810,"æĦ":811,"åº¦":812,"ast":813,"åĮĸ":814,"ust":815,"ç½Ĺ":816,"ä½Ĩ":817,"ia":818,"ĠU":819,"å¸ĥ":820,"Ġyour":821,"iz":822,"éŁ":823,"ç§į":824,"éĿ¢":825,"ä½¿":826,"å®ī":827,"ous":828,"Ġwhich":829,"ï¼īï¼Į":830,"Ġwhe":831,"åı·":832,"èģĶ":833,"æı":834,"Ġthey":835,"èĢħ":836,"ap":837,"ood":838,"å®ļ":839,"ç³":840,"æŁ":841,"æģ":842,"ib":843,"10":844,"åħ¨":845,"ĠIn":846,"ç§°":847,"ç¼":848,"åİŁ":849,"ult":850,"æ¯Ķ":851,"é»":852,"åŁİ":853,"ru":854,"Ġall":855,"éĻ¢":856,"ç¦":857,"è¡¨":858,"ong":859,"Ġad":860,"ip":861,"éĤ":862,"éĩį":863,"çł":864,"æ¡":865,"!!!!":866,"Ġwill":867,"Ġinc":868,"è¯¥":869,"æĢ§":870,"cc":871,"ï¼Ľ":872,"éĩĳ":873,"Ġcomp":874,"ie":875,"ä¸¤":876,"Ġdis":877,"çĤ":878,"åı¸":879,"éĥ½":880,"å£«":881,"Ġmore":882,"åİ¿":883,"ä¸Ģä¸ª":884,"åĬĽ":885,"vel":886,"Ġcont":887,"æį":888,"Ġres":889,"ations":890,"åĽĽ":891,"orm":892,"æĺİ":893,"Ġhas":894,"å¥³":895,"ary":896,"so":897,"çĽ¸":898,"çľģ":899,"æ°´":900,"æł¼":901,"éħ":902,"å¼ı":903,"Ġdo":904,"å¢":905,"çģ":906,"ater":907,"å½±":908,"èį":909,"åı²":910,"are":911,"Ġint":912,"ç¨":913,"åŁº":914,"18":915,"ĠTh":916,"èĳ":917,"ç³»":918,"ence":919,"å¡":920,"able":921,"ry":922,"ild":923,"åħ°":924,"æŃ£":925,"xt":926,"å°¼":927,"åŀ":928,"ks":929,"ual":930,"ç±³":931,"Ġcl":932,"Ġman":933,"Ġother":934,"çº¦":935,"éĺ¿":936,"ind":937,"çĽ®":938,"åħĥ":939,"âĢĶ":940,"æ£":941,"åģ":942,"ç»Ħ":943,"èĭ±":944,"Ġbut":945,"Ġwere":946,"æ®":947,"è¾¾":948,"ä¹Ĳ":949,"Ġme":950,"æķ°":951,"ance":952,"èī²":953,"è¿Ĳ":954,"ach":955,"av":956,"Ġte":957,"åĪĹ":958,"ren":959,"ĠâĢľ":960,"æ²»":961,"Ġper":962,"åħ³":963,"æ¹":964,"ass":965,"ep":966,"èµ·":967,"ents":968,"Ġimp":969,"12":970,"é¦ĸ":971,"Ġalso":972,"ose":973,"ä¸ŃåĽ½":974,"Ġone":975,"reat":976,"'s":977,"ign":978,"au":979,"éĢī":980,"åĶ":981,"æĪĸ":982,"æĢ»":983,"ake":984,"æĶ¹":985,"æŀĹ":986,"çĦ":987,"ä»¬":988,"Ġ2":989,"è®¡":990,"å¨":991,"é¥":992,"åħ±":993,"æīĭ":994,"ress":995,"åı£":996,"ber":997,"åİĨ":998,"å±ŀ":999,"ä»İ":1000,"ase":1001,"å¿ĥ":1002,"Ġ-":1003,"ĠK":1004,"é¾":1005,"ice":1006,"Ġj":1007,"one":1008,"of":1009,"ction":1010,"ition":1011,"æ¶":1012,"æ¸¯":1013,"å¸¸":1014,"ens":1015,"è§Ĩ":1016,"ord":1017,"fe":1018,"ime":1019,"Ġout":1020,"è£":1021,"Ġar":1022,"åĲĳ":1023,"Ġun":1024,"ace":1025,"ok":1026,"åĢ":1027,"éĶ":1028,"âĢĵ":1029,"very":1030,"æĿĳ":1031,"æ²³":1032,"Ġpart":1033,"ack":1034,"Ġapp":1035,"æĹł":1036,"ish":1037,"æ·":1038,"ount":1039,"ç´":1040,"éľ":1041,"ang":1042,"äº§":1043,"åł":1044,"éŁ³":1045,"ory":1046,"åī§":1047,"Ġabout":1048,"ub":1049,"æ¢":1050,"Ġev":1051,"ä¹¦":1052,"ire":1053,"å·´":1054,"åįİ":1055,"Ġstud":1056,"å¦Ĥ":1057,"ame":1058,"äº¤":1059,"ĠSt":1060,"11":1061,"æİ¥":1062,"ç»Ł":1063,"ç»ĵ":1064,").":1065,"æıĲ":1066,"éĽĨ":1067,"çº§":1068,"ue":1069,"çķĮ":1070,"åĵģ":1071,"Ġpe":1072,"éĹ¨":1073,"å¹¿":1074,"æĴ":1075,"å¤ª":1076,"çĦ¶":1077,"åŀĭ":1078,"åĭ":1079,"éĴ":1080,"Ġwho":1081,"ite":1082,"Ġinf":1083,"è¯Ń":1084,"Ġsy":1085,"èİ·":1086,"æĽ²":1087,"éª":1088,"ä¿Ŀ":1089,"ors":1090,"ç±»":1091,"åį¡":1092,"æĺŁ":1093,"å¤«":1094,"ew":1095,"ces":1096,"ike":1097,"Ġsc":1098,"Ġso":1099,"Ġ*":1100,"Ġhis":1101,"ric":1102,"éĩı":1103,"äºĶ":1104,"åıĤ":1105,"olog":1106,"ree":1107,"ound":1108,"Ġcomm":1109,"199":1110,"Ġthem":1111,"æĽ¾":1112,"è¯´":1113,"å½¢":1114,"ç»´":1115,"now":1116,"ĠCh":1117,"éĵģ":1118,"å®ŀ":1119,"èº":1120,"æł¡":1121,"low":1122,"çĽ´":1123,"çĭ":1124,"åĬ¡":1125,"æº":1126,"é¾Ļ":1127,"Ġ\"":1128,"åĮħ":1129,"åºľ":1130,"å§ĭ":1131,"æĦı":1132,"Ġpre":1133,"çĥ":1134,"ĠIt":1135,"é¦Ļ":1136,"åĽ¢":1137,"å°±":1138,"Ġbec":1139,"ä¼ł":1140,"ĠV":1141,"ian":1142,"ph":1143,"Ġqu":1144,"Ġmay":1145,"15":1146,"ç¥ŀ":1147,"æ±Ł":1148,"ile":1149,"Ġthan":1150,"Ġup":1151,"æµģ":1152,"ç¾İåĽ½":1153,"èĮ":1154,"å¸Ī":1155,"ä¸ĩ":1156,"ays":1157,"ail":1158,"èº«":1159,"åı¤":1160,"åıĹ":1161,"å²Ľ":1162,"ople":1163,"åįķ":1164,"Ġ3":1165,"ç¨ĭ":1166,"å¯¼":1167,"Ġrec":1168,"çŁ³":1169,"Ġsome":1170,"Ġ201":1171,"åħ¬åı¸":1172,"ä¹ī":1173,"åĽŀ":1174,"ates":1175,"ings":1176,"é²":1177,"Ġyear":1178,"çĹ":1179,"çı":1180,"çºª":1181,"å¤§åŃ¦":1182,"nder":1183,"ç©º":1184,"èĻ":1185,"å¥¥":1186,"çĤ¹":1187,"rit":1188,"Ġwhen":1189,"åĪĻ":1190,"mer":1191,"Ġbeen":1192,"Ġthere":1193,"æ»":1194,"æ¸¸":1195,"ç®¡":1196,"å·²":1197,"æľ¯":1198,"çĿ":1199,"é¥°":1200,"Ġinto":1201,"ough":1202,"text":1203,"vers":1204,"Ġits":1205,"Ġtra":1206,"æĥħ":1207,"ll":1208,"å¥ĸ":1209,"Ġgo":1210,"Ġwork":1211,"å¤Ħ":1212,"Ġag":1213,"ond":1214,"ons":1215,"Ġtime":1216,"ä½įäºİ":1217,"é¢Ĩ":1218,"èĳĹ":1219,"è®®":1220,"èĬĤ":1221,"ç¤¾":1222,"ĠThis":1223,"Ġdif":1224,"erv":1225,"Ġover":1226,"tern":1227,"æľĿ":1228,"Ġthese":1229,"å®ĺ":1230,"Ġpeople":1231,"Ġhow":1232,"ç¿":1233,"Ġro":1234,"èĦ":1235,"ally":1236,"æĮĩ":1237,"ove":1238,"ç²":1239,"éĢł":1240,"çĶ°":1241,"lud":1242,"rough":1243,"ific":1244,"äº¬":1245,"åħī":1246,"çĬ":1247,"ms":1248,"èĴ":1249,"åºĶ":1250,"rent":1251,"ause":1252,"ï¼īãĢĤ":1253,"Ġtr":1254,"åĸ":1255,"è§Ĵ":1256,"we":1257,"Ġcons":1258,"ĠY":1259,"Ġuse":1260,"çĻ½":1261,"åĩ»":1262,"çīĩ":1263,"å¼ł":1264,"ys":1265,"æĪĲä¸º":1266,"Ġcol":1267,"int":1268,"éķĩ":1269,"å±ķ":1270,"çº³":1271,"16":1272,"Ġour":1273,"å°ĳ":1274,"Ġact":1275,"å¥¹":1276,"les":1277,"Ġbet":1278,"æĽ´":1279,"lic":1280,"åĪ«":1281,"å¤´":1282,"æĹ¥æľ¬":1283,"åŃĹ":1284,"äºĽ":1285,"åķ":1286,"Ġlike":1287,"Ġmost":1288,"èĭı":1289,"Ġhad":1290,"|>":1291,"irst":1292,"endof":1293,"<|":1294,"endoftext":1295,"æŃ¦":1296,"ob":1297,"Ġra":1298,"ject":1299,"ities":1300,"Ġknow":1301,"æ´²":1302,"çĸ":1303,"çłĶ":1304,"ook":1305,"alth":1306,"ç¼ĸ":1307,"Ġdes":1308,"åŃ£":1309,"Ġunder":1310,"ç¬¬ä¸Ģ":1311,"ments":1312,"Ġbl":1313,"ä¼Ĭ":1314,"è®¤":1315,"ä¿¡":1316,"è¿ĺ":1317,"ning":1318,"åıĺ":1319,"lect":1320,"17":1321,"stem":1322,"!!!!!!!!":1323,"row":1324,"çĵ":1325,"ious":1326,"Ġsa":1327,"æĳ":1328,"æĿİ":1329,"Ġacc":1330,"æ´»":1331,"èģĮ":1332,"æ³¢":1333,"Ġwould":1334,"è½¬":1335,"velop":1336,"Ġtw":1337,"Ġ200":1338,"åıª":1339,"ffect":1340,"Ġrel":1341,"åĳ½":1342,"ov":1343,"è¿ĳ":1344,"çīĪ":1345,"Ġneed":1346,"Ġnew":1347,"åħµ":1348,"èµĦ":1349,"å±Ģ":1350,"Ġsuch":1351,"æĮģ":1352,"ational":1353,"å¸¦":1354,"åħŃ":1355,"æŃĮ":1356,"åıĸ":1357,"æīĵ":1358,"åĳ¨":1359,"æĻ®":1360,"è¶³":1361,"Ġrep":1362,"ç¡":1363,"é¦Ļæ¸¯":1364,"åĽ¾":1365,"é£İ":1366,"Ġif":1367,"ient":1368,"ple":1369,"çĪ±":1370,"Ġinclud":1371,"è¿ŀ":1372,"Ġhel":1373,"åĲĦ":1374,"éĻħ":1375,"Ġgen":1376,"æĶ¶":1377,"æ¨":1378,"Ġchild":1379,"yp":1380,"ative":1381,"åĽ½å®¶":1382,"ne":1383,"å¼Ģå§ĭ":1384,"çŁ¥":1385,"å®ĥ":1386,"èı":1387,"ä¸¾":1388,"åİ»":1389,"ä¸ĵ":1390,"ä½¿çĶ¨":1391,"cess":1392,"è®°":1393,"Ġpr":1394,"Ġany":1395,"åıĪ":1396,"ular":1397,"ced":1398,"hed":1399,"æ²¡":1400,"æĹı":1401,"èĹ":1402,"Ġph":1403,"åı¯ä»¥":1404,"åľ°åĮº":1405,"ool":1406,"åĪĿ":1407,"åľ£":1408,"198":1409,"æ¸ħ":1410,"ating":1411,"æ®µ":1412,"Ġwhat":1413,"æį®":1414,"è±":1415,"Ġhelp":1416,"æĶ¯":1417,"åĦ":1418,"äº²":1419,"å§Ķ":1420,"ath":1421,"æłĩ":1422,"Ġused":1423,"Ġonly":1424,"å¸Ŀ":1425,"50":1426,"çĳ":1427,"åħĪ":1428,"Ġprodu":1429,"ç©¶":1430,"ç¦ı":1431,"çļĦä¸Ģ":1432,"21":1433,"æ°Ķ":1434,"åĨ³":1435,"ark":1436,"Ġspec":1437,"Ġprov":1438,"),":1439,"ä¸ĸçķĮ":1440,"éĿŀ":1441,"èĬ±":1442,"Ġind":1443,"Ġam":1444,"åĻ":1445,"ĠUn":1446,"uc":1447,"éĺ³":1448,"Ġmany":1449,"14":1450,"Ġno":1451,"æĿ¡":1452,"æĭ¬":1453,"Ġfirst":1454,"Ġfe":1455,"eth":1456,"ics":1457,"30":1458,"Ġthrough":1459,"ĠHe":1460,"Ġdevelop":1461,"ise":1462,"å®Ĺ":1463,"çłĶç©¶":1464,"åıį":1465,"oss":1466,"åİĨåı²":1467,"ĠâĢĵ":1468,"åº§":1469,"çĶµå½±":1470,"è§£":1471,"æĶ¾":1472,"Ġexp":1473,"erm":1474,"fter":1475,"åĽŃ":1476,"çĮ":1477,"ä¸»è¦ģ":1478,"iss":1479,"hen":1480,"Ġdi":1481,"åĪĽ":1482,"åĮħæĭ¬":1483,"Ġac":1484,"round":1485,"åķĨ":1486,"Ġem":1487,"Ġdiffe":1488,"Ġpo":1489,"å¾Ģ":1490,"oth":1491,"Ġ4":1492,"åĨį":1493,"ä»Ĭ":1494,"uring":1495,"æŃ»":1496,"è¿Ľè¡Į":1497,"Ġreg":1498,"åħ«":1499,"ç¦»":1500,"ful":1501,"æł¹":1502,"Ġtwo":1503,"Ġsystem":1504,"rib":1505,"åĦ¿":1506,"æľª":1507,"æŀĦ":1508,"rop":1509,"æŀľ":1510,"å¤į":1511,"old":1512,"çĪ¶":1513,"ng":1514,"å®Į":1515,"ink":1516,"Ġoff":1517,"æĪı":1518,"als":1519,"Ġob":1520,"é¦Ĩ":1521,"å·Ŀ":1522,"000":1523,"æĴŃ":1524,"ts":1525,"çĶ»":1526,"æ¥":1527,"é»Ħ":1528,"ä»¥åıĬ":1529,"åĲī":1530,"å¡Ķ":1531,"æ¯į":1532,"ility":1533,"åį«":1534,"æ´Ľ":1535,"åĨł":1536,"è£ħ":1537,"å¨ģ":1538,"ature":1539,"åĻ¨":1540,"è®º":1541,"åĪĴ":1542,"13":1543,"Ġdec":1544,"é¸":1545,"In":1546,"åį³":1547,"aw":1548,"æ¬§":1549,"Ġass":1550,"ased":1551,"ç¬¬äºĮ":1552,"çĶµè§Ĩ":1553,"æĬ¥":1554,"èħ":1555,"ible":1556,"ange":1557,"Ġadd":1558,"22":1559,"ife":1560,"ten":1561,"å½ķ":1562,"ç½®":1563,"åįļ":1564,"èĤ²":1565,"è§Ĥ":1566,"ç»Ī":1567,"Ġatt":1568,"èĲ¥":1569,"åľŁ":1570,"å¥½":1571,"æ¹¾":1572,"ert":1573,"éĽ·":1574,"ram":1575,"ble":1576,"ç¤º":1577,"ower":1578,"è¶ħ":1579,"èİ·å¾Ĺ":1580,"Ġsur":1581,"arch":1582,"è´¨":1583,"åħ¶ä»ĸ":1584,"è§ģ":1585,"éĥ¨åĪĨ":1586,"own":1587,"éĢŁ":1588,"Ġfl":1589,"èĲ¨":1590,"å¼º":1591,"é¡¹":1592,"ä¼¯":1593,"æķħ":1594,"ract":1595,"Ġwater":1596,"ä»ĸä»¬":1597,"æ±ī":1598,"åįĩ":1599,"Ġshould":1600,"æ¯ı":1601,"å±ħ":1602,"éŃ":1603,"Ġwell":1604,"éļı":1605,"ween":1606,"è¾¹":1607,"Ġrem":1608,"çļĩ":1609,"æ²¡æľī":1610,"éĿĴ":1611,"fore":1612,"åĵĪ":1613,"Ġsupp":1614,"çĵ¦":1615,"å¸Į":1616,"ä¿®":1617,"ä»¶":1618,"Ġsub":1619,"gan":1620,"ç»Ļ":1621,"ç»Ń":1622,"ä»¤":1623,"ade":1624,"è°ĥ":1625,"çģ«":1626,"æĺ¯ä¸Ģ":1627,"æĬķ":1628,"çĹħ":1629,"hes":1630,"sel":1631,"Ġyears":1632,"åĬŁ":1633,"Ġinv":1634,"è¾ĥ":1635,"ied":1636,"ä¸ĥ":1637,"cy":1638,"èīº":1639,"ick":1640,"its":1641,"æºĲ":1642,"æľ¨":1643,"éĻĨ":1644,"ä¼¦":1645,"Ġhealth":1646,"Ġbetween":1647,"Ġsm":1648,"ä¹Ŀ":1649,"åŃĺ":1650,"åĬ©":1651,"çĶ·":1652,"Ġco":1653,"æĶ»":1654,"éº":1655,"äº¦":1656,"Ġhigh":1657,"ution":1658,"æ°ı":1659,"ss":1660,"åĬŀ":1661,"åħ·":1662,"æĿĥ":1663,"åĮ»":1664,"Ġpres":1665,"æļ":1666,"land":1667,"å®¢":1668,"Ġcould":1669,"å²ģ":1670,"çŃĳ":1671,"æľį":1672,"ä¸Ķ":1673,"å¼ķ":1674,"æĬ¤":1675,"åĥ":1676,"ily":1677,"ever":1678,"Ġwhere":1679,"åŃ¦éĻ¢":1680,"ology":1681,"åħļ":1682,"chn":1683,"Ġtrans":1684,"ants":1685,"ont":1686,"form":1687,"Ġ20":1688,"é£ŀ":1689,"äºī":1690,"uch":1691,"chool":1692,"ä¾ĭ":1693,"è®¸":1694,"Ġher":1695,"å¾Ī":1696,"çª":1697,"åħ¶ä¸Ń":1698,"Ġmake":1699,"èĥľ":1700,"å·±":1701,"é¢ĺ":1702,"éħį":1703,"ata":1704,"éĻ¤":1705,"å®¤":1706,"å¡ŀ":1707,"25":1708,"Ġget":1709,"Ġpers":1710,"ĠãĢĬ":1711,"ited":1712,"wn":1713,"èĪª":1714,"ines":1715,"ience":1716,"é²ģ":1717,"æĭħ":1718,"åĭĴ":1719,"ï¼į":1720,"Ġbu":1721,"oy":1722,"å¿Ĺ":1723,"Ġ18":1724,"ident":1725,"åłĤ":1726,"Ġrese":1727,"ural":1728,"æ´¾":1729,"ins":1730,"è½¦ç«Ļ":1731,"ä»½":1732,"çľŁ":1733,"çº¢":1734,"çĶ²":1735,"Ġimport":1736,"Ġmod":1737,"æ£®":1738,"iet":1739,"Ġear":1740,"Ġform":1741,"Ġinter":1742,"è¯º":1743,"ict":1744,"åįı":1745,"æĹ©":1746,"çĶ±äºİ":1747,"åħ´":1748,"æĬĢ":1749,"æ¹ĸ":1750,"èĢģ":1751,"é£Ł":1752,"æĿĢ":1753,"Ġnum":1754,"æ¡¥":1755,"åºĦ":1756,"çİ¯":1757,"æĪĳ":1758,"æ²Ļ":1759,"éĻĪ":1760,"é»ĳ":1761,"å¥ĩ":1762,"Ġexam":1763,"è¯Ħ":1764,"è¡Ĺ":1765,"å¤ĩ":1766,"Ġpol":1767,"çıŃ":1768,"è§Ħ":1769,"meric":1770,"çİĩ":1771,"197":1772,"åĺ":1773,"äººæ°ĳ":1774,"Ġinst":1775,"åĽ½éĻħ":1776,"éĥ¡":1777,"Ġdisc":1778,"ting":1779,"ism":1780,"Ġdifferent":1781,"ï¼īãĢģ":1782,"hat":1783,"éĤ£":1784,"èĩ´":1785,"çĻ¾":1786,"Ġfound":1787,"èİ±":1788,".<|":1789,"ä»ĸçļĦ":1790,"ç¢":1791,"æĶ¿åºľ":1792,"åıĮ":1793,"çĬ¶":1794,"æŁ¥":1795,"å±Ĥ":1796,"ness":1797,"ists":1798,"æīĺ":1799,"æĤ":1800,"åı¦":1801,"Ġsim":1802,"è®¤ä¸º":1803,"èĲ½":1804,"ãĢĭï¼Ī":1805,"Ġeffect":1806,"Ġlear":1807,"Ġbecause":1808,"ef":1809,"gy":1810,"åŁŁ":1811,"å¢ĥ":1812,"ually":1813,"Ġcar":1814,"Ġafter":1815,"ç§¯":1816,"ä¹ĭåĲİ":1817,"ä¹¡":1818,"Ġlong":1819,"Ġexper":1820,"åĪĺ":1821,"Ġlar":1822,"è¨":1823,"cept":1824,"è¯ķ":1825,"æł·":1826,"åĽ´":1827,"å®£":1828,"Ġ5":1829,"å®¹":1830,"Ġcent":1831,"è¨Ģ":1832,"æ¦":1833,"Ġworld":1834,"ç»§":1835,"åĽłä¸º":1836,"..":1837,"Ġthen":1838,"æĺĵ":1839,"åį°":1840,"Ġeven":1841,"çĽŁ":1842,"æİ¨":1843,"Ġvery":1844,"194":1845,"Ġmed":1846,"å¤±":1847,"Ġway":1848,"23":1849,"Ġjust":1850,"get":1851,"ä¸Ńå¿ĥ":1852,"Ġcount":1853,"åĵ¥":1854,"èĩªå·±":1855,"å»ºçŃĳ":1856,"Ġtyp":1857,"Ġincre":1858,"ä¸ŃçļĦ":1859,"vent":1860,"æģ©":1861,"æ¸¸æĪı":1862,"Ġdet":1863,"åĩĨ":1864,"Ġinform":1865,"196":1866,"other":1867,"åĽłæŃ¤":1868,"ivers":1869,"Ġsign":1870,"ps":1871,"æĻ¯":1872,"Ġé¥°":1873,"urn":1874,"Ġed":1875,"éĻĲ":1876,"æµİ":1877,"å°Ħ":1878,"ä½ľä¸º":1879,"ures":1880,"Ġresp":1881,"Ġvar":1882,"å¢ŀ":1883,"æ·±":1884,"éĩİ":1885,"æĽ¼":1886,"aking":1887,"ically":1888,"å§Ĩ":1889,"å·¥ä½ľ":1890,"Ġke":1891,"omm":1892,"Ġ6":1893,"Ġhum":1894,"ives":1895,"å¯Ĩ":1896,"æ½":1897,"ä¾Ľ":1898,"æĦŁ":1899,"iew":1900,"å´":1901,"åıĳçİ°":1902,"åįĬ":1903,"æ³ķåĽ½":1904,"çĻ»":1905,"è´Ŀ":1906,"Ġgener":1907,"arm":1908,"æ¨¡":1909,"æħ":1910,"é¡¿":1911,"ollow":1912,"ck":1913,"ĠAmeric":1914,"Ġsee":1915,"Ġthose":1916,"å®«":1917,"æİĴ":1918,"å©":1919,"ä¹ĭä¸Ģ":1920,"æĸ½":1921,"å£°":1922,"Th":1923,"ĠAl":1924,"ç¾¤":1925,"åī¯":1926,"ork":1927,"çħ":1928,"Ġext":1929,"Ġpat":1930,"æ¤":1931,"Ġprocess":1932,"éĹ®":1933,"äºĳ":1934,"cer":1935,"io":1936,"è®¾è®¡":1937,"Ġevery":1938,"tle":1939,"éĵģè·¯":1940,"é¹":1941,"åŃ¦æł¡":1942,"Ġcall":1943,"åı¯èĥ½":1944,"è´¥":1945,"Ġfact":1946,"Ġresult":1947,"ody":1948,"æķ´":1949,"æ¯ĶèµĽ":1950,"ĠRe":1951,"ä¼Ĺ":1952,"ç½ĳ":1953,"åĿĩ":1954,"éŁ³ä¹Ĳ":1955,"èĢĥ":1956,"Ġchildren":1957,"Ġpub":1958,"Ġsoc":1959,"ä½³":1960,"Ġca":1961,"ues":1962,"ages":1963,"Ġeach":1964,"Ġloc":1965,"ĠWe":1966,"iron":1967,"Ġprog":1968,"ward":1969,"Ġsaid":1970,"ruct":1971,"åĲĮæĹ¶":1972,"Ġsec":1973,"çĭ¬":1974,"ä½ľåĵģ":1975,"led":1976,"åįĥ":1977,"ç¥ĸ":1978,"Ġtechn":1979,"æ±Ĥ":1980,"ases":1981,"åıĭ":1982,"Ġlife":1983,"åŁĥ":1984,"Ġpartic":1985,"Ġbeing":1986,"åĥı":1987,"Ġrequ":1988,"ĠPro":1989,"è¿ª":1990,"å½ĵæĹ¶":1991,".âĢĿ":1992,"è¶Ĭ":1993,"åĵį":1994,"æ¥¼":1995,"åº·":1996,"Ġimportant":1997,"æ³°":1998,"Ġshe":1999,"ä½ı":2000,"ä¿Ħ":2001,"Ġset":2002,"any":2003,"ved":2004,"24":2005,"æĭħä»»":2006,"Ġmon":2007,"é±":2008,"å¾ģ":2009,"å®ģ":2010,"Ġdist":2011,"ather":2012,"ä¾§":2013,"åĨłåĨĽ":2014,"éĺ²":2015,"é±¼":2016,"28":2017,"å®Ī":2018,"åħ¸":2019,"ĠAs":2020,"æĪ¿":2021,"å¤ı":2022,"Ġmuch":2023,"cent":2024,"è¿ĲåĬ¨":2025,"Ġcommun":2026,"Ġduring":2027,"Ġent":2028,"å§Ķåĳĺ":2029,"èĭ±åĽ½":2030,"Ġfam":2031,"æĥ³":2032,"åĳĬ":2033,"ds":2034,"åºĵ":2035,"æŃ¥":2036,"Ġend":2037,"ĠAr":2038,"imes":2039,"Ġart":2040,"ized":2041,"æĹ¶éĹ´":2042,"è¯ģ":2043,"Ġ199":2044,"çĥŃ":2045,"ale":2046,"è®©":2047,"ä¸½":2048,"oh":2049,"195":2050,"Ġdep":2051,"vern":2052,"ä½ķ":2053,"ç´¢":2054,"ä»£è¡¨":2055,"gg":2056,"å±Ĭ":2057,"å¯Ł":2058,"Ġcre":2059,"Ġfollow":2060,"æİĪ":2061,"Ġsk":2062,"è±¡":2063,"ç§°ä¸º":2064,"Ġdata":2065,"Ġgra":2066,"çķĻ":2067,".,":2068,"Ġmy":2069,"Ġinformation":2070,"Ġown":2071,"éĩĩ":2072,"æīį":2073,"hip":2074,"Ġlead":2075,"æ´ĭ":2076,"Ġstudy":2077,"Ġread":2078,"Ġfood":2079,"ĠAn":2080,"Ġlevel":2081,"ize":2082,"the":2083,"æĸĻ":2084,"æ¾":2085,"åĨĻ":2086,"Ġstudents":2087,"æŃ¢":2088,"Ġaut":2089,"Ġdoes":2090,"iel":2091,"èĪ°":2092,"æķĪ":2093,"è¶³çĲĥ":2094,"è´¹":2095,"ices":2096,"ĠThey":2097,"!!!!!!!!!!!!!!!!":2098,"åı°æ¹¾":2099,"Ġstr":2100,"Ġfind":2101,"çīĻ":2102,"Ġperson":2103,"åĶ±":2104,"Ġsame":2105,"ection":2106,"Ġproble":2107,"ĠâĢ":2108,"çĳŀ":2109,"èĮĥ":2110,"å¸Ń":2111,"ran":2112,"éĵ¶":2113,"Ġcur":2114,"é½":2115,"ted":2116,"Ġmin":2117,"Ġmade":2118,"éĢļè¿ĩ":2119,"æ¸©":2120,"éľĢ":2121,"und":2122,"ç´ł":2123,"ä¸ĸçºª":2124,"çľĭ":2125,"Ġright":2126,"Ġdef":2127,"ock":2128,"ix":2129,"ç»ĩ":2130,"åįł":2131,"çĿĢ":2132,"èĽ":2133,"Ġgood":2134,"ç«ł":2135,"Ġ10":2136,"éĥİ":2137,"Ġav":2138,"ç®Ģ":2139,"ä¾¿":2140,"Ġback":2141,"orn":2142,"ah":2143,"ax":2144,"å·¦":2145,"çĽĳ":2146,"æ¡Ī":2147,"Ġgrow":2148,"ç»Ĩ":2149,"åĺī":2150,"å¼Ł":2151,"Ġche":2152,"Ġboth":2153,"ĠFor":2154,"æĪĲç«ĭ":2155,"æŀģ":2156,"ĠIf":2157,"çĶº":2158,"åıĳå±ķ":2159,"ä¸ģ":2160,"å®Ŀ":2161,"ron":2162,"ä½Ľ":2163,"Ġusing":2164,"éĻį":2165,"ĠInd":2166,"ier":2167,"inal":2168,"Ġins":2169,"å°ģ":2170,"viron":2171,"åł¡":2172,"Ġgrou":2173,"å±ŀäºİ":2174,"Ġschool":2175,"åı¶":2176,"éĻĦ":2177,"der":2178,"è¯Ŀ":2179,"æĪ·":2180,"Ġ7":2181,"ars":2182,"ç³»ç»Ł":2183,"con":2184,"æĿ¾":2185,"Ġshow":2186,"ality":2187,"æī¿":2188,"Ġpop":2189,"Ġexpl":2190,"æ°¸":2191,"Ġref":2192,"èģĶèµĽ":2193,"read":2194,"æľĢåĲİ":2195,"èĴĻ":2196,"ĠSp":2197,"ien":2198,"Ġcomple":2199,"Ġgl":2200,"ä¸įåĲĮ":2201,"Ġsmall":2202,"stand":2203,"ä»į":2204,"ä¸¹":2205,"çīĮ":2206,"çĿ£":2207,"ä¹Į":2208,"Ġtest":2209,"ivid":2210,"ĠHow":2211,"ince":2212,"åĶĲ":2213,"å¹²":2214,"åİħ":2215,"è¯į":2216,"ined":2217,"ially":2218,"âĢĿãĢĤ":2219,"çĨ":2220,"è¿ľ":2221,"è½½":2222,"Ġbefore":2223,"Ġmain":2224,"å¯Į":2225,"Ġbo":2226,"Ġhist":2227,"ĠSc":2228,"26":2229,"ute":2230,"åĩł":2231,"omen":2232,"æµĭ":2233,"åĪ¶ä½ľ":2234,"ft":2235,"ä½İ":2236,"ral":2237,"æĶ¿æ²»":2238,"ãĢĢ":2239,"Ġsol":2240,"åı³":2241,"rol":2242,"Ġtreat":2243,"ä»ħ":2244,"è¿°":2245,"ç²¾":2246,"å³":2247,"Ġless":2248,"rest":2249,"ç¤¼":2250,"ä»·":2251,"äººåı£":2252,"ĠNew":2253,"æĸĩåĮĸ":2254,"Ġagain":2255,"up":2256,"åĲİæĿ¥":2257,"Ġ8":2258,"Ġoften":2259,"ä½Ļ":2260,"ergy":2261,"Ġ9":2262,"è´Ł":2263,"èĪ¹":2264,"Ġprot":2265,"ty":2266,"Ġinte":2267,"ands":2268,"æĿ¯":2269,"de":2270,"Ġval":2271,"æĢģ":2272,"ex":2273,"åºĹ":2274,"ç§»":2275,"å¹´çļĦ":2276,"Ġwhile":2277,"æĬĬ":2278,"åĩºçİ°":2279,"akes":2280,"å¿µ":2281,"éļĨ":2282,"å¯º":2283,"å·¥ç¨ĭ":2284,"Ġday":2285,"27":2286,"imate":2287,"Ġtake":2288,"æ³¨":2289,"æĭ¿":2290,"åħ¬éĩĮ":2291,"å¾ĭ":2292,"Ġposs":2293,"||":2294,"éĢĢ":2295,"éħĴ":2296,"åĲįä¸º":2297,"ides":2298,"ç¬¬ä¸ī":2299,"ished":2300,"Ġstate":2301,"èĹı":2302,"aj":2303,"åģľ":2304,"Ġnumber":2305,"Ġocc":2306,"æĹħ":2307,"æĺ¾":2308,"Ġresearch":2309,"Ġbody":2310,"Ġdise":2311,"Ġris":2312,"Ġlit":2313,"iqu":2314,"vironment":2315,"ç®¡çĲĨ":2316,"ç¡®":2317,"æ»¡":2318,"ium":2319,"åºķ":2320,"æĺ¥":2321,"èİ«":2322,"åĨľ":2323,"air":2324,"dition":2325,"åºĨ":2326,"Ġorgan":2327,"ä¹ħ":2328,"iety":2329,"æĢĿ":2330,"ven":2331,"ves":2332,"Ġnow":2333,"å¼Ĺ":2334,"Ġclass":2335,"Ġvis":2336,"æĿ°":2337,"ç»ĥ":2338,"è¿Ļä¸ª":2339,"iversity":2340,"ulation":2341,"Ġactiv":2342,"æİ§":2343,"Ġfun":2344,"Ġserv":2345,"ãĢĭï¼Į":2346,"ç¥¨":2347,"å¹´ä»£":2348,"ury":2349,"æľŁéĹ´":2350,"Ġcell":2351,"ger":2352,"å¼¹":2353,"Ġdown":2354,"ital":2355,"cl":2356,"çĲĥéĺŁ":2357,"åĿ¦":2358,"uss":2359,"iving":2360,"æĸĹ":2361,"èµ°":2362,"Ġpower":2363,"Ġchar":2364,"æľĽ":2365,"Ġaround":2366,"ters":2367,"Ġdesign":2368,"éĽĦ":2369,"Ġbel":2370,"Ġmem":2371,"åĪ©äºļ":2372,"ee":2373,"èĴĤ":2374,"Ġsupport":2375,"Ġthree":2376,"è½®":2377,"æŃ£å¼ı":2378,"è´£":2379,"èľ":2380,"hers":2381,"ãĢįï¼Į":2382,"é¢Ħ":2383,"Ġredu":2384,"æ¢ħ":2385,"40":2386,"è¾ĳ":2387,"ä¼ĺ":2388,"æĵ":2389,"irect":2390,"Ġcommon":2391,"Ġhim":2392,"çļ®":2393,"ç§Ģ":2394,"æĹ§":2395,"æľĢç»Ī":2396,"ä¸ĬçļĦ":2397,"æī§":2398,"Ġhuman":2399,"ave":2400,"acter":2401,"éģĹ":2402,"æ¶Ī":2403,"åĢĻ":2404,"å¿«":2405,"åį´":2406,"29":2407,"çŁŃ":2408,"ä¹ĭéĹ´":2409,"å°¾":2410,"Ġcle":2411,"éªĮ":2412,"Ġbr":2413,"ull":2414,"day":2415,"ains":2416,"Ġstart":2417,"å°ļ":2418,"è¿ĻäºĽ":2419,"å½±åĵį":2420,"ĠYou":2421,"Ġest":2422,"Ġlook":2423,"ä¹Łæĺ¯":2424,"ç¤¾ä¼ļ":2425,"èįī":2426,"gen":2427,"æĲ":2428,"man":2429,"å»¶":2430,"çł´":2431,"èī¾":2432,"çģµ":2433,"ross":2434,"èį¯":2435,"åıĤåĬł":2436,"èį£":2437,"ouse":2438,"æī¹":2439,"Ġmust":2440,"Ġpoint":2441,"æ¾³":2442,"åıĳçĶŁ":2443,"Ġgreat":2444,"ash":2445,"éº¦":2446,"æīĢæľī":2447,"com":2448,"Ġexample":2449,"Ġser":2450,"ç¯":2451,"åŃĻ":2452,"This":2453,"way":2454,"Ġcor":2455,"193":2456,"ving":2457,"è°·":2458,"å½¹":2459,"ãĢĭãĢģ":2460,"ional":2461,"Ġelect":2462,"Ġplan":2463,"Ġlarge":2464,"Ġwrit":2465,"ä¼¼":2466,"è¡Ģ":2467,"è¿Ľåħ¥":2468,"æłĳ":2469,"çħ§":2470,"çİĽ":2471,"Ġreport":2472,"60":2473,"rain":2474,"èĬĤçĽ®":2475,"ĠBut":2476,"çļĦä¸Ģä¸ª":2477,"me":2478,"æł¹æį®":2479,"self":2480,"äººçļĦ":2481,"èĵ":2482,"åŁİå¸Ĥ":2483,"itions":2484,"Ġallow":2485,"èŃ":2486,"Ġgovern":2487,"Ġdid":2488,"æ²¹":2489,"ç»ıæµİ":2490,",âĢĿ":2491,"è®¡åĪĴ":2492,"âĢĿï¼Į":2493,"å¤®":2494,"ared":2495,"Ġcontin":2496,"Ġmet":2497,"ĠâĢĺ":2498,"iver":2499,"åĲ«":2500,"ä¸´":2501,"oun":2502,"å¤§çļĦ":2503,"Ġcare":2504,"æĿ¨":2505,"Ġequ":2506,"åĮĹäº¬":2507,"æĻĭ":2508,"å§Ķåĳĺä¼ļ":2509,"ç½Ĺæĸ¯":2510,"èĥĮ":2511,"äººçī©":2512,"ç»Ħç»ĩ":2513,"æľĹ":2514,"Ġincluding":2515,"els":2516,"outh":2517,"é¼":2518,"èŃ¦":2519,"é¡º":2520,"å¾·åĽ½":2521,"ä¸Ĭæµ·":2522,"åĨµ":2523,"å½Ĵ":2524,"ç«¯":2525,"Ġunderstand":2526,"ik":2527,"Ġbeh":2528,"éĺµ":2529,"Ġconf":2530,"åģļ":2531,"è¯·":2532,"Ġop":2533,"éĽħ":2534,"éĤ¦":2535,"æĸŃ":2536,"2010":2537,"ä¼¤":2538,"çªģ":2539,"Ġbuild":2540,"èĢ¶":2541,"Ġconst":2542,"ets":2543,"ĠThere":2544,"äº¡":2545,"ĠAnd":2546,"æĹ¶æľŁ":2547,"ä¾Ŀ":2548,"æģ¯":2549,"Ġadv":2550,"reen":2551,"åĸľ":2552,"iven":2553,"ĠIs":2554,"å°¼äºļ":2555,"tt":2556,"ãĢįãĢĤ":2557,"æĳ©":2558,"æ´¥":2559,"é³":2560,"æ¤į":2561,"ids":2562,"Ġthough":2563,"Ġret":2564,"èĤ¡":2565,"Ġcalled":2566,"Ġpract":2567,"æķĻèĤ²":2568,"æľĢä½³":2569,"Ġcour":2570,"oci":2571,"åħ±åĴĮ":2572,"Ġknown":2573,"ider":2574,"èı²":2575,"az":2576,"å¼Ĥ":2577,"Ġgu":2578,"ries":2579,"æĳĦ":2580,"Ġsom":2581,"Ġquest":2582,"aterial":2583,"Ġ&":2584,"åºŃ":2585,"lish":2586,"ividual":2587,"inc":2588,"ĠWh":2589,"å®ĭ":2590,"éļ¾":2591,"Ġeas":2592,"åį¢":2593,"ĠEng":2594,"éĹ»":2595,"çĶŁæ´»":2596,"èĻ½":2597,"eng":2598,"ä¸¤ä¸ª":2599,"æĭ¥":2600,"Ġstill":2601,"æĬĢæľ¯":2602,"æĪĲåĳĺ":2603,"Ġeduc":2604,"ization":2605,"ner":2606,"iod":2607,"ç®Ĺ":2608,"osed":2609,"ton":2610,"éŁ©":2611,"Ġdr":2612,"ĠDe":2613,"Ġpublic":2614,"ired":2615,"ug":2616,"oms":2617,"ential":2618,"åİĤ":2619,"æľ«":2620,"åŃ¦å®¶":2621,"è¡ĮæĶ¿":2622,"itive":2623,"angu":2624,"åĲ´":2625,"ior":2626,"Ġfew":2627,"Ġplace":2628,"åĩºçīĪ":2629,"æľīä¸Ģ":2630,"ãĥ¼":2631,"Ġchang":2632,"åĬ¿":2633,"åĪĩ":2634,"Ġtem":2635,"ç³»åĪĹ":2636,"rence":2637,"Ġide":2638,"line":2639,"åıĳè¡Į":2640,"Ġappro":2641,"raph":2642,"ĠThese":2643,"è¯»":2644,"Ġmight":2645,"æıĲä¾Ľ":2646,"ected":2647,"ãĥ»":2648,"bers":2649,"éĿ¢ç§¯":2650,"èĪ¬":2651,"ris":2652,"Ġlight":2653,"Ġcaus":2654,"ãĢĭãĢģãĢĬ":2655,"Ġmat":2656,"âĢ¦":2657,"80":2658,"æŀ¶":2659,"Ġenergy":2660,"Ġenvironment":2661,"Ġthink":2662,"ration":2663,"Ġpur":2664,"ä¸Ńå¤®":2665,"æ¼Ķåĳĺ":2666,"ason":2667,"åİĭ":2668,"èī¯":2669,"åĪĹè½¦":2670,"Ġpresent":2671,"é¡¶":2672,"âĢĶâĢĶ":2673,"ources":2674,"ä»ĭ":2675,"Ġdem":2676,"Ġwithin":2677,"äºĮåįģ":2678,"èīºæľ¯":2679,".\"":2680,"ense":2681,"ption":2682,"Ġchange":2683,"Ġet":2684,"å·²ç»ı":2685,"ived":2686,"è¾ĸ":2687,"conom":2688,"ä¹ł":2689,"æ¯Ľ":2690,"orth":2691,"ording":2692,"ination":2693,"alk":2694,"æį¢":2695,"ãģ®":2696,"ina":2697,"Ġwant":2698,"æ´»åĬ¨":2699,"Ġindividual":2700,"æ²¿":2701,"æ¿":2702,"æĪĺäºī":2703,"ield":2704,"æĸ¯çī¹":2705,"ĠSh":2706,"Ġsl":2707,"ĠUniversity":2708,"èµ«":2709,"Ġproduct":2710,"2012":2711,"Ġproject":2712,"Ġve":2713,"ffic":2714,"esp":2715,"éª¨":2716,"agn":2717,"éĿ©":2718,"è¡¨ç¤º":2719,"éĴŁ":2720,"bs":2721,"ĠPh":2722,"ä¸°":2723,"è®¸å¤ļ":2724,"less":2725,"å©ļ":2726,"è¯Ĺ":2727,"äºĨä¸Ģ":2728,"èĩ£":2729,"Ġwithout":2730,"èĭ¥":2731,"2016":2732,"Ġident":2733,"ĠCon":2734,"Ġphys":2735,"Ġiss":2736,"ethod":2737,"Ġcap":2738,"æ¬§æ´²":2739,"Ġimm":2740,"ertain":2741,"Ġmaterial":2742,"2013":2743,"å²¸":2744,"åħ»":2745,"ern":2746,"çĶŁå¹³":2747,"Ġdevelopment":2748,"éĽĨåĽ¢":2749,"Ġsym":2750,"è½»":2751,"2011":2752,"Ġprof":2753,"çĩ":2754,"Ġpot":2755,"eral":2756,"ä¸»ä¹ī":2757,"ä½Ĩæĺ¯":2758,"Ġdon":2759,"é¸Ł":2760,"éĩįè¦ģ":2761,"Ġpass":2762,"Ġpos":2763,"åħ±åĴĮåĽ½":2764,"ability":2765,"ä¸»æķĻ":2766,"Ġimpro":2767,"2014":2768,"Ġbre":2769,"Ġmus":2770,"è´µ":2771,"irc":2772,"Ġplay":2773,"å²©":2774,"è¯Ĩ":2775,"åĶ®":2776,"Ġlearn":2777,"æľ±":2778,"å¿ħ":2779,"arent":2780,"iness":2781,"ä¸ºäºĨ":2782,"è¿½":2783,"2017":2784,"Ġhand":2785,"Ġben":2786,"Ġanal":2787,"Ġeng":2788,"2015":2789,"æĿ¿":2790,"å®ĮæĪĲ":2791,"ological":2792,"ajor":2793,"Ġarea":2794,"æķħäºĭ":2795,"2019":2796,"Ġsocial":2797,"Ġanother":2798,"Ġsit":2799,"ä¿ĿæĬ¤":2800,"æ¢ģ":2801,"ĠCl":2802,"70":2803,"ering":2804,"ental":2805,"Ġdisease":2806,"rodu":2807,"æ¯ķ":2808,"åĪ°äºĨ":2809,"åħ³ç³»":2810,"æ¯Ĵ":2811,"ats":2812,"illion":2813,"gin":2814,"ĠAmerican":2815,"2009":2816,"æĻļ":2817,"2008":2818,"to":2819,"ä½Ĳ":2820,"ians":2821,"ç»Ŀ":2822,"ĠAd":2823,"Ġwomen":2824,"åĩºçĶŁ":2825,"ified":2826,"2018":2827,"æľįåĬ¡":2828,"cing":2829,"Ġbest":2830,"èģĶçĽŁ":2831,"Ġmeas":2832,"è¯ĳ":2833,"åĢ¼":2834,"Ġinclude":2835,"éĢģ":2836,"å¸ķ":2837,"omp":2838,"æľīéĻĲ":2839,"It":2840,"çº½":2841,"Ġdirect":2842,"çĪµ":2843,"Ġstand":2844,"atural":2845,"arc":2846,"rist":2847,"æĺł":2848,"Ġpain":2849,"Ġblood":2850,"åĲ¯":2851,"Ġant":2852,"Ġinterest":2853,"æĭį":2854,"ĠâĢĶ":2855,"Ġdesc":2856,"Ġbas":2857,"é½Ĳ":2858,"Ġbelie":2859,"atic":2860,"çĽĸ":2861,"ify":2862,"Ġrisk":2863,"Ġhome":2864,"åįģäºĮ":2865,"ç£":2866,"å±ĭ":2867,"ision":2868,"Ġcontrol":2869,"çĽ®åīį":2870,"æĬĹ":2871,"éļ¶":2872,"æĪĲåĬŁ":2873,"åħ¹":2874,"åīįå¾Ģ":2875,"å¾¡":2876,"éªĳ":2877,"æł¸":2878,"hor":2879,"äºķ":2880,"ills":2881,"è§Ĵèī²":2882,"ained":2883,"åħ¼":2884,"åĤ":2885,"erc":2886,"Ġopp":2887,"amp":2888,"Ġwar":2889,"æĿŁ":2890,"lu":2891,"åĨ³å®ļ":2892,"èĪŀ":2893,"Ġcult":2894,"'t":2895,"åĸĦ":2896,"Ġmove":2897,"åĪĨå¸ĥ":2898,"ĠSe":2899,"ource":2900,"ä¹ĺ":2901,"å¨ľ":2902,"çļĦäºº":2903,"ccess":2904,"ĠZ":2905,"æĹĹ":2906,"ered":2907,"èĥ¡":2908,"éħ¸":2909,"æ³½":2910,"Ġmark":2911,"ently":2912,"ĠHowever":2913,"ä»ĸåľ¨":2914,"here":2915,"æĭ¥æľī":2916,"Ġlaw":2917,"Ġrest":2918,"Ġold":2919,"èŀ":2920,"ç»ĦæĪĲ":2921,"Ġmil":2922,"Ġearly":2923,"åį·":2924,"2020":2925,"2007":2926,"Ġbecome":2927,"ç»ĵæŀĦ":2928,"ware":2929,"åĪĨåĪ«":2930,"Ġfore":2931,"åħ¨åĽ½":2932,"çİī":2933,"åĩ¯":2934,"ank":2935,"Ġlow":2936,"ĠCol":2937,"ä¸¾è¡Į":2938,"ining":2939,"åĨ²":2940,"±ä¹Ĳ":2941,"Ġbetter":2942,"äº¤éĢļ":2943,"ways":2944,"éŃĶ":2945,"ĠEx":2946,"2006":2947,"Ġsever":2948,"lished":2949,"ä»ģ":2950,"ator":2951,"Ġhere":2952,"use":2953,"èģĶåĲĪ":2954,"çłģ":2955,"ission":2956,"Ġspecies":2957,"åĲĽ":2958,"ards":2959,"Ġter":2960,"Ġmethod":2961,"ames":2962,"rap":2963,"Ġpar":2964,"Ġess":2965,"å¸Ĥéķĩ":2966,"Ġgroup":2967,"ĠPl":2968,"èĻ½çĦ¶":2969,"ox":2970,"è¿ģ":2971,"ï¼īï¼ļ":2972,"ead":2973,"æĿĤ":2974,"å¾®":2975,"NA":2976,"Ġanim":2977,"sp":2978,"Ġagainst":2979,"çķ¥":2980,"Ġsecond":2981,"Ġprogram":2982,"ients":2983,"çİ©":2984,"Ġtre":2985,"Ġproper":2986,"ples":2987,"éĢļå¸¸":2988,"Ġtop":2989,"Ġleg":2990,"Ġoper":2991,"åı·çº¿":2992,"Ġmajor":2993,"Ġlast":2994,"oid":2995,"Ġorder":2996,"Ġland":2997,"çļĦåľ°":2998,"31":2999,"èĪªç©º":3000,"Ġcause":3001,"ention":3002,"Ġmeans":3003,"Ġprovide":3004,"è®Ń":3005,"éĢĲ":3006,"åĬłåħ¥":3007,"æķ£":3008,"Ġkeep":3009,"Ġfamily":3010,"Ġele":3011,"èĸ":3012,"Ġtoo":3013,"ç¿°":3014,"ä¸¥":3015,"é»İ":3016,"ĠOn":3017,"Ġoccur":3018,"è½¨":3019,"åıĤä¸İ":3020,"Ġeconom":3021,"æĺĮ":3022,"Ġperform":3023,"Ġreal":3024,"Ġavail":3025,"éĹ®é¢ĺ":3026,"Ġgovernment":3027,"å®¾":3028,"Ġlangu":3029,"é¡»":3030,"view":3031,"åĪ¤":3032,"icle":3033,"ole":3034,"Ġhistory":3035,"ĠCan":3036,"çĪ¶äº²":3037,"å¦»":3038,"å¤º":3039,"ĠBe":3040,"100":3041,"Ġdev":3042,"Ġcurrent":3043,"çīĽ":3044,"Ġparticular":3045,"ĠRes":3046,"åĬ¨çī©":3047,"æĻº":3048,"éľĢè¦ģ":3049,"ret":3050,"æĺ¯åľ¨":3051,"åį°åº¦":3052,"Ġmean":3053,"åĮĹéĥ¨":3054,"å°½":3055,"åĪº":3056,"äº¿":3057,"ĠQ":3058,"éĶ¦":3059,"ĠTe":3060,"Ġorig":3061,"æ²ĥ":3062,"ä¿Ħç½Ĺæĸ¯":3063,"åħĦ":3064,"Ġcal":3065,"å»ºç«ĭ":3066,"å¤ľ":3067,"åŃĺåľ¨":3068,"Ġlearning":3069,"ote":3070,"Ġunt":3071,"å®£å¸ĥ":3072,"ãĥ³":3073,"æľĢé«ĺ":3074,"æĿľ":3075,"Ġdiff":3076,"çļĦå¤§":3077,"Ġpossible":3078,"ä¹Ķ":3079,"æ¶¯":3080,"å°ĨåĨĽ":3081,"ä¸Ńåįİ":3082,"ĠUnited":3083,"è¡¥":3084,"å®ĩ":3085,"å½ĵåľ°":3086,"ä»Ģ":3087,"Ġperiod":3088,"ohn":3089,"urop":3090,"æĹ¶ä»£":3091,"ograph":3092,"Ġaddition":3093,"çŃ¾":3094,"Ġsay":3095,"Ġnear":3096,"å¹¶ä¸Ķ":3097,"sc":3098,"Ġindu":3099,"Ġable":3100,"ç§ĳåŃ¦":3101,"æĿ¥èĩª":3102,"Ġfin":3103,"Ġinvol":3104,"Ġgr":3105,"åĲĮå¹´":3106,"Ġmen":3107,"Ġhig":3108,"ç±į":3109,"be":3110,"åĬ³":3111,"Ġseveral":3112,"Ch":3113,"osp":3114,"Ġsignific":3115,"Ġaffect":3116,"St":3117,"èĥŀ":3118,"æĿĲ":3119,"èģļ":3120,"æķĮ":3121,"çĶ¨äºİ":3122,"port":3123,"Ġlim":3124,"æķĳ":3125,"Ġhapp":3126,"éĺ¶":3127,"è¾ĵ":3128,"eed":3129,"Ġplant":3130,"Ġpercent":3131,"æŀª":3132,"idence":3133,"å¹³æĸ¹":3134,"ĠComm":3135,"ĠWhen":3136,"35":3137,"Ġbenef":3138,"åľĨ":3139,"çĭ¬ç«ĭ":3140,"å¼Ģåıĳ":3141,"ä»ª":3142,"sy":3143,"çĶŁäº§":3144,"éĻ©":3145,"èİī":3146,"190":3147,"Ġair":3148,"elf":3149,"ogn":3150,"hy":3151,"è·Ŀ":3152,"æºª":3153,"æ¬¢":3154,"ories":3155,"ä¼ģ":3156,"éŃı":3157,"éģŃ":3158,"å·¨":3159,"æ£Ģ":3160,"é¢ĳ":3161,"é¡¹çĽ®":3162,"Ġcost":3163,"æĭľ":3164,"Ġ198":3165,"é¦ĸæ¬¡":3166,"Ġprom":3167,"ling":3168,"éĥĳ":3169,"åħį":3170,"çŃĸ":3171,"Ġnon":3172,"ä¸ĢèĪ¬":3173,"Ġsince":3174,"par":3175,"Ð°":3176,"Ġothers":3177,"çĽĽ":3178,"Ġmar":3179,"Ġthings":3180,"Ġfeel":3181,"Ġopen":3182,"æĸ¹éĿ¢":3183,"çľ¼":3184,"Ġel":3185,"What":3186,"Ġbus":3187,"ä¸Ŀ":3188,"å·®":3189,"çĶŁæ¶¯":3190,"Ġ15":3191,"Ġdel":3192,"èª":3193,"Ġamong":3194,"ç«¥":3195,"åħ·æľī":3196,"though":3197,"åħ¬åĽŃ":3198,"Ġname":3199,"éĶĢ":3200,"ĠLe":3201,"Ġscient":3202,"èĹ¤":3203,"åŃ¦çĶŁ":3204,"æł¼åħ°":3205,"æĮī":3206,"ots":3207,"ĠTo":3208,"ends":3209,"Ġbased":3210,"çĸĹ":3211,"45":3212,"å½¢æĪĲ":3213,"ilar":3214,"è´Ń":3215,"æĮ¥":3216,"ç»©":3217,"Ġhead":3218,"è´Łè´£":3219,"Ġareas":3220,"Ġtreatment":3221,"ĠEn":3222,"é©»":3223,"We":3224,"Ġ.":3225,"ç½Ĺé©¬":3226,"Ġcountry":3227,"è´¢":3228,"Ġbi":3229,"è°¢":3230,"å»·":3231,"ended":3232,"Ġ[":3233,"aper":3234,"æŃĮæĽ²":3235,"æµ·åĨĽ":3236,"37":3237,"èµµ":3238,"Ġ0":3239,"å°ıè¯´":3240,"90":3241,"Ġavailable":3242,"Ġobject":3243,"Ġprevent":3244,"Ã©":3245,"Ġfour":3246,"ĠAt":3247,"Ġfollowing":3248,"ĠGod":3249,"åºı":3250,"oint":3251,"SA":3252,"éĽª":3253,"äºĪ":3254,"ä¸ĢäºĽ":3255,"ãĢĭãĢĤ":3256,"Ġfre":3257,"Ġsays":3258,"ploy":3259,"ring":3260,"æİ¢":3261,"Ġ17":3262,"2005":3263,"åª":3264,"work":3265,"çĥĪ":3266,"éĢĶ":3267,"èĵĿ":3268,"ones":3269,"çĶŁçī©":3270,"Ġfac":3271,"ocus":3272,"une":3273,"Ġfree":3274,"è¯¸":3275,"ably":3276,"Ġtimes":3277,"Ġstruct":3278,"Ġcond":3279,"å·¡":3280,"urther":3281,"ww":3282,"åįķä½į":3283,"ĠStates":3284,"å¯¼èĩ´":3285,"çĽ¸åħ³":3286,"ĠCent":3287,"çĲĥåĳĺ":3288,"Ġvol":3289,"2000":3290,"Ġlo":3291,"Ġï¼Ī":3292,"ann":3293,"Ġlist":3294,"åĨ³èµĽ":3295,"Ġmonth":3296,"çĪĨ":3297,"è´§":3298,"èį·":3299,"åģĩ":3300,"äº§çĶŁ":3301,"urope":3302,"Ġproblem":3303,"ised":3304,"åįĹéĥ¨":3305,"Ġwee":3306,"ope":3307,"éĩĩçĶ¨":3308,"2021":3309,"è¥¿äºļ":3310,"èģĮä¸ļ":3311,"ç«¹":3312,"Ġcreat":3313,"ression":3314,"olution":3315,"ä¸ĵè¾ĳ":3316,"å®½":3317,"æľīéĻĲåħ¬åı¸":3318,"Ġaccess":3319,"äºĭä»¶":3320,"åĿĢ":3321,"Ġcome":3322,"çī¹åĪ«":3323,"æĸ¹å¼ı":3324,"!!!!!!!!!!!!!!!!!!!!!!!!!!!!!!!!":3325,"åĲĪä½ľ":3326,"å¹´èĩ³":3327,"æ··":3328,"æĥħåĨµ":3329,"Ġç¬¬":3330,"Ġpost":3331,"Ġview":3332,",\"":3333,"Ġage":3334,"å®³":3335,"Ġcertain":3336,"çĦ¶èĢĮ":3337,"Ġrun":3338,"Ġintern":3339,"ae":3340,"Ġconn":3341,"Ġcase":3342,"Ġlab":3343,"å¿ł":3344,"ç»ĵæĿŁ":3345,"ç½²":3346,"æľºè½¦":3347,"åĩı":3348,"icro":3349,"48":3350,"æ¦Ĥ":3351,"Ġtype":3352,"47":3353,"è®²":3354,"Ġnatural":3355,"åĨĪ":3356,"ä½ł":3357,"åĪ»":3358,"å¹¶åľ¨":3359,"ç§ĺ":3360,"Ġbro":3361,"å¸ĿåĽ½":3362,"ided":3363,"orld":3364,"éģĩ":3365,"è®¾æľī":3366,"ĠOr":3367,"Ġproblems":3368,"Ġput":3369,"ĠAf":3370,"ggest":3371,"ä¼ĳ":3372,")ï¼Į":3373,"Ġpress":3374,"å³°":3375,"Ġlocal":3376,"Ġrece":3377,"ances":3378,"éĩĬ":3379,"por":3380,"æ¬¾":3381,"åħ¬è·¯":3382,"å¥ı":3383,"ä¾ĭå¦Ĥ":3384,"ird":3385,"è¿Ļç§į":3386,"æ®¿":3387,"If":3388,"Ġmult":3389,"Ġbehav":3390,"Ġsignificant":3391,"stit":3392,"åºŁ":3393,"éĤ»":3394,"æ¯ķä¸ļ":3395,"å¤§åĪ©":3396,"æ¼«":3397,"éľį":3398,"Ġhard":3399,"æīĢä»¥":3400,"è·Ł":3401,"Ġamount":3402,"Ġbook":3403,"Ġvir":3404,"æıı":3405,"Ġsuccess":3406,"ĠNational":3407,"çļĦæĺ¯":3408,"ä¾¯":3409,"æ³ī":3410,"atory":3411,"Ġlevels":3412,"over":3413,"å¸®":3414,"hem":3415,"èĶ":3416,"ç§ĭ":3417,"Ġimpact":3418,"resent":3419,"Ġlittle":3420,"ä¸ªäºº":3421,"Ġassoci":3422,"äºĴ":3423,"çĶļ":3424,"éŁ¦":3425,"Ġsw":3426,"icult":3427,"46":3428,"é¥°æ¼Ķ":3429,"åıĸå¾Ĺ":3430,"Ġlater":3431,"å«":3432,"Ġcomput":3433,"Ġfar":3434,"ung":3435,"æľºåľº":3436,"Ġsuggest":3437,"ething":3438,"Ġrad":3439,"æ£Ĵ":3440,"Ġdue":3441,"åģ¥":3442,"Ġflow":3443,"æķ¦":3444,"ither":3445,"Ġgiven":3446,"pect":3447,"èĩªå·±çļĦ":3448,"éĻĦè¿ĳ":3449,"Ġlet":3450,"ä¸ŃåŃ¦":3451,"è§ī":3452,"str":3453,"anc":3454,"ledge":3455,"ç»ıè¿ĩ":3456,"ç»¿":3457,"2004":3458,"Ġshort":3459,"Ġyoung":3460,"åıĹåĪ°":3461,"çİ°åľ¨":3462,"æĶ¯æĮģ":3463,"å»ºè®¾":3464,"Ġuntil":3465,"ä¸įè¿ĩ":3466,"cle":3467,"çĮ®":3468,"åĿ¡":3469,"Ġcells":3470,"ried":3471,"pr":3472,"ä¸īå¹´":3473,"çĹĩ":3474,"ately":3475,"ĠBl":3476,"ç¾½":3477,"Ġmaking":3478,"ç©Ĩ":3479,"ĠEurope":3480,"åĲ¸":3481,"æİ§åĪ¶":3482,"ler":3483,"æĺ¯ä¸Ģä¸ª":3484,"An":3485,"oks":3486,"aps":3487,"ĠWhat":3488,"ured":3489,"app":3490,"Ġlikely":3491,"Ġfocus":3492,"not":3493,"ortun":3494,"æĽ¿":3495,"éľ²":3496,"ä½ĵèĤ²":3497,"åħĭæĸ¯":3498,"ication":3499,"å¯¼æ¼Ķ":3500,"ane":3501,"å°º":3502,"ER":3503,"Ġcho":3504,"uture":3505,"Ġ16":3506,"ged":3507,"Ġturn":3508,"ĠAll":3509,"ipp":3510,"agement":3511,"Ġdays":3512,"èĨ":3513,"ä¼ļè®®":3514,"ç«ŀ":3515,"ĠChrist":3516,"II":3517,"Ġsystems":3518,"æī¾":3519,"ape":3520,"ï¼ļâĢľ":3521,"æľºæŀĦ":3522,"Ġlanguage":3523,"Ð¾":3524,"aken":3525,"Ġappear":3526,"å¤§éĻĨ":3527,"æ¨ª":3528,"Ġhy":3529,"éĨ":3530,"çĲ´":3531,"Ġinvest":3532,"ley":3533,"éĢĤ":3534,"isc":3535,"Ġobs":3536,"èµĽåŃ£":3537,"å°±æĺ¯":3538,"éĺ¿å°Ķ":3539,"ä½©":3540,"Ġworks":3541,"åĽ½çİĭ":3542,"Ġcirc":3543,"è¿Ļä¸Ģ":3544,"äººåĳĺ":3545,"Ġfil":3546,"åŃ©":3547,"As":3548,"åºĻ":3549,"åĲĪå¹¶":3550,"æĹłæ³ķ":3551,"aster":3552,"Ġalong":3553,"Ġdeterm":3554,"Ġtechnology":3555,"face":3556,"Ġcomb":3557,"èĳĹåĲį":3558,"éĵ¶è¡Į":3559,"èªī":3560,"Ġseem":3561,"å¥Ī":3562,"å¦¹":3563,"ĠMed":3564,"ä¸ĢçĽ´":3565,"ode":3566,"åħħ":3567,"è¾Ĩ":3568,"éĢĥ":3569,"__":3570,"Ġtemper":3571,"æŁĵ":3572,"yl":3573,"Ġsing":3574,"Ġpolit":3575,"Ġfunction":3576,"Ġconsider":3577,"æĺŃ":3578,"Ġusually":3579,"å®¶æĹı":3580,"Ġincrease":3581,"Ġenc":3582,"ç¯ĩ":3583,"ä¸Ģèµ·":3584,"Ġsomething":3585,"etic":3586,"åıªæľī":3587,"å¹ķ":3588,"Ġspecific":3589,"å¾Ħ":3590,"36":3591,"br":3592,"æ¢¦":3593,"Ġ12":3594,"æ¤įçī©":3595,"å®¡":3596,"min":3597,"ember":3598,"Ġcourse":3599,"Ġer":3600,"idd":3601,"ç»Ĩèĥŀ":3602,"Ġteac":3603,"éĿŀå¸¸":3604,"å·¥ä¸ļ":3605,"ecially":3606,"Ġwords":3607,"ç©¿":3608,"ä½įç½®":3609,"å¾Ĳ":3610,"çĽĺ":3611,"Ġalways":3612,"ending":3613,"Ġcharacter":3614,"èµĽäºĭ":3615,"Ġtext":3616,"å¹´åº¦":3617,"æ¸Ĳ":3618,"èĦļ":3619,"ym":3620,"çĤ®":3621,"éĢı":3622,"IN":3623,"ĠAfric":3624,"Ġdeath":3625,"Ġresults":3626,"å¾ĹåĪ°":3627,"Ġeducation":3628,"åīĳ":3629,"éĻµ":3630,"Ġrele":3631,"éĢłæĪĲ":3632,"vious":3633,"åĽº":3634,"Ġcreate":3635,"iation":3636,"How":3637,"ç»§ç»Ń":3638,"åĮºåŁŁ":3639,"èĢ³":3640,"èĿ":3641,"çİ¯å¢ĥ":3642,"éĢīæĭ":3643,"75":3644,"è¿ĩç¨ĭ":3645,"38":3646,"æĿ¥çļĦ":3647,"Ġdifficult":3648,"Ġexperience":3649,"Ġheart":3650,"æ£ĭ":3651,"ä¼łç»Ł":3652,"åĢŁ":3653,"Ġgive":3654,"obal":3655,"oot":3656,"é¢Ŀ":3657,"èĬ¬":3658,"Ġrecord":3659,"Ġcommunity":3660,"å¾Ĵ":3661,"Ġspace":3662,"amm":3663,"æĢĢ":3664,"Ġtoday":3665,"ç½ª":3666,"åĨ°":3667,"Ġauthor":3668,"Ġline":3669,"Ġclear":3670,"é²ľ":3671,"atch":3672,"Ġeffective":3673,"Ġconsum":3674,"ours":3675,"æī©":3676,"2022":3677,"aining":3678,"èĭıèģĶ":3679,"åįļçī©":3680,"æŁı":3681,"æĥł":3682,"åĳĪ":3683,"by":3684,"Ġdescrib":3685,"ray":3686,"Al":3687,"Ġconditions":3688,"Ġparent":3689,"å¥ī":3690,"ç¿¼":3691,"æ´ª":3692,"Ġchanges":3693,"Ġ$":3694,"æ¼Ķåĩº":3695,"Ġapplic":3696,"Ġsimilar":3697,"ique":3698,"èĮ¨":3699,"Ġmillion":3700,"å¥³åŃĲ":3701,"ä¹±":3702,"Ġexist":3703,"ç»ĵæŀľ":3704,"éĴ±":3705,"especially":3706,"Ġ'":3707,"çģŃ":3708,"å¢ŀåĬł":3709,"åįģä¸Ģ":3710,"eter":3711,"å¤Ł":3712,"Ġdra":3713,"let":3714,"Ġvarious":3715,"åı¦å¤ĸ":3716,"Ġneeds":3717,"æĺ¯çĶ±":3718,"ruction":3719,"èĩªçĶ±":3720,"Ġdiscuss":3721,"ä¹ĭåīį":3722,"å¢ĵ":3723,"There":3724,"ysis":3725,"ç¬¬åĽĽ":3726,"ott":3727,"ush":3728,"ãĢĤâĢĿ":3729,"æı´":3730,"ai":3731,"ĠMar":3732,"ators":3733,"2003":3734,"asing":3735,"ä¸»å¸Ń":3736,"Ġhigher":3737,"Ġpopulation":3738,"ored":3739,"af":3740,"iam":3741,"Ġcrit":3742,"åĪļ":3743,"å¹´éĹ´":3744,"ales":3745,"rug":3746,"Ġcentury":3747,"Ġnext":3748,"å®¶åºŃ":3749,"Ġleast":3750,"Ġcountries":3751,"ä»¥ä¸ĭ":3752,"æĪ´":3753,"orts":3754,"éģĵè·¯":3755,"æ¿Ģ":3756,"Ġbegin":3757,"Ġacross":3758,"åĶ¯":3759,"Ġgre":3760,"Ġtry":3761,"Ġstrong":3762,"Ġrequire":3763,"è¾Ľ":3764,"äºİæĺ¯":3765,"Ġey":3766,"åĮ»éĻ¢":3767,"Ġbrain":3768,"éĿł":3769,"Ġside":3770,"æĸ°éĹ»":3771,"ç§ģ":3772,"ribut":3773,"Ġfuture":3774,"ï½":3775,"è¦ģæ±Ĥ":3776,"æŁĲ":3777,"Ġabove":3778,"åªĴ":3779,"Ġwhy":3780,"Ġill":3781,"Ġleft":3782,"Ġhowever":3783,"Ġspecial":3784,"Ġpast":3785,"æ¯«":3786,"sw":3787,"äº®":3788,"most":3789,"33":3790,"ãĢįï¼Ī":3791,"ĠEar":3792,"mit":3793,"Ġcancer":3794,"enn":3795,"gether":3796,"è¶ħè¿ĩ":3797,"Ġtogether":3798,"å¯¹äºİ":3799,"æļ´":3800,"ç¼ĺ":3801,"ptoms":3802,"æķĻæİĪ":3803,"ç¼º":3804,"Ġtemperature":3805,"Ġprofess":3806,"è¥¿çıŃ":3807,"è¡£":3808,"åı¦ä¸Ģ":3809,"è¢Ń":3810,"çº¦ç¿°":3811,"Ġask":3812,"Ġmov":3813,"78":3814,"çºªå¿µ":3815,"è¿Ķ":3816,"58":3817,"è¥¿çıŃçīĻ":3818,"ãĢı":3819,"æŃ¤å¤ĸ":3820,"ãĢİ":3821,"oney":3822,"ĠJohn":3823,"éķľ":3824,"¤Ĳ":3825,"Ġprop":3826,"ĠWar":3827,"ä¾į":3828,"ĠBrit":3829,"Ġrespons":3830,"Ġcomplete":3831,"å¦Ĥæŀľ":3832,"Ġsens":3833,"ĠCar":3834,"Ġaway":3835,"ĠÐ":3836,"Ġworking":3837,"æ±ł":3838,"ateg":3839,"åĿĹ":3840,"æµĻ":3841,"çĽĬ":3842,"ä¹Ļ":3843,"Ġnecess":3844,"èµŀ":3845,"Ġdam":3846,"çļĨ":3847,"Ġz":3848,"Ġkey":3849,"omes":3850,"åŃĶ":3851,"éĽ¨":3852,"Ġteam":3853,"ilities":3854,"Ġestab":3855,"ä¸ľäº¬":3856,"Ġplants":3857,"Ġimprove":3858,"ä»Ļ":3859,"åĦ¿åŃĲ":3860,"Ġcr":3861,"aves":3862,"Ġkind":3863,"Ġnet":3864,"Ġterm":3865,"selves":3866,"Ġways":3867,"Ġespecially":3868,"å°¤":3869,"ĠWorld":3870,"Ġbusiness":3871,"ç§¦":3872,"èĦ±":3873,"for":3874,"Ġchem":3875,"èĪį":3876,"éĥ¨éĺŁ":3877,"åĩºçļĦ":3878,"åĲįç§°":3879,"èĻİ":3880,"AT":3881,"ilt":3882,"Ġeffects":3883,"Ġresearc":3884,"Ġmot":3885,"Ġnever":3886,"lement":3887,"Ġ/":3888,"èĤī":3889,"ĠSo":3890,"é«ĺéĢŁ":3891,"éĩįæĸ°":3892,"55":3893,"åĪĨä¸º":3894,"Ġprim":3895,"æĮĩæĮ¥":3896,"alf":3897,"Ġinflu":3898,"...":3899,"Ġpatients":3900,"39":3901,"yn":3902,"æİ¥åıĹ":3903,"åıįåºĶ":3904,"åįļçī©é¦Ĩ":3905,"è¿Ľå£«":3906,"æģ¶":3907,"Ġtypes":3908,"aut":3909,"lo":3910,"åĽĽå¹´":3911,"ream":3912,"Ġgoing":3913,"æĢ»ç»Ł":3914,"ere":3915,"ä¹İ":3916,"åİ»ä¸ĸ":3917,"æ¦ľ":3918,"èĮĥåĽ´":3919,"nal":3920,"åĲ¬":3921,"Ġenough":3922,"èħĬ":3923,"Ġtool":3924,"èĥ½åĬĽ":3925,"Ġgeneral":3926,"Ġfull":3927,"aces":3928,"çŁ¿":3929,"æĶ¹ä¸º":3930,"çİ°ä»£":3931,"oman":3932,"ä¸ľåĮĹ":3933,"acy":3934,"acc":3935,"aring":3936,"Ġrelations":3937,"æ»¨":3938,"ä¿±ä¹Ĳ":3939,"ges":3940,"Ġtru":3941,"æĽ¹":3942,"Ġopt":3943,"apt":3944,"éľĩ":3945,"åľ°æĸ¹":3946,"ument":3947,"cul":3948,"Ġ30":3949,"å§ĵ":3950,"Ġcolle":3951,"ä»»ä½ķ":3952,"Ġself":3953,"side":3954,"thing":3955,"ä¿±ä¹Ĳéĥ¨":3956,"Ġlower":3957,"èµı":3958,"aching":3959,"Ġstep":3960,"è®¨":3961,"iting":3962,"Ġstudies":3963,"èĽĭ":3964,"ĠGo":3965,"æ´ŀ":3966,"æĪĺæĸĹ":3967,"çĶµè§Ĩåī§":3968,"é¡¾":3969,"ification":3970,"ç¦ģ":3971,"è°ĭ":3972,"ĠEnglish":3973,"èıĮ":3974,"Ġhaving":3975,"çºªå½ķ":3976,"åĪĽä½ľ":3977,"çĶĺ":3978,"aim":3979,"duct":3980,"istic":3981,"èŀį":3982,"2002":3983,"Ġpred":3984,"ĠGen":3985,"çĽ´åĪ°":3986,"fer":3987,"ĠGerm":3988,"æįķ":3989,"chie":3990,"æ¡ĳ":3991,"Ġmind":3992,"å¢¨":3993,"edi":3994,"å¯¿":3995,"Ġsum":3996,"åĨħçļĦ":3997,"èĤ¯":3998,"ä¼ģä¸ļ":3999,"è¡¨çİ°":4000,"æĵį":4001,"ä¸ľåįĹ":4002,"Ġlive":4003,"Ġaccount":4004,"åĨĽéĺŁ":4005,"éĴ¢":4006,"éĻ¤äºĨ":4007,"æĪĲç»©":4008,"Ġknowledge":4009,"åĨħå®¹":4010,"Ġpolic":4011,"iol":4012,"Ġphysical":4013,"ç¿»":4014,"æ¯ģ":4015,"ç»į":4016,"ĠOne":4017,"æµ¦":4018,"For":4019,"åįıä¼ļ":4020,"æĢ¥":4021,"Ġsubject":4022,"Ġconcer":4023,"ĠUS":4024,"Ġnorm":4025,"èķ":4026,"åĲİçļĦ":4027,"å¾ħ":4028,"éĢīæĭ©":4029,"Ġbecame":4030,"åĪĬ":4031,"æĪĪ":4032,"Ġbir":4033,"åĨĽäºĭ":4034,"è¿¹":4035,"çĶµè§Ĩåı°":4036,"Ġcy":4037,"å»ī":4038,"ç»¼":4039,"ency":4040,"Ġmakes":4041,"è®¿":4042,"Ġrole":4043,"åĩ»è´¥":4044,"åĪ©çĶ¨":4045,"å°ıæĹ¶":4046,"åĨ·":4047,"Ġprotect":4048,"å®ĥä»¬":4049,"èĩªçĦ¶":4050,"Ġwr":4051,"ï½ŀ":4052,"é¢ģ":4053,"Ġrepresent":4054,"Ġfurther":4055,"ued":4056,"34":4057,"Ġwhether":4058,"Ġreason":4059,"ĠSome":4060,"å¸ģ":4061,"ables":4062,"Ġcity":4063,"ready":4064,"Ð¸":4065,"ĠWith":4066,"è¸":4067,"ä¸»é¢ĺ":4068,"//":4069,"Ġbig":4070,"äººæ°ĳåħ±åĴĮåĽ½":4071,"çīĪæľ¬":4072,"ä¸»æĮģ":4073,"è¯¾":4074,"èĻ«":4075,"AR":4076,"è¯Ńè¨Ģ":4077,"itor":4078,"å¹¸":4079,"ites":4080,"å°Ķæĸ¯":4081,"Ġrange":4082,"Ġcases":4083,"è¿ĲåĬ¨åĳĺ":4084,"iple":4085,"ires":4086,"ĠIntern":4087,"Ġscience":4088,"ĠGe":4089,"æĢ§çļĦ":4090,"Ġquestion":4091,"65":4092,"äºļæ´²":4093,"unt":4094,"Ġchall":4095,"osis":4096,"ĠComp":4097,"æĭĽ":4098,"æĸĩåŃ¦":4099,"éĢīä¸¾":4100,"rel":4101,"éĢĿ":4102,"æĭįæĳĦ":4103,"æ¯įäº²":4104,"å½©":4105,"ä½ľçĶ¨":4106,"é½¿":4107,"Ġpaper":4108,"æļĹ":4109,"bon":4110,"wards":4111,"ober":4112,"ival":4113,"éº»":4114,"çıł":4115,"Ġground":4116,"Ġens":4117,"IS":4118,"urch":4119,"æ±ĩ":4120,"åĳ³":4121,"æĹĭ":4122,"åĨįæ¬¡":4123,"Ġsymptoms":4124,"ference":4125,"ï¼ļãĢĮ":4126,"åĪ¶éĢł":4127,"esc":4128,"å¥¹çļĦ":4129,"çº¿è·¯":4130,"æ±½":4131,"32":4132,"åŁ¹":4133,"sych":4134,"ĠAm":4135,"äººç±»":4136,"Ġbelow":4137,"://":4138,"ĠTr":4139,"çĶµåŃĲ":4140,"éĥ½æĺ¯":4141,"èİİ":4142,"ĠMan":4143,"çĴ":4144,"çĶ³":4145,"åĩ¤":4146,"Ġsure":4147,"Ġmodel":4148,"åĬª":4149,"æĹ¥åľ¨":4150,"Ġproduction":4151,"æĦıå¤§åĪ©":4152,"augh":4153,"æłĩåĩĨ":4154,"2001":4155,"ĠNe":4156,"éĺ´":4157,"put":4158,"åĿļ":4159,"Ġindic":4160,"Ġactivities":4161,"Ġprob":4162,"Ġactivity":4163,"æľīåħ³":4164,"ä¾µ":4165,"å¯»":4166,"oph":4167,"è¿İ":4168,"æĸ¹æ³ķ":4169,"ison":4170,"æ®ĸ":4171,"Ġword":4172,"ĠPr":4173,"Ġemploy":4174,"Ġgroups":4175,"ĠX":4176,"Ġdig":4177,"Ġeff":4178,"uation":4179,"æ¶²":4180,"Ġstory":4181,"Ġquality":4182,"Ġparticip":4183,"å¹¶ä¸į":4184,"Ġseen":4185,"ä¹Łæľī":4186,"Ġhouse":4187,"ibility":4188,"è¾ħ":4189,"sh":4190,"Ġfund":4191,"Ġpotential":4192,"ç»ľ":4193,"ES":4194,"åīĤ":4195,"49":4196,"é»ĺ":4197,"Ġalready":4198,"ĊĠ":4199,"æģĲ":4200,"æĺ¯ä¸Ģç§į":4201,"èģĶéĤ¦":4202,"ĠHealth":4203,"åħ±åĲĮ":4204,"etimes":4205,"æ¸¡":4206,"oft":4207,"å¹¿ä¸ľ":4208,"ãĤ¹":4209,"Ġoffic":4210,"é¬":4211,"Ġclose":4212,"çĳŁ":4213,"Ġfield":4214,"Ġfall":4215,"éļıåĲİ":4216,"oura":4217,"Ġeither":4218,"Ġreally":4219,"çļĦæĹ¶":4220,"ĠIm":4221,"Ġlot":4222,"éļĶ":4223,"å¹´åľ¨":4224,"verage":4225,"Ġdeveloped":4226,"ä¸»è§Ĵ":4227,"Ġvalue":4228,"æµĻæ±Ł":4229,"Ðµ":4230,"amin":4231,"ney":4232,"ĠThat":4233,"fact":4234,"ils":4235,"Ġloss":4236,"çī©ç§į":4237,"ä¸īåįģ":4238,"ublic":4239,"Ġrather":4240,"æĬµ":4241,"æĤ£":4242,"åĪĳ":4243,"ĠAb":4244,"Ġstat":4245,"reg":4246,"æī¬":4247,"éħįéŁ³":4248,"åĮ¹":4249,"æĴ¤":4250,"Ġneg":4251,"Ġphot":4252,"é³į":4253,"æģĴ":4254,"Ġnut":4255,"æĸ°çļĦ":4256,"bo":4257,"Ġmass":4258,"å®Įåħ¨":4259,"Ġsingle":4260,"è¥¿åįĹ":4261,"éĩĮæĸ¯":4262,"ĠAss":4263,"è¿·":4264,"urity":4265,"èµ¢":4266,"åį±":4267,"åĨ¬":4268,"earch":4269,"Ġproducts":4270,"æĶ»åĩ»":4271,"overed":4272,"org":4273,"Ġdeg":4274,"åĬ¨çĶ»":4275,"mber":4276,"å¤ªå¹³":4277,"ï¼Ł":4278,"è®¾ç«ĭ":4279,"Ġresources":4280,"å¹¼":4281,"Ġdone":4282,"Ġobserv":4283,"ï¼ĮãĢĬ":4284,"ned":4285,"oon":4286,"èĳ£":4287,"Ġcut":4288,"éĿĻ":4289,"rict":4290,"Ġevent":4291,"æ¥ļ":4292,"Ġgrowth":4293,"åįĪ":4294,"Ġskills":4295,"Ġtradition":4296,"ches":4297,"æįŁ":4298,"Ġabs":4299,"idered":4300,"ask":4301,"ule":4302,"åįļå£«":4303,"Ġwind":4304,"ä¸Ńåįİäººæ°ĳåħ±åĴĮåĽ½":4305,"Ġur":4306,"æĭīæĸ¯":4307,"ery":4308,"åĳ¼":4309,"Ġachie":4310,"Ġrecogn":4311,"val":4312,"åħĥå¹´":4313,"ĠDr":4314,"å®ľ":4315,"ä¸ĭçļĦ":4316,"ivity":4317,"Ġaccording":4318,"ivil":4319,"æ°§":4320,"Ġquestions":4321,"çĬ¯":4322,"ç±»ä¼¼":4323,"èĳ¡":4324,"ä¹Ī":4325,"Ġflu":4326,"44":4327,"å¸Ĥåľº":4328,"çī¹å¾ģ":4329,"ĠStud":4330,"å½¼":4331,"æ½ľ":4332,"æķ°éĩı":4333,"è´¡":4334,"ĠNorth":4335,"å´ĩ":4336,"Ġconcept":4337,"çĽ´æİ¥":4338,"Ġsource":4339,"èĦī":4340,"æĽ¾ç»ı":4341,"Ġfive":4342,"å±±ä¸ľ":4343,"æľĢåĪĿ":4344,"çĤ¸":4345,"åĬłæĭ¿":4346,"Ġreduce":4347,"ĠShe":4348,"rad":4349,"Ġbuilding":4350,"ç¾İåħĥ":4351,"ID":4352,"ront":4353,"å®ŀéªĮ":4354,"Ġsize":4355,"å¤§éĩı":4356,"ä¹°":4357,"rect":4358,"leep":4359,"ç¬¦":4360,"ç¦»å¼Ģ":4361,"ma":4362,"æıĲåĩº":4363,"è¿ĺæľī":4364,"ä»»åĬ¡":4365,"Ġissues":4366,"ĠBy":4367,"Ġrate":4368,"å®īåħ¨":4369,"æīİ":4370,"Ġindust":4371,"Ġnational":4372,"å¹¿æĴŃ":4373,"åĮºçļĦ":4374,"æĦ¿":4375,"When":4376,"Ġå¤§":4377,"åŃ¦ä¹ł":4378,"å§Ĳ":4379,"åĮħåĲ«":4380,"Ġcollect":4381,"Ġevidence":4382,"çİ©å®¶":4383,"rams":4384,"æ»ĳ":4385,"ä¸Ģæ¬¡":4386,"Ġaddress":4387,"äº¨":4388,"ä¼į":4389,"æŃ»äº¡":4390,"roll":4391,"Ġsurface":4392,"ãģĦ":4393,"Ġinit":4394,"Ġconsidered":4395,"ĠMay":4396,"Ġred":4397,"Ġsite":4398,"çº½çº¦":4399,"ç»ĺ":4400,"Ġintrodu":4401,"ĠCal":4402,"è¾½":4403,"Ġclimate":4404,"Ġarticle":4405,"å½¢å¼ı":4406,"ĠSoc":4407,"ump":4408,"reme":4409,"éĶ¦æłĩ":4410,"ĠSy":4411,"gr":4412,"Ġbat":4413,"Ġtaken":4414,"Ġdetail":4415,"Ġonce":4416,"æ²³åįĹ":4417,"æĹ©æľŁ":4418,"my":4419,"é¢Ĩå¯¼":4420,"åĵ²":4421,"Ġdrug":4422,"epend":4423,"76":4424,"ips":4425,"Ġresearchers":4426,"çļĦå¥³":4427,"åĳ½åĲį":4428,"eb":4429,"è¿Ļæĺ¯":4430,"oll":4431,"ĠSouth":4432,"go":4433,"åĨĮ":4434,"Ġsent":4435,"Ġrecomm":4436,"You":4437,"ä¸īä¸ª":4438,"Ġtell":4439,"è±ª":4440,"189":4441,"Ġfail":4442,"ĠCo":4443,"åĭĩ":4444,"ä¸¾åĬŀ":4445,"Ġfrequ":4446,"åı¬":4447,"éŁ©åĽ½":4448,"Ġsal":4449,"Ġpressure":4450,"Ġwide":4451,"åı«":4452,"Ġwhite":4453,"éĵľ":4454,"Ġmicro":4455,"è®¾ç½®":4456,"Ġfri":4457,"Ġassociated":4458,"Ġrelig":4459,"Ġfeature":4460,"à¤":4461,"è¥¿åĮĹ":4462,"Ġver":4463,"å¾½":4464,"çĶļèĩ³":4465,"plic":4466,"Ġtot":4467,"åŃĿ":4468,"æ¨¡å¼ı":4469,"ĠRep":4470,"Ġpay":4471,"å¹¶äºİ":4472,"Ġmembers":4473,"ä¸Ģç§į":4474,"åĭĭ":4475,"åĲķ":4476,"ä¼Ł":4477,"ä¸ĵä¸ļ":4478,"Ġann":4479,"Ġdest":4480,"äºĶå¹´":4481,"å¿ħé¡»":4482,"Ġwhole":4483,"Ġmedical":4484,"è½¯":4485,"Ġcreated":4486,"å´İ":4487,"è¡ĮåĬ¨":4488,"Ġunderstanding":4489,"åħ±æľī":4490,"à¸":4491,"Ġ=":4492,"Ġ:":4493,"ournal":4494,"Ġsimple":4495,"ĠAmerica":4496,"è°ĥæŁ¥":4497,"ç¼©":4498,"ON":4499,"Ġstates":4500,"èĦĳ":4501,"æŁ±":4502,"å¼ĥ":4503,"çĽĲ":4504,"Ġmeet":4505,"ä¸įèĥ½":4506,"éģ¿":4507,"æ±¤":4508,"æĪª":4509,"Ġliving":4510,"Ġskin":4511,"Ġcame":4512,"ights":4513,"Ġpractice":4514,"Ġdom":4515,"å¸ĮèħĬ":4516,"ç³ĸ":4517,"çī§":4518,"åŁºç¡":4519,"åľ°ä¸ĭ":4520,"Ġhold":4521,"illed":4522,"è¥¿éĥ¨":4523,"fficient":4524,"è·Ŀç¦»":4525,"Ġincreased":4526,"ety":4527,"æķı":4528,"ï¼ģ":4529,"pro":4530,"chan":4531,"æ¯«ç±³":4532,"ĠGu":4533,"Ġnature":4534,"èıľ":4535,"å¹³åĿĩ":4536,"æĴŃåĩº":4537,"éĴĪ":4538,"æµª":4539,"è½¨éģĵ":4540,"æĸ¯åĿ¦":4541,"åĪĨç±»":4542,"Ġsound":4543,"Ġ100":4544,"Ġrelated":4545,"è°Ī":4546,"å·ŀå¸Ĥ":4547,"è®¢":4548,"äºĮå¹´":4549,"è®°è½½":4550,"åĮĸåŃ¦":4551,"èĲ§":4552,"æķĻåłĤ":4553,"æĬķèµĦ":4554,"Ġrelationship":4555,"Ġ11":4556,"é¢ľ":4557,"Ġ2010":4558,"Ġwriting":4559,"çĸĳ":4560,"Ġsun":4561,"Ġactually":4562,"ores":4563,"56":4564,"Ġupon":4565,"éĿĴå¹´":4566,"çīł":4567,"ç¹":4568,"æģĭ":4569,"æŀļ":4570,"uel":4571,"å¦ĩ":4572,"Ġanalysis":4573,"åŁºç¡Ģ":4574,"Ġanimals":4575,"Ġthemselves":4576,"Ġfish":4577,"éĻ¶":4578,"éĤ®":4579,"æŃĮæīĭ":4580,"åľĪ":4581,"ening":4582,"Ġansw":4583,"Ġstress":4584,"eds":4585,"olic":4586,"hing":4587,"ene":4588,"Ġpurp":4589,"åĿı":4590,"Ġengine":4591,"Ġpolitical":4592,"Ġrequired":4593,"iding":4594,"like":4595,"Ġreturn":4596,"è´¤":4597,"çĽ¸å½ĵ":4598,"åķĨä¸ļ":4599,"Ġlay":4600,"éĽķ":4601,"å¦®":4602,"1999":4603,"Ġdoct":4604,"Ġweek":4605,"Ġdoc":4606,"Ġcannot":4607,"Ġmodern":4608,"utions":4609,"å¢Ļ":4610,"ensive":4611,"åĶ¯ä¸Ģ":4612,"Ġentire":4613,"ãĢī":4614,"Ġopportun":4615,"aced":4616,"åĲ¦":4617,"ãĢĪ":4618,"è¯¯":4619,"æ©":4620,"ĠAust":4621,"å¥Ĺ":4622,"Ġglobal":4623,"éĺ»":4624,"å°Ĭ":4625,"å±ħæ°ĳ":4626,"ze":4627,"Ġblack":4628,"çĲĨè®º":4629,"ĠAct":4630,"Ġcomplex":4631,"Ġmor":4632,"éĥŃ":4633,"Ġpublished":4634,"åĬłæĭ¿å¤§":4635,"artment":4636,"Ġhealthy":4637,"æĸĩçī©":4638,"é£ŀè¡Į":4639,"ï¼ı":4640,"AN":4641,"åĿĲ":4642,"åĽĽå·Ŀ":4643,"Ġmaterials":4644,"éĶ¡":4645,"ãĥ«":4646,"Ġadult":4647,"Ġdiet":4648,"é¬¼":4649,"aging":4650,"Ð½":4651,"å¹¿åľº":4652,"è¢«ç§°ä¸º":4653,"Ġvers":4654,"è£ģ":4655,"Ġarch":4656,"To":4657,"rences":4658,"Wh":4659,"68":4660,"è¿ŀç»Ń":4661,"Ġmarket":4662,"æĹ¶çļĦ":4663,"sequ":4664,"ĠĠ":4665,"\".":4666,"itary":4667,"ä¸Ģæł·":4668,"è´º":4669,"acks":4670,"uck":4671,"Ġavoid":4672,"ãĤ¤":4673,"Ġhtt":4674,"Ġthought":4675,"--":4676,"èĭ±æł¼åħ°":4677,"éļ¶å±ŀäºİ":4678,"åľ°çĲĨ":4679,"ä»Ķ":4680,"Ġmaint":4681,"Ġcondition":4682,"åĪĨéĴŁ":4683,"æ½®":4684,"å¸®åĬ©":4685,"Ġport":4686,"Ġfactors":4687,"TC":4688,"Ġhistor":4689,"mb":4690,"åħĦå¼Ł":4691,"Ġcoll":4692,"Ġcat":4693,"Ġexperien":4694,"Ġquick":4695,"Ġreact":4696,"lying":4697,"åħ³äºİ":4698,"ibr":4699,"ĠYork":4700,"Ġla":4701,"æııè¿°":4702,"Ġneeded":4703,"ows":4704,"Ġparts":4705,"Ġability":4706,"åħ¶åĲİ":4707,"Ġmanagement":4708,"):":4709,"hib":4710,"é£ŀæľº":4711,"42":4712,"æİĮ":4713,"åįĸ":4714,"ä»ĵ":4715,"å¤ļæķ°":4716,"ä¼Ĳ":4717,"ä¸ºP":4718,"ana":4719,"ç¬¬ä¸Ģæ¬¡":4720,"Ġalmost":4721,"itud":4722,"Ġfamil":4723,"æĺ¾ç¤º":4724,"æķ°æį®":4725,"æĸ¹åĲĳ":4726,"Ġstudent":4727,"ĠSchool":4728,"æ¡ĥ":4729,"è¶ħçº§":4730,"Ġprote":4731,"è¯ī":4732,"æļĤ":4733,"Ġprovides":4734,"lex":4735,"åĲįåŃĹ":4736,"Ġ50":4737,"IC":4738,"ä»ĺ":4739,"rown":4740,"Ġfat":4741,"å®¿":4742,"èµ¤":4743,"éĹŃ":4744,"aged":4745,"ä¹ĭéĹ´çļĦ":4746,"oses":4747,"Ġé¥°æ¼Ķ":4748,"åįĹäº¬":4749,"Ġcomes":4750,"urs":4751,"ä¸¤äºº":4752,"ened":4753,"ç´§":4754,"éĻ·":4755,"é©±":4756,"éĥ¨éķ¿":4757,"apan":4758,"Ġmoney":4759,"Ġidea":4760,"ÑĢ":4761,"èĥ½å¤Ł":4762,"500":4763,"äº«":4764,"æ²ī":4765,"å»ºéĢł":4766,"Ġassess":4767,"Ġbar":4768,"ging":4769,"è¿«":4770,"On":4771,"gest":4772,"OR":4773,"æ³Ľ":4774,"lor":4775,"æŀĲ":4776,"Ġsuper":4777,"è£Ĥ":4778,"1998":4779,"æī§è¡Į":4780,"Ġ2012":4781,"ply":4782,"1990":4783,"è®¯":4784,"inter":4785,"èĲĦ":4786,"Ġhalf":4787,"èĳ¡èĲĦ":4788,"Ġmonths":4789,"è¿ŀæİ¥":4790,"Ñģ":4791,"é©¬æĿ¥":4792,"usion":4793,"èĢĮä¸Ķ":4794,"ese":4795,"ä¸ĺ":4796,"å¹»":4797,"ĠMe":4798,"izing":4799,"ĠDo":4800,"Ġapproach":4801,".)":4802,"ada":4803,"79":4804,"åįķæĽ²":4805,"è¡Įä¸º":4806,"ĠCont":4807,"ç¹ģ":4808,"Ġsuff":4809,"Ġarg":4810,"åī§æĥħ":4811,"çģ°":4812,"Ġspe":4813,"é£İæł¼":4814,"Ġgreen":4815,"æĪĺå½¹":4816,"Ġmeasure":4817,"ï¼ļãĢĬ":4818,"Ġeconomic":4819,"ĠPar":4820,"ä¹ĥ":4821,"çĶ·åŃĲ":4822,"è·¨":4823,"è®¾æĸ½":4824,"åĢĴ":4825,"ences":4826,"vere":4827,"åıĳå¸ĥ":4828,"Ġitself":4829,"Â°":4830,"è§ĦåĪĴ":4831,"éĺģ":4832,"ç¬Ķ":4833,"è®Ńç»ĥ":4834,"ä½ľæĽ²":4835,"Ġoil":4836,"ĠState":4837,"ä¿Ĺ":4838,"æ¼«çĶ»":4839,"æĭĶ":4840,"Ġpersonal":4841,"ume":4842,"å®ª":4843,"Ġsam":4844,"å¤ªéĺ³":4845,"iddle":4846,"æĺĨ":4847,"ä¸»ä»»":4848,"Ġweight":4849,"Ġexerc":4850,"å®ŀéĻħ":4851,"æĪĳä»¬":4852,"Ġproduce":4853,"Ġpath":4854,"Ġlink":4855,"ĠDep":4856,"onse":4857,"ä¸Ģä¸ĸ":4858,"Ġgas":4859,"Ġbegan":4860,"Ġjob":4861,"çĩķ":4862,"åĲĦç§į":4863,"ĠEarth":4864,"å¤©æ´¥":4865,"iction":4866,"Ġrights":4867,"abit":4868,"64":4869,"Ġmedic":4870,"äº§åĵģ":4871,"å¸ĮæľĽ":4872,"Ġcomputer":4873,"Ġarr":4874,"Ġclean":4875,"Ġservices":4876,"æ²Ī":4877,"ĠSu":4878,"Ġfeed":4879,"æĮ¯":4880,"abor":4881,"ĠIndia":4882,"éĿĸ":4883,"AC":4884,"åĿĳ":4885,"è§¦":4886,"åŁºçĿ£":4887,"åħ¨çĲĥ":4888,"Ġstop":4889,"æĺĤ":4890,"Ġprinc":4891,"estern":4892,"Ġonline":4893,"èµĸ":4894,"ĠPe":4895,"ç´«":4896,"Ġsepar":4897,"Ġparents":4898,"Ġsafe":4899,"erve":4900,"Ġge":4901,"äºĮä¸ĸ":4902,"è·ĳ":4903,"äºĭåĬ¡":4904,"Ġchemical":4905,"Ġ2011":4906,"å¤§æĪĺ":4907,"ç¥Ń":4908,"åħ¬å¼Ģ":4909,"irm":4910,"ĠHist":4911,"åľ°éĵģ":4912,"Ġdog":4913,"mon":4914,"Ġsoft":4915,"å£¤":4916,"çļĩå¸Ŀ":4917,"yle":4918,"åĬŁèĥ½":4919,"Ġbehavior":4920,"è£Ķ":4921,"Ġregion":4922,"Ġpattern":4923,"Ġtook":4924,"ä¸įæĺ¯":4925,"01":4926,"åľ¨æŃ¤":4927,"çĨĻ":4928,"Ġnecessary":4929,"Ġfarm":4930,"åľ°çĲĥ":4931,"Ġ14":4932,"æĢª":4933,"cient":4934,"åİŁåĽł":4935,"Ġaction":4936,"based":4937,"Ġthroughout":4938,"Ġever":4939,"igure":4940,"ä¸»æ¼Ķ":4941,"è®®ä¼ļ":4942,"Ġliter":4943,"het":4944,"icles":4945,"ript":4946,"Ġcompany":4947,"Ġpopular":4948,"Ġemer":4949,"ç©ºéĹ´":4950,"Ġ2013":4951,"Ġpriv":4952,"asc":4953,"iment":4954,"Ġshows":4955,"AS":4956,"Ġclaim":4957,"ha":4958,"empt":4959,"æŁ´":4960,"åıĳè¡¨":4961,"åģı":4962,"çĸ«":4963,"ccording":4964,"ĠHis":4965,"éĢīæīĭ":4966,"utes":4967,"anced":4968,"Ġtar":4969,"Ġreading":4970,"åħŃå¹´":4971,"ä¸ľéĥ¨":4972,"Ġcolor":4973,"Ġstructure":4974,"æĺİæľĿ":4975,"Ġconduct":4976,"Ġyet":4977,"itation":4978,"ising":4979,"Ġsoil":4980,"Ġindividuals":4981,"çĸ¾":4982,"è´¸":4983,"ster":4984,"188":4985,"èļ":4986,"åªĴä½ĵ":4987,"æķ¬":4988,"ä¸įä¹ħ":4989,"é¢Ĺ":4990,"ç§Ł":4991,"çº¹":4992,"éĶĭ":4993,"Ġterms":4994,"Ġsex":4995,"éĢĬ":4996,"Ġrepl":4997,"Ġrecent":4998,"pid":4999,"åħ½":5000,"ections":5001,"Ġbur":5002,"Ġtherap":5003,"çº¯":5004,"Ġrul":5005,"Ġsociety":5006,"ä½ľå®¶":5007,"67":5008,"Ġ2009":5009,"å¢ĥåĨħ":5010,"æľĪåı°":5011,"é¹¿":5012,"è¾ŀ":5013,"çº¸":5014,"åŃ¦åĲį":5015,"èĳ¬":5016,"ç¬¬äºĶ":5017,"åħ¨éĥ¨":5018,"59":5019,"æ²»çĸĹ":5020,"Ġlonger":5021,"æİĴåĲį":5022,"èĩªæ²»":5023,"çĽ¸åĲĮ":5024,"ĠNo":5025,"èĴĻåı¤":5026,"é¤Ĳ":5027,"Ġcontent":5028,"aff":5029,"erous":5030,"ä»ĸä»¬çļĦ":5031,"Ġregard":5032,"Ġut":5033,"Ġce":5034,"ns":5035,"emic":5036,"ius":5037,"ä»¥æĿ¥":5038,"1997":5039,"è´Ŀå°Ķ":5040,"lt":5041,"Ġfire":5042,"Ġtaking":5043,"èµ¢å¾Ĺ":5044,"ä»įçĦ¶":5045,"ç¤¾åĮº":5046,"ä¼¦æķ¦":5047,"åŁºæľ¬":5048,"å¾Īå¤ļ":5049,"å®ļçļĦ":5050,"ç´¯":5051,"çĲ³":5052,"Ġsense":5053,"çıį":5054,"69":5055,"å£ģ":5056,"è®¡ç®Ĺ":5057,"æķĻç»ĥ":5058,"Ġincreasing":5059,"astic":5060,"æ°ĳæĹı":5061,"ister":5062,"æŁ¯":5063,"Ġmeaning":5064,"âĨ":5065,"Ġsix":5066,"reng":5067,"Ġbuilt":5068,"ĠAfter":5069,"Ġhours":5070,"77":5071,"dom":5072,"Ġinj":5073,"éĵģéģĵ":5074,"æĸ¯ç§ĳ":5075,"ç¡¬":5076,"lands":5077,"ulations":5078,"æ¼ĶåĶ±":5079,"Ġinteract":5080,"Ġsleep":5081,"Ġcop":5082,"Ġheat":5083,"åıĪç§°":5084,"gar":5085,"ively":5086,"ç²ī":5087,"Ġtotal":5088,"ä¼¸":5089,"ä¸ĢåĲį":5090,"âĢĿï¼Ī":5091,"ä¼´":5092,"Ġtravel":5093,"è·³":5094,"Ġprevious":5095,"Ġmatter":5096,"wh":5097,"Ġtalk":5098,"ĠBritish":5099,"ĠJapan":5100,"Ġbreak":5101,"çĲĥä¼ļ":5102,"Ġsurv":5103,"Ġeasy":5104,"è¾¾åĪ°":5105,"ä¿Ĭ":5106,"hel":5107,"å¼ĺ":5108,"èĭ±è¯Ń":5109,"ä¸įåĲĮçļĦ":5110,"Ġcauses":5111,"å»ºäºİ":5112,"Ġlives":5113,"ãĢĤãĢį":5114,"Ġmach":5115,"Ġrev":5116,"Ġcaused":5117,"Ġconc":5118,"ç»Łæ²»":5119,"ĠEm":5120,"Ġservice":5121,"ä¸ºä¸»":5122,"å¤©ä¸»æķĻ":5123,"Ġindustry":5124,"è§Ī":5125,"Ġtraining":5126,"ç»¼åĲĪ":5127,"Ġbenefits":5128,"ä¸ŃåĽ½å¤§éĻĨ":5129,"çĮİ":5130,"Ġposition":5131,"ĠResearch":5132,"åŃŁ":5133,"æľĭ":5134,"41":5135,"éļľ":5136,"çĤİ":5137,"Ġspread":5138,"istics":5139,"Ġcontain":5140,"èµł":5141,"çĬ¹":5142,"Ġmusic":5143,"çĥ§":5144,"ĠWhile":5145,"æłĸ":5146,"è¾ī":5147,"Ġdeb":5148,"43":5149,"ç»§æī¿":5150,"èį£èªī":5151,"åĩºçĶŁäºİ":5152,"è´¾":5153,"åİļ":5154,"æģ¢":5155,"vey":5156,"æ¢°":5157,"ä¼ı":5158,"aily":5159,"åħĭåħ°":5160,"å°½ç®¡":5161,"ĠKing":5162,"istance":5163,"Ġpositive":5164,"å¦»åŃĲ":5165,"Ġ2008":5166,"Ġincludes":5167,"ĠInstit":5168,"å¤ĦçĲĨ":5169,"åĪĢ":5170,"èĮ¶":5171,"fully":5172,"66":5173,"å±ŀçļĦ":5174,"å¹´åĲİ":5175,"çĦ¶åĲİ":5176,"Ġlove":5177,"éĢŁåº¦":5178,"åģ¶":5179,"Ġshown":5180,"Ġdiagn":5181,"ä¿¡æģ¯":5182,"éļĲ":5183,"ĠPart":5184,"Ġbacter":5185,"inary":5186,"è¡Ĺéģĵ":5187,"Ġcontact":5188,"åŃ¦ä½į":5189,"ä½Ĩåľ¨":5190,"èĽĩ":5191,"Ġenvironmental":5192,"ender":5193,"Ġetc":5194,"Ġwild":5195,"æĶ¹ç¼ĸ":5196,"light":5197,"Ġ25":5198,"å¼ĢæĶ¾":5199,"è¿Ī":5200,"ĠWill":5201,"æĻ¶":5202,"é¾Ħ":5203,"æĹģ":5204,"son":5205,"åĽ°":5206,"çĨĬ":5207,"Ġheav":5208,"Ġprovided":5209,"çŃīäºº":5210,"è¯Ħä»·":5211,"ç¨³":5212,"umb":5213,"å°ĳå¹´":5214,"Ġaccept":5215,"åıĺåĮĸ":5216,"Ġ13":5217,"Ġ,":5218,"ufact":5219,"Ġ2015":5220,"eration":5221,"Ġmovement":5222,"rie":5223,"é¼ĵ":5224,"éĺ¿æĭī":5225,"Ġvide":5226,"ino":5227,"Ġviol":5228,"Ġcheck":5229,"æľĢæĹ©":5230,"Ġmechan":5231,"æ®ĭ":5232,"Ġdeep":5233,"æį·":5234,"ades":5235,"Ġsat":5236,"Ġoriginal":5237,"åŁĶ":5238,"Ġbring":5239,"rast":5240,"è°±":5241,"ä½¿å¾Ĺ":5242,"Ġdesigned":5243,"ä¸ļåĬ¡":5244,"æħķ":5245,"minist":5246,"åħ¬åħ±":5247,"Ġfem":5248,"ä¸Ĭæĺł":5249,"ç®Ģç§°":5250,"çī©çĲĨ":5251,"na":5252,"å·´é»İ":5253,"Ġ2014":5254,"Ġthing":5255,"éĶĻ":5256,"99":5257,"æ®Ĭ":5258,"Ġlif":5259,"Ġtrue":5260,"SE":5261,"çģ¯":5262,"èĳĽ":5263,"ç»ıèĲ¥":5264,"ç»ıå¸¸":5265,"1996":5266,"Ġvari":5267,"å®ħ":5268,"ĠSec":5269,"ĠPer":5270,"åĽŀåĪ°":5271,"å¨ģå»ī":5272,"Ġaverage":5273,"Ġschools":5274,"åĹ":5275,"idge":5276,"èĥĮæĻ¯":5277,"uk":5278,"Ġled":5279,"ropri":5280,"aving":5281,"ched":5282,"Ġste":5283,"order":5284,"62":5285,"ricult":5286,"Ġsimply":5287,"çİĭåĽ½":5288,"aling":5289,"éĺ¶æ®µ":5290,"Ġrelative":5291,"ãģĹ":5292,"èµĦæĸĻ":5293,"èİ²":5294,"Ġsubst":5295,"hold":5296,"çķª":5297,"rior":5298,"ç¦ıå»º":5299,"æľĢå¤§":5300,"ĠEd":5301,"ç®Ń":5302,"hood":5303,"ille":5304,"æ°ĳä¸»":5305,"oor":5306,"rought":5307,"ç¾¤å²Ľ":5308,"ength":5309,"æ¡£":5310,"æŁ³":5311,"57":5312,"çļĦå°ı":5313,"éĢĿä¸ĸ":5314,"verse":5315,"amed":5316,"ä¸Ńæĸĩ":5317,"Ġprec":5318,"ĠCount":5319,"åĬŀåħ¬":5320,"åİ¦":5321,"02":5322,"Ġstandard":5323,"Ġresponse":5324,"ä¸¥éĩį":5325,"Ġeat":5326,"Ġregular":5327,"ä¹³":5328,"osition":5329,"ronic":5330,"Ġgreater":5331,"co":5332,"è½´":5333,"æģ¢å¤į":5334,"Ġexc":5335,"çİĦ":5336,"åĩºäºĨ":5337,"Ġvariety":5338,"But":5339,"æ¯Ķäºļ":5340,"åħ¬å°º":5341,"Ġsometimes":5342,"Ġcompan":5343,"IV":5344,"çĩĥ":5345,"ials":5346,"iot":5347,"atives":5348,"éĥ¨éĹ¨":5349,"è¿ĲèĲ¥":5350,"ED":5351,"Ġdoing":5352,"Ġfru":5353,"Ġearth":5354,"åĽ¾ä¹¦":5355,"é¢ĳéģĵ":5356,"ĠChina":5357,"Ġmethods":5358,"Ġdemon":5359,"ä¼°":5360,"abet":5361,"éŀ":5362,"è¡¨æ¼Ķ":5363,"å¹¿å·ŀ":5364,"çļĦæĸ°":5365,"rench":5366,"åıĳåĬ¨":5367,"ãĥĪ":5368,"ç¾İæ´²":5369,"61":5370,"rew":5371,"å·¦åı³":5372,"aries":5373,"åĽ½æ°ĳ":5374,"èį·åħ°":5375,"è¡ĮæĶ¿åĮº":5376,"æĬĺ":5377,"èĢħçļĦ":5378,"Ġorigin":5379,"åĲĥ":5380,"Ġculture":5381,"å°Ķå¾·":5382,"ĠMin":5383,"éĻķ":5384,"æĮĳ":5385,"æĿī":5386,"Ġ2016":5387,"ĠSte":5388,"82":5389,"know":5390,"!!!!!!!!!!!!!!!!!!!!!!!!!!!!!!!!!!!!!!!!!!!!!!!!!!!!!!!!!!!!!!!!":5391,"çºµ":5392,"çĮª":5393,"Ġcarbon":5394,"éĶ¦æłĩèµĽ":5395,"ban":5396,"Ġreview":5397,"åŁºåľ°":5398,"Ġsources":5399,"ĠScience":5400,"å¤§éĥ¨åĪĨ":5401,"æ¶ī":5402,"æķ´ä¸ª":5403,"Ġscientists":5404,"Ġthreat":5405,"è§Ħæ¨¡":5406,"imately":5407,"ony":5408,"ederal":5409,"ĠJew":5410,"çĶŁäºİ":5411,"Ġremov":5412,"arily":5413,"1994":5414,"æĬļ":5415,"çĽ®æłĩ":5416,"èī²çļĦ":5417,"å®ĺæĸ¹":5418,"Ġhelps":5419,"ĠBo":5420,"æµģè¡Į":5421,"è®®åĳĺ":5422,"Ġtarget":5423,"BC":5424,"Ġstreng":5425,"1995":5426,"å°Ĩåħ¶":5427,"ç¯®":5428,"54":5429,"æ±Ĺ":5430,"æĴĴ":5431,"Ġnetwork":5432,"åŀĴ":5433,"è¿Ļæł·":5434,"ĠHar":5435,"ops":5436,"Ġbelieve":5437,"èº«ä»½":5438,"Ġevents":5439,"ç¢ĳ":5440,"çļĩå®¶":5441,"éĽ¶":5442,"Ġwritten":5443,"åŃĲçļĦ":5444,"51":5445,"63":5446,"åĩ¡":5447,"å¥´":5448,"Ġuses":5449,"Ġreported":5450,"çŃīåľ°":5451,"Ġi":5452,"Ġinvolved":5453,"Ġface":5454,"53":5455,"Ġslow":5456,"ĠEl":5457,"å¡ŀå°Ķ":5458,"çĮ«":5459,"duc":5460,"æ¶ħ":5461,"ises":5462,"Ð¾Ð":5463,"éķ¿çļĦ":5464,"ucle":5465,"Ġissue":5466,"ãĥ©":5467,"ç¦Ħ":5468,"Ġencoura":5469,"elling":5470,"erson":5471,"èĭĹ":5472,"èīĩ":5473,"ĠPres":5474,"æĪĸèĢħ":5475,"ç§ĳæĬĢ":5476,"å¹´èµ·":5477,"ĠQu":5478,"oly":5479,"æķĻåĮº":5480,"Ġidentify":5481,"ĠæĿİ":5482,"åĨ¯":5483,"æ³ķå¾ĭ":5484,"Ġprograms":5485,"Ġpict":5486,"Ġcompet":5487,"éĢĲæ¸Ĳ":5488,"Ġtax":5489,"Ġpoor":5490,"aur":5491,"ief":5492,"è¦":5493,"åĪĹè¡¨":5494,"Ġ2007":5495,"æľĢå¤§çļĦ":5496,"Ġfeet":5497,"åħ¬ä¸»":5498,"éĤĢ":5499,"å²Ń":5500,"new":5501,"bor":5502,"åľŁåľ°":5503,"ç¼ĸçłģ":5504,"åį¿":5505,"æľĿé²ľ":5506,"åŃ¦èĢħ":5507,"çĭ±":5508,"EN":5509,"Ġsqu":5510,"Ġnormal":5511,"oles":5512,"æħĪ":5513,"Ġsaf":5514,"è¿Ĳè¡Į":5515,"ctions":5516,"æ¾³éĹ¨":5517,"ç»ıåİĨ":5518,"88":5519,"çļĦç¬¬":5520,"Ġdamage":5521,"Ġpoll":5522,"Ġimage":5523,"Ġlat":5524,"è½¦è¾Ĩ":5525,"Ġdeveloping":5526,"ĠFran":5527,"Ġoutside":5528,"71":5529,"Ġdispl":5530,"æĶ¿æ²»äººçī©":5531,"Ġlack":5532,"rs":5533,"çĲĥåľº":5534,"room":5535,"æĭĨ":5536,"é«ĺçŃī":5537,"å±ħä½ı":5538,"æ±½è½¦":5539,"ç¬¬äºĮæ¬¡":5540,"åĪĨæŀĲ":5541,"å¤§çº¦":5542,"ads":5543,"ç»ª":5544,"part":5545,"Ġbal":5546,"Ġrespect":5547,"Ġfoods":5548,"Ġvirus":5549,"Ġvisit":5550,"Ġensure":5551,"52":5552,"çĹħæ¯Ĵ":5553,"Ġparticularly":5554,"ĠApp":5555,"âĢ¢":5556,"åĪĻæĺ¯":5557,"çļĦä¸»è¦ģ":5558,"åıĽ":5559,"Ġple":5560,"æĿĤå¿Ĺ":5561,"è¿ĩåİ»":5562,"Ġpsych":5563,"Ġforms":5564,"Ġimplement":5565,"72":5566,"Ġ|":5567,"mar":5568,"Ġmedia":5569,"Ġproduced":5570,"Ġextreme":5571,"Ġwebs":5572,"aches":5573,"ached":5574,"orks":5575,"Ġnumbers":5576,"çŃĶ":5577,"Ġcompon":5578,"ãĢįãĢģ":5579,"åıĻ":5580,"ä»¥ä¸Ĭ":5581,"Ġlate":5582,"Ġharm":5583,"Ġattempt":5584,"Ġmess":5585,"IT":5586,"éĥ¨ä»½":5587,"æ¯Ķè¾ĥ":5588,"ç½ĳç»ľ":5589,"Ġemot":5590,"èĽĭçĻ½":5591,"æķĪåĬĽ":5592,"ä»»åĳ½":5593,"Ġcust":5594,"Ġaff":5595,"åĴ¸":5596,"imum":5597,"å¤ļçļĦ":5598,"Ġpage":5599,"å¥³æĢ§":5600,"Ġattention":5601,"è¢«è®¤ä¸º":5602,"Ġrefer":5603,"Ġforce":5604,"èħ¹":5605,"ĠAustral":5606,"æĮģç»Ń":5607,"uge":5608,"å°ĸ":5609,"ç¾Ĭ":5610,"è®°å½ķ":5611,"ä½ĵçļĦ":5612,"è¯Ĭ":5613,"ĠMus":5614,"Ġveget":5615,"æĸ¯çļĦ":5616,"Ġgenerally":5617,"ä¸įä¼ļ":5618,"And":5619,"Ġexpress":5620,"è¡Ķ":5621,"ners":5622,"è¿ĽæĶ»":5623,"Ġcamp":5624,"pe":5625,"èĹ©":5626,"Ġbasic":5627,"Ġteachers":5628,"ming":5629,"lies":5630,"Ġspeed":5631,"èĻļ":5632,"æ²Ł":5633,"isions":5634,"Ġlog":5635,"Ġchalleng":5636,"Ġserious":5637,"åĪĨå¸ĥäºİ":5638,"åºĶçĶ¨":5639,"è¡¡":5640,"Ġseries":5641,"Ġincluded":5642,"rig":5643,"1993":5644,"åħĪåĲİ":5645,"å¥ĸé¡¹":5646,"å°ļä¹¦":5647,"æ½ĺ":5648,"Ġgrowing":5649,"osure":5650,"æĶ¹åĪ¶":5651,"äº¤æĺĵ":5652,"è´¯":5653,"Ġcorrect":5654,"ervation":5655,"ç¥ĸçĪ¶":5656,"æħ¢":5657,"erg":5658,"Ġemb":5659,"æĹłçº¿":5660,"Ġmanufact":5661,"åŀĭçļĦ":5662,"Ġ40":5663,"1980":5664,"1992":5665,"ĠII":5666,"åįıåĬ©":5667,"Ġshare":5668,"éĿ©åĳ½":5669,"çĺ":5670,"èīĺ":5671,"éĺŁçļĦ":5672,"èİ·å¾ĹäºĨ":5673,"Ġdefin":5674,"ç¥¥":5675,"è¿Ĳè¾ĵ":5676,"Ġconsist":5677,"Ġforest":5678,"Ġir":5679,"set":5680,"é¥®":5681,"issions":5682,"omet":5683,"çģ¾":5684,"æĭĴ":5685,"ĠAg":5686,"åĬłåĿ¡":5687,"æ±Łèĭı":5688,"åıįå¯¹":5689,"ension":5690,"73":5691,"åĶ±çīĩ":5692,"Ġox":5693,"å¼±":5694,"è¯Ħè®º":5695,"aul":5696,"Ġwood":5697,"åħģ":5698,"æŃ¦åĻ¨":5699,"Ġessential":5700,"Âł":5701,"éĻĨåĨĽ":5702,"å°ī":5703,"Ġindepend":5704,"Ġselect":5705,"æĬ¥åĳĬ":5706,"Ġpatient":5707,"Ġprobably":5708,"å¹ħ":5709,"vention":5710,"å¾·éĩĮ":5711,"ï¼ĮâĢľ":5712,"æ¡Ĥ":5713,"æ³ķéĻ¢":5714,"Ġdoesn":5715,"ãĥª":5716,"uth":5717,"èĶ¡":5718,"çĽĹ":5719,"Ġsomeone":5720,"Ġelectric":5721,"ç»´å°Ķ":5722,"å¤§éģĵ":5723,"æĺİæ²»":5724,"åĦ¿ç«¥":5725,"ĠPre":5726,"è§£æĶ¾":5727,"fect":5728,"åľ³":5729,"å»ºæĪĲ":5730,"ãĤ¯":5731,"æĸĳ":5732,"Ġsafety":5733,"å¥¥è¿Ĳ":5734,"Ġpolicy":5735,"Ġprint":5736,"äººä»¬":5737,"Ġcover":5738,"ĠInt":5739,"ä¸Ńéĥ¨":5740,"Ġcoun":5741,"Ġcontinue":5742,"çłĶç©¶æīĢ":5743,"ĠJu":5744,"ĠSm":5745,"çĨŁ":5746,"Ġaware":5747,"ĠSch":5748,"è¿ĺæĺ¯":5749,"ãģĭ":5750,"æľºä¼ļ":5751,"ĠMany":5752,"Ġsust":5753,"å¹´è½»":5754,"åĿĽ":5755,"ĠCO":5756,"è©":5757,"ls":5758,"è´ŀ":5759,"ä½ľæĪĺ":5760,"Ġgetting":5761,"cell":5762,"æĲŃ":5763,"Ġcit":5764,"ç»ķ":5765,"å¥¥æĸ¯":5766,"osing":5767,"è®¾å¤ĩ":5768,"ĠFr":5769,"Ġ2017":5770,"çļĦé«ĺ":5771,"ribution":5772,"ems":5773,"oes":5774,"åĩºä»»":5775,"åı°åĮĹ":5776,"æĻ®éĢļ":5777,"Ġeth":5778,"ography":5779,"å®ĹæķĻ":5780,"Ġ--":5781,"ĠCenter":5782,"ãĤ¢":5783,"ãģª":5784,"He":5785,"åİĺ":5786,"æĸ°åĬłåĿ¡":5787,"Ġmagn":5788,"æĥĬ":5789,"ties":5790,"åıĶ":5791,"ington":5792,"Ġperformance":5793,"æĿ¥æºĲ":5794,"itch":5795,"æ§":5796,"å°ıåŃ¦":5797,"Ġanimal":5798,"åĲĮæł·":5799,"çĹĽ":5800,"é©¬æĿ¥è¥¿äºļ":5801,"å¤§èĩ£":5802,"åĬłçĽŁ":5803,"Ġideas":5804,"åĨľä¸ļ":5805,"cil":5806,"çļĦåīį":5807,"åİŁæľ¬":5808,"Ġcapt":5809,"æĿĲæĸĻ":5810,"Ġsea":5811,"Re":5812,"ror":5813,"Ġwall":5814,"ç»ĵå©ļ":5815,"Ġallows":5816,"å½±çīĩ":5817,"é©¶":5818,"1991":5819,"AM":5820,"imin":5821,"aly":5822,"ï¼īï¼Ī":5823,"att":5824,"ä¿ĿæĮģ":5825,"den":5826,"Ġsou":5827,"ancial":5828,"ç¨İ":5829,"åĪĿæľŁ":5830,"ĠCons":5831,"Ġkids":5832,"Ġåľ¨":5833,"èĳĹä½ľ":5834,"Ġvacc":5835,"Ġtiss":5836,"ancy":5837,"èĬĿ":5838,"irit":5839,"çº²":5840,"Ġnight":5841,"è·¯æĺĵ":5842,"èµĦæł¼":5843,"åı¸ä»¤":5844,"Ġprep":5845,"çīłä»¬":5846,"ĠJan":5847,"è©¹":5848,"Ġprimary":5849,"Ġcross":5850,"Ġdaily":5851,"ĠMc":5852,"æĴŀ":5853,"åľ°åĮºçļĦ":5854,"ĠGl":5855,"åı¸é©¬":5856,"cies":5857,"åĽ¢ä½ĵ":5858,"æĿ¡ä»¶":5859,"haps":5860,"ĠChar":5861,"Ġtakes":5862,"Ġago":5863,"ç²Ĵ":5864,"TV":5865,"éģ£":5866,"Ġtheory":5867,"Ġbab":5868,"Ġhyd":5869,"åħ¬å¸ĥ":5870,"çĥŁ":5871,"right":5872,"åĸľæ¬¢":5873,"ground":5874,"çİĭæľĿ":5875,"ãĤĵ":5876,"æľĭåıĭ":5877,"è´¸æĺĵ":5878,"Ġdou":5879,"ï¼īï¼Ľ":5880,"UTC":5881,"uary":5882,"raft":5883,"Ġlooking":5884,"Ġthus":5885,"Ġtherefore":5886,"ä¸Ģä½į":5887,"ĠYour":5888,"æľ¬ç«Ļ":5889,"æķĻä¼ļ":5890,"è¯ļ":5891,"åıĳå°Ħ":5892,"Ġdraw":5893,"ĠAug":5894,"æ¹ĸåįĹ":5895,"å¼ķèµ·":5896,"Ġleaders":5897,"ĠWest":5898,"åĤ¨":5899,"Ġcompared":5900,"çĬ¶æĢģ":5901,"ĠIndian":5902,"Ġattack":5903,"Ðº":5904,"Ar":5905,"useum":5906,"åŁİåĮº":5907,"ãģ¨":5908,"æľīçļĦ":5909,"èĭ¦":5910,"Ġdifference":5911,"ĠPhil":5912,"iency":5913,"æ¢¯":5914,"åıĤèµĽ":5915,"asons":5916,"Ġful":5917,"ãĥĥ":5918,"ä¸ĥå¹´":5919,"èº«ä½ĵ":5920,"Ġtend":5921,"Ġtraditional":5922,"ĠCor":5923,"éģĤ":5924,"å¹´è¢«":5925,"ĠMore":5926,"Ġstarted":5927,"ĠRec":5928,"Ġconcent":5929,"ä¹¾":5930,"æīĢåľ¨":5931,"ica":5932,"Ġquite":5933,"ĠBar":5934,"ãģŁ":5935,"ÑĤ":5936,"Ġec":5937,"ĠArt":5938,"Ġeasily":5939,"åį¡å°Ķ":5940,"æľīæĹ¶":5941,"74":5942,"Ġestim":5943,"Ġheld":5944,"é©¾":5945,"ounds":5946,"Ġmother":5947,"elt":5948,"Ġcompanies":5949,"æİ¨åĩº":5950,"èĬ³":5951,"Ġinternational":5952,"ecause":5953,"Ġcivil":5954,"Ġwarm":5955,"å¤§ä¼ļ":5956,"Ġmultiple":5957,"omb":5958,"åĲįåįķ":5959,"Ġinstead":5960,"Ġadded":5961,"ift":5962,"æĹħæ¸¸":5963,"ĠInstitute":5964,"èĩªåĬ¨":5965,"äº¤æµģ":5966,"éħĴåºĹ":5967,"çļĦä¸Ģç§į":5968,"where":5969,"æľºæ¢°":5970,"Ġlarger":5971,"Ġaltern":5972,"Ġeval":5973,"åĩłä¹İ":5974,"æĶ¶å½ķ":5975,"é¢ĨåŁŁ":5976,"89":5977,"ham":5978,"åı¥":5979,"Ġvit":5980,"æ¯ĶèµĽä¸Ń":5981,"overy":5982,"ĠAc":5983,"Ġappropri":5984,"ĠMost":5985,"è§Ĥä¼Ĺ":5986,"ying":5987,"ĠEuropean":5988,"çŀ":5989,"æµ®":5990,"æ·¡":5991,"ĠAfrica":5992,"Ġreve":5993,"Ġreflect":5994,"Ġdiv":5995,"Ġpoints":5996,"çĶµåĬĽ":5997,"Ġsil":5998,"éģĹåĿĢ":5999,"Ġgard":6000,"iers":6001,"Ġfa":6002,"æĶ¹åıĺ":6003,"ari":6004,"æĽ¾åľ¨":6005,"Ġ2006":6006,"Ġtown":6007,"å¹³æĸ¹ç±³":6008,"One":6009,"Ġfav":6010,"èĮĤ":6011,"æ¾³å¤§":6012,"å¥½çļĦ":6013,"thern":6014,"ellow":6015,"ĠJes":6016,"æ£®æŀĹ":6017,"éī":6018,"ä¸Ģå¹´":6019,"ç¬¬åįģ":6020,"Ġthous":6021,"Ġdecre":6022,"èĭ±éĽĦ":6023,"å®ĥçļĦ":6024,"åıĸä»£":6025,"ä¹Ŀå¹´":6026,"AL":6027,"ç»ĦåĲĪ":6028,"äºĳåįĹ":6029,"ims":6030,"åĿĬ":6031,"æĶ¿çŃĸ":6032,"lied":6033,"Ġwaste":6034,"æİī":6035,"ç¬ĳ":6036,"Ġcommit":6037,"Ġinvestig":6038,"ĠInternational":6039,"ara":6040,"è¦Ĩ":6041,"ãĢĤï¼Ī":6042,"Ġtree":6043,"inks":6044,"Ġanswer":6045,"èĭ±æĸĩ":6046,"åĢį":6047,"Ġsold":6048,"æŃ¤åĲİ":6049,"Ġdocument":6050,"å½¦":6051,"iforn":6052,"Ġdiseases":6053,"Ġmental":6054,"å³¡":6055,"âĨĴ":6056,"Ġfoot":6057,"itude":6058,"çĥŃå¸¦":6059,"Ġdemonstr":6060,"AP":6061,"Ġoffer":6062,"ç®Ģä»ĭ":6063,"èµĲ":6064,"èµĦæºĲ":6065,"å¤ªå¹³æ´ĭ":6066,"www":6067,"Ġdetermine":6068,"ky":6069,"å¾¡åı²":6070,"çīµ":6071,"Ġunique":6072,"ĠFrench":6073,"åĮĸçŁ³":6074,"Ġimmedi":6075,"éģį":6076,"å»ºè®®":6077,"Ġfront":6078,"æĺ¯ä¸ŃåĽ½":6079,"Ġnegative":6080,"ĠKe":6081,"Ġmilitary":6082,"Ġachieve":6083,"pril":6084,"ãĢĤãĢĬ":6085,"ä¹Įåħĭåħ°":6086,"Ġhumans":6087,"åºĬ":6088,"å±±è¥¿":6089,"Ġx":6090,"olar":6091,"å¹³åı°":6092,"Ġtools":6093,"Ġthird":6094,"åħ«å¹´":6095,"å¤«äºº":6096,"Ġtrees":6097,"éĿ¢çļĦ":6098,"BS":6099,"gn":6100,"Ġquickly":6101,"ĠEduc":6102,"æµ©":6103,"hern":6104,"Un":6105,"Ġtur":6106,"Ġ+":6107,"èĥ¶":6108,"Ġdang":6109,"Ġ2018":6110,"çľģä»½":6111,"ç»´äºļ":6112,"ĠOf":6113,"Ġestablished":6114,"å¤ļæ¬¡":6115,"ceed":6116,"æµħ":6117,"ĠÂ":6118,"åĨħéĥ¨":6119,"Ġinfection":6120,"é¸¡":6121,"Ġquant":6122,"iques":6123,"éĥ½ä¼ļ":6124,"è·¯çº¿":6125,"Ġinside":6126,"éĻķè¥¿":6127,"å´Ķ":6128,"water":6129,"å¨ģå°Ķ":6130,"ĠHer":6131,"joy":6132,"æ³ķåħ°":6133,"Ġwrite":6134,"Ġworkers":6135,"å¿«éĢŁ":6136,"Ġscientific":6137,"ä¿ĥ":6138,"Ġnation":6139,"ĠMon":6140,"èĩ³ä»Ĭ":6141,"arr":6142,"æĸ¯åŁº":6143,"Ġhighly":6144,"Ġdry":6145,"åħ¬åħĥ":6146,"Ġprogress":6147,"term":6148,"å¤§åŀĭ":6149,"éĤĵ":6150,"Ġbooks":6151,"ĠReg":6152,"undred":6153,"Ġcommunities":6154,"300":6155,"Ġcritical":6156,"ĠRuss":6157,"ira":6158,"å¹¶åħ¥":6159,"ustr":6160,"Ġsecurity":6161,"è¶ĬåįĹ":6162,"äºĨä¸Ģä¸ª":6163,"å¹³æĸ¹åħ¬éĩĮ":6164,"éĶ®":6165,"iter":6166,"Ġanaly":6167,"bol":6168,"åįģåĪĨ":6169,"isms":6170,"Ġacid":6171,"lier":6172,"iber":6173,"å½Ń":6174,"ç»´å¥ĩ":6175,"Ġsoon":6176,"éĩįè¦ģçļĦ":6177,"åħ¥åı£":6178,"nov":6179,"reek":6180,"yond":6181,"ãĢįãĢģãĢĮ":6182,"Ġalthough":6183,"Ġactive":6184,"åĽ½å®¶éĺŁ":6185,"æĭĵ":6186,"Ġsevere":6187,"çļĦä¸Ģéĥ¨åĪĨ":6188,"Ġbroad":6189,"å²³":6190,"ä¾ł":6191,"ä¸ľè¥¿":6192,"æ¾³å¤§åĪ©äºļ":6193,"åĩıå°ĳ":6194,"vant":6195,"ä¼łè¯´":6196,"å¦ĥ":6197,"åĩĨå¤ĩ":6198,"åľ¨è¿Ļ":6199,"ç½ķ":6200,"ĠãĢĤ":6201,"Ġhar":6202,"Ġbit":6203,"Ġessay":6204,"CO":6205,"cean":6206,"Ġhor":6207,"ĠTra":6208,"æŀ¢":6209,"che":6210,"ifornia":6211,"ç¾İæľ¯":6212,"Ġhot":6213,"è¯ŀ":6214,"Ġeye":6215,"Ġextra":6216,"Ġinstit":6217,"å¨±ä¹Ĳ":6218,"åĮ»åŃ¦":6219,"å¸¸è§ģ":6220,"å¡ĺ":6221,"æ°§åĮĸ":6222,"éĩįçĤ¹":6223,"Pro":6224,"ĠRiver":6225,"Sh":6226,"ä¹Ķæ²»":6227,"Ġbirth":6228,"ç¼ĸåī§":6229,"itis":6230,"Ġsus":6231,"çļĦä¸»":6232,"Ġprior":6233,"Ġsolar":6234,"Ġ24":6235,"çī¹æ®Ĭ":6236,"ford":6237,"ĠDepartment":6238,"ä»²":6239,"çĪĨåıĳ":6240,"æĽ´åĲįä¸º":6241,"Be":6242,"Ġaud":6243,"æĭŁ":6244,"oming":6245,"ulate":6246,"Ġpurpose":6247,"Ġtowards":6248,"åİĦ":6249,"Ġadditional":6250,"ä¸ºä¸Ģ":6251,"lation":6252,"ula":6253,"ĠMy":6254,"Ġtri":6255,"åĪºåı²":6256,"Ġuseful":6257,"ĠAfrican":6258,"oe":6259,"å¤©æĸĩ":6260,"formation":6261,"abetes":6262,"æ¯ıå¹´":6263,"åĮºä¸º":6264,"æĺ¯æĮĩ":6265,"Ġtransport":6266,"ype":6267,"Äģ":6268,"bur":6269,"Ġbehind":6270,"Ġlands":6271,"Ġshall":6272,"å¹¿æ³Ľ":6273,"å·´è¥¿":6274,"Ġdirectly":6275,"ãĤĬ":6276,"Ġlabor":6277,"Ġaspect":6278,"çĻ»åľº":6279,"Ġspeak":6280,"äºŃ":6281,"Ġhabit":6282,"vest":6283,"Ġdecl":6284,"ä¼¯çī¹":6285,"ä¹¦è®°":6286,"Ġhost":6287,"Ġhands":6288,"èĢĮåľ¨":6289,"ĠIS":6290,"çļĦæĹ¶åĢĻ":6291,"98":6292,"åĽ½çļĦ":6293,"Ġvideo":6294,"ĠDav":6295,"åĲįçļĦ":6296,"åĭ¤":6297,"Ġ2005":6298,"ç²¾ç¥ŀ":6299,"ĠNot":6300,"Ġast":6301,"é«ĺçº§":6302,"Ġcentral":6303,"ä¹ĲåĽ¢":6304,"Cl":6305,"å·ŀçļĦ":6306,"çĭ®":6307,"çĵľ":6308,"æ·±åľ³":6309,"æĺŁæľŁ":6310,"ama":6311,"ĠOther":6312,"Ġbad":6313,"Ġstra":6314,"Ġstay":6315,"Ġbeginning":6316,"ĠMarch":6317,"ĠUs":6318,"åŁºéĩĳ":6319,"é«ĺä¸Ń":6320,"uries":6321,"1988":6322,"oring":6323,"uro":6324,"çĵ¦å°Ķ":6325,"åĭĥ":6326,"Ġaccur":6327,"Ġclin":6328,"æ³¢åħ°":6329,"Ġexpect":6330,"éĢıè¿ĩ":6331,"1950":6332,"åĪĨåŃĲ":6333,"å®ļä¹ī":6334,"é«ĺéĢŁåħ¬è·¯":6335,"Ġleading":6336,"èĨľ":6337,"å¹´åı·":6338,"å¤ļä¸ª":6339,"è¶£":6340,"Ġdrink":6341,"anks":6342,"Ġwalk":6343,"çŁ¥éģĵ":6344,"BA":6345,"Ġmount":6346,"Ġder":6347,"çī©è´¨":6348,"gency":6349,"æĥħåĨµä¸ĭ":6350,"Ġproced":6351,"èĤ¡ä»½":6352,"pper":6353,"Ġfram":6354,"æĮĩåĩº":6355,"æĿŃ":6356,"å°¼æĸ¯":6357,"å½ĵä¸Ń":6358,"Ġfamilies":6359,"ä¸ªæľĪ":6360,"åĩºæĪĺ":6361,"Ġlimited":6362,"å½¼å¾Ĺ":6363,"Ġbase":6364,"CD":6365,"äºļåİĨ":6366,"åĽ¾ä¹¦é¦Ĩ":6367,"ĠSept":6368,"Ġsearch":6369,"Ġones":6370,"é¹°":6371,"æİ¥å£¤":6372,"Ġsupply":6373,"æ±Łè¥¿":6374,"Ġobt":6375,"Ġexercise":6376,"orthern":6377,"ç£ģ":6378,"Ġstri":6379,"ĠChild":6380,"è¯¦":6381,"see":6382,"ä»·åĢ¼":6383,"Ġteaching":6384,"åįĴ":6385,"Ġnorth":6386,"Ġsituation":6387,"åįĵ":6388,"å¯¹æīĭ":6389,"ST":6390,"rag":6391,"æ¬²":6392,"Ġsection":6393,"Ġ2000":6394,"lection":6395,"ĠGerman":6396,"1989":6397,"ĠSw":6398,"å½°":6399,"å®ı":6400,"æĮĤ":6401,"ç§Ĵ":6402,"ç©ºåĨĽ":6403,"Ġinfluence":6404,"çĽ¸å¯¹":6405,"æ³¥":6406,"ĠJesus":6407,"æĶ¹åĪ¶ä¸º":6408,"inct":6409,"ĠPark":6410,"éĩĮçļĦ":6411,"åĩºèº«":6412,"fort":6413,"At":6414,"Ġfast":6415,"Ġlength":6416,"ĠOct":6417,"ä»°":6418,"Ġcustom":6419,"Ġapplication":6420,"åıĺæĪĲ":6421,"æµĵ":6422,"Ġcontribut":6423,"ä¸ĸçķĮæĿ¯":6424,"åĪ¸":6425,"æ³³":6426,"å®ŀæĸ½":6427,"Ġwent":6428,"hens":6429,"ĠDay":6430,"èĪ°éĺŁ":6431,"å®Ļ":6432,"ologies":6433,"ç§»åĬ¨":6434,"ä¹ĭå¤ĸ":6435,"æľªèĥ½":6436,"Ġfeatures":6437,"ĠAlthough":6438,"Ġwhose":6439,"éĩįå»º":6440,"éķ¿æľŁ":6441,"ä¼Ĭæĸ¯":6442,"æĻĵ":6443,"ĠEngland":6444,"alt":6445,"Ġmom":6446,"åıĬåħ¶":6447,"Ġvalues":6448,"Ġseems":6449,"Ġcard":6450,"åĿİ":6451,"æº¶":6452,"Ġpack":6453,"Ph":6454,"éī´":6455,"istry":6456,"ĠGr":6457,"ä¼ļåľ¨":6458,"å½ĵéĢī":6459,"åĽĽåįģ":6460,"ĠAssoci":6461,"bit":6462,"arian":6463,"éģŃåĪ°":6464,"aint":6465,"ä¹ĭåŃĲ":6466,"Ġdescribed":6467,"ĠInc":6468,"èĻĳ":6469,"çĻ½èī²":6470,"ĠTw":6471,"åĬĽéĩı":6472,"ĠCanada":6473,"åĪ°è¾¾":6474,"Ġsoftware":6475,"Ġnews":6476,"Ġcontains":6477,"éĦ":6478,"ä¹¾éļĨ":6479,"Ġminutes":6480,"Ġlost":6481,"Ġmill":6482,"çº¢èī²":6483,"Ġhttp":6484,"Ġcred":6485,"rote":6486,"cial":6487,"ĠWilliam":6488,"ii":6489,"ĠRet":6490,"Ġblock":6491,"ä¸įåı¯":6492,"Ġfight":6493,"Ġfinancial":6494,"å¡ĳ":6495,"åĪ¶åº¦":6496,"uman":6497,"Ġang":6498,"oud":6499,"ription":6500,"Ġancient":6501,"åħ¥éĢī":6502,"æĺŃåĴĮ":6503,"Ġsn":6504,"ç¬¬åħŃ":6505,"âĢĿ.":6506,"ĠCalifornia":6507,"ä¸Ī":6508,"95":6509,"Ġfit":6510,"ãĥ¼ãĥ":6511,"ields":6512,"å¤ªåŃĲ":6513,"åħĪçĶŁ":6514,"Ġprotein":6515,"Ġrates":6516,"Ġinterp":6517,"So":6518,"æĸ¹çļĦ":6519,"Ġenjoy":6520,"aste":6521,"mission":6522,"çĲĥåŃ£":6523,"åĬłä¸Ĭ":6524,"Ad":6525,"å§Ĩæĸ¯":6526,"ĠAnt":6527,"çļĦé¦ĸ":6528,"Ġæĸ°":6529,"Ġjo":6530,"è§Ħå®ļ":6531,"ä»¥åĲİ":6532,"æħ§":6533,"PS":6534,"åľ¨ç¾İåĽ½":6535,"å¤ĸäº¤":6536,"èĤĥ":6537,"inese":6538,"åĩºçīĪç¤¾":6539,"Ã¡":6540,"reet":6541,"ĠBr":6542,"Ġ21":6543,"ald":6544,"Ġrequires":6545,"Ġdisp":6546,"æİ¥è¿ĳ":6547,"Ġstrateg":6548,"igr":6549,"Ġdevices":6550,"Ġdark":6551,"Ġdoctor":6552,"wise":6553,"éĺª":6554,"çº¿çļĦ":6555,"åĲ¨":6556,"1970":6557,"è¿ĶåĽŀ":6558,"Ġelements":6559,"ç»ĵåĲĪ":6560,"ç¡®å®ļ":6561,"Ġnearly":6562,"back":6563,"Ġbacteria":6564,"ĠServ":6565,"Ex":6566,"omy":6567,"estic":6568,"sect":6569,"coh":6570,"ĠAugust":6571,"Ġweeks":6572,"æ´Ĺ":6573,"éĩĳå±ŀ":6574,"Ġthinking":6575,"Ġtable":6576,"ç¬¬ä¸Ģä¸ª":6577,"Ġnucle":6578,"ç¼ĸçłģä¸ºP":6579,"ãģĨ":6580,"Ġexact":6581,"su":6582,"è¡ĮæĺŁ":6583,"lin":6584,"itect":6585,"æĺİæĺ¾":6586,"Ġhundred":6587,"âĢ¦âĢ¦":6588,"æĭĴç»Ŀ":6589,"æī¹åĩĨ":6590,"è£ķ":6591,"ä¸ĢåĲĮ":6592,"Ġcapital":6593,"èĥľåĪ©":6594,"Ġimportance":6595,"çļĩåĲİ":6596,"çĽĳçĿ£":6597,"ĠFirst":6598,"çĳŀåħ¸":6599,"Ġveh":6600,")ãĢĤ":6601,"1986":6602,"Ġprotection":6603,"å±¯":6604,"çŃ¹":6605,"ä¸ĢæŃ¥":6606,"Ġsouth":6607,"æĶ¹éĿ©":6608,"ĠJuly":6609,"éĿŀæ´²":6610,"è¿Ľè¡ĮäºĨ":6611,"ĠSystem":6612,"resh":6613,"Ġborn":6614,"iles":6615,"æ¯ıä¸ª":6616,"ç¡ķ":6617,"rogen":6618,"med":6619,"book":6620,"æĹ¥èĩ³":6621,"åĲĦåľ°":6622,"åĽłèĢĮ":6623,"æľªæĿ¥":6624,"èĳ£äºĭ":6625,"Ġwebsite":6626,"ĠApril":6627,"èµ·æĿ¥":6628,"ãĤĭ":6629,"å¤ºå¾Ĺ":6630,"BN":6631,"åı¯èĥ½æĺ¯":6632,"ç²¤":6633,"æŀĿ":6634,"æĢ»éĥ¨":6635,"Ġcalcul":6636,"Ġwa":6637,"ondon":6638,"orders":6639,"åŃ©åŃĲ":6640,"çĶ¨æĿ¥":6641,"Ġprojects":6642,"odies":6643,"Ġbrought":6644,"izations":6645,"æ²³åĮĹ":6646,"Ġimages":6647,"ogen":6648,"æĦŁæŁĵ":6649,"Ġep":6650,"éļ§":6651,"ĠHere":6652,"ipl":6653,"æ¦Ĥå¿µ":6654,"åĮĪ":6655,"åħ´å»º":6656,"æł¡éķ¿":6657,"%ãĢĤ":6658,"ico":6659,"ĠHistory":6660,"Ġult":6661,"Ġmention":6662,"çĶŁåĳ½":6663,"ĠJune":6664,"'re":6665,"Ġexcept":6666,"å¹´åīį":6667,"å¼¥":6668,"orge":6669,"EM":6670,"king":6671,"Ġlargest":6672,"Ġgot":6673,"Ġunc":6674,"life":6675,"è¹":6676,"Ġprocesses":6677,"Ġbehavi":6678,"2023":6679,"å¹´å¼Ģå§ĭ":6680,"æĪĺåĲİ":6681,"Ġseason":6682,"å±ķå¼Ģ":6683,"å±ı":6684,"æľīäºĽ":6685,"æĹ¥èµ·":6686,"Ġadults":6687,"Ġund":6688,"Ġmiles":6689,"å®ĺåĳĺ":6690,"ipment":6691,"Ġagree":6692,"å¤§æ¥¼":6693,"Ġremain":6694,"éľ¸":6695,"Ġleaves":6696,"150":6697,"Ġgoal":6698,"ĠTechn":6699,"Ġreceived":6700,"ç»Łè®¡":6701,"ulated":6702,"ĠGreat":6703,"åĸ·":6704,"1985":6705,"rition":6706,"Ġelse":6707,"rael":6708,"é©¬åħĭ":6709,"imal":6710,"å¹¶æ²¡æľī":6711,"Ġprivate":6712,"åįĹåĮĹ":6713,"Ġcommunication":6714,"åİĺç±³":6715,"Ġreligious":6716,"ãģ¾":6717,"å®ŀçİ°":6718,"æľīæķĪ":6719,"Ġ#":6720,"è¾¹çķĮ":6721,"Ġdemand":6722,"Ġsustain":6723,"iff":6724,"èŃ¦å¯Ł":6725,"ä¸ĸçķĮå¤§æĪĺ":6726,"Ġmix":6727,"éŃĤ":6728,"Ġtypically":6729,"æıĴ":6730,"ä¸įå°ĳ":6731,"çĸı":6732,"Ġlocated":6733,"Ġcosts":6734,"åĲĪçī©":6735,"äº§ä¸ļ":6736,"used":6737,"1987":6738,"åĩºæ¼Ķ":6739,"Ġcarry":6740,"uous":6741,"Ġbecomes":6742,"ĠGovern":6743,"cks":6744,"åįłé¢Ĩ":6745,"Ġestablish":6746,"ä¸ľæĸ¹":6747,"Ġplaces":6748,"Ġadj":6749,"çļĦåľ°æĸ¹":6750,"Ġson":6751,"entially":6752,"Ġagricult":6753,"é¼ł":6754,"åĲ¯çĶ¨":6755,"ç®±":6756,"Ġtechniques":6757,"ç¼ĵ":6758,"oke":6759,"Ġcapac":6760,"åŃ¦ç§ĳ":6761,"Ġjud":6762,"å°ĶçļĦ":6763,"æıĲåĲį":6764,"come":6765,"ç«Ļåı°":6766,"å¤§èĩ´":6767,"Ġtesting":6768,"åĩºåı£":6769,"å·ŀåĪºåı²":6770,"iece":6771,"lam":6772,"Ġ2004":6773,"____":6774,"Sp":6775,"å¸ĥé²ģ":6776,"Ġexamples":6777,"que":6778,"çļĦå½±åĵį":6779,"Ġreach":6780,"ç¼ĸåı·":6781,"Ġbreat":6782,"head":6783,"åŁºåĽł":6784,"è¡¨éĿ¢":6785,"Ġteeth":6786,"unch":6787,"éĥ½æľī":6788,"1960":6789,"æĽ¾ä»»":6790,"æĩ":6791,"ĠPress":6792,"Ġlines":6793,"men":6794,"Ġrapid":6795,"ĠCounty":6796,"Ġdecision":6797,"Ġadminist":6798,"idents":6799,"ä»ĸæĺ¯":6800,"izes":6801,"çİĽä¸½":6802,"æ¸ħæľĿ":6803,"Ġtold":6804,"ä¸įæĸŃ":6805,"åıĤèĢĥ":6806,"æī§å¯¼":6807,"Ġappropriate":6808,"Ġcou":6809,"Ġcontext":6810,"Ġsites":6811,"%ï¼Į":6812,"å·§":6813,"Ġpredict":6814,"Ġefforts":6815,"PA":6816,"Ġinstall":6817,"æĭīåħĭ":6818,"Ġobjects":6819,"Ġking":6820,"Ġcra":6821,"Ġcolon":6822,"Ġsolution":6823,"ĠHigh":6824,"omas":6825,"è¯¾ç¨ĭ":6826,"Ġsurround":6827,"aid":6828,"Ġmole":6829,"85":6830,"ä»İäºĭ":6831,"ube":6832,"Ġbeaut":6833,"ç¬¼":6834,"Ġstru":6835,"Pl":6836,"Ġsugar":6837,"Ġhyp":6838,"åĩºåľº":6839,"å¹¿åĳĬ":6840,"Ġsummer":6841,"è²":6842,"Ġstage":6843,"ibrary":6844,"Ġçİĭ":6845,"Ġvict":6846,"udd":6847,"Ġdevice":6848,"Ġcommand":6849,"åıªæĺ¯":6850,"Ġrespond":6851,"Ġadop":6852,"å¤±åİ»":6853,"year":6854,"itable":6855,"Ġremains":6856,"Ġdead":6857,"ä¼ĺç§Ģ":6858,"æĺ¯ä¸ĢåĲį":6859,"Ġfriends":6860,"ä¸§":6861,"Ġapplications":6862,"Ġcode":6863,"bl":6864,"æ¬£":6865,"amer":6866,"Ġcele":6867,"èĤ¥":6868,"Ġï¼Į":6869,"Ġcreating":6870,"atur":6871,"equ":6872,"éĶģ":6873,"ãĢģâĢľ":6874,"é£Łçī©":6875,"è¿ĲåĬ¨ä¼ļ":6876,"å°Ķåħ°":6877,"illing":6878,"iar":6879,"æ¹¿":6880,"æĶ¶åħ¥":6881,"Ġcenter":6882,"Ġgame":6883,"ĠRed":6884,"Ġbasis":6885,"off":6886,"Ġnothing":6887,"æ·®":6888,"èį¯çī©":6889,"å¸ĤçļĦ":6890,"Ġadvant":6891,"èĥ¸":6892,"è¿ħ":6893,"åĬ²":6894,"Ġä¸Ń":6895,"Ġcrop":6896,"è°ĵ":6897,"å¥³åĦ¿":6898,"Ġcoast":6899,"Ġeating":6900,"é¥Ń":6901,"è±Ĩ":6902,"è§Ĩä¸º":6903,"å¦Ī":6904,"uff":6905,"ĠCity":6906,"By":6907,"1945":6908,"ashington":6909,"mosp":6910,"åľ°éľĩ":6911,"ste":6912,"çł´åĿı":6913,"ç»Łä¸Ģ":6914,"ĠFrom":6915,"åĩŃ":6916,"ords":6917,"Ġadapt":6918,"Ġautom":6919,"Ġconflic":6920,"çĶŁæĢģ":6921,"âĶ":6922,"Ġgives":6923,"çĽ¸ä¼¼":6924,"Ġtests":6925,"Ġcold":6926,"Ġconstruction":6927,"å¢¨è¥¿":6928,"Ġfather":6929,"å®īå¾·":6930,"é¢ģå¥ĸ":6931,"Ġegg":6932,"EC":6933,"ĠPol":6934,"vert":6935,"Ġrare":6936,"åĽ½åĨħ":6937,"rim":6938,"ĠRo":6939,"ev":6940,"äº¨åĪ©":6941,"æĹħå®¢":6942,"cles":6943,"æŃ£åľ¨":6944,"ET":6945,"ä¸ĩåİĨ":6946,"Ġtherapy":6947,"çĬ¬":6948,"æ³Ĭ":6949,"ĠDis":6950,"Ġforces":6951,"æµ·å²¸":6952,"æŃ¤æĹ¶":6953,"åĪĽç«ĭ":6954,"èĪĴ":6955,"å®īå¾½":6956,"è´¨éĩı":6957,"ç¢³":6958,"å¸ħ":6959,"å¨ĺ":6960,"éĩįåºĨ":6961,"Ġfinal":6962,"å°ĳå¥³":6963,"Ġdied":6964,"éļıçĿĢ":6965,"ĠSur":6966,"çļĦçłĶç©¶":6967,"ĠProg":6968,"Ġresponsible":6969,"éļ§éģĵ":6970,"Ġeyes":6971,"ä¿ĿçķĻ":6972,"æŀĦæĪĲ":6973,"çĽ´èĩ³":6974,"These":6975,"05":6976,"åĳ¨è¾¹":6977,"æŁĶ":6978,"Ġconnect":6979,"æĪĲä¸ºäºĨ":6980,"uments":6981,"å¼ĢéĢļ":6982,"åįĬå²Ľ":6983,"ĠChristian":6984,"Ġcitiz":6985,"æľ¬åľ°åĮº":6986,"ĠChurch":6987,"åĬ¨åĬĽ":6988,"å§Ķä¼ļ":6989,"Ġhimself":6990,"Ġyourself":6991,"äºĭä¸ļ":6992,"ĠPresident":6993,"ä¸Ļ":6994,"æĭ³":6995,"Ġteacher":6996,"apter":6997,"çł²":6998,"ç¥ŀç»ı":6999,"Ð»":7000,"Ġolder":7001,"äºļåİĨå±±":7002,"Ġreceive":7003,"Ġanti":7004,"eding":7005,"ĠAmericans":7006,"æĸĩçī©ä¿ĿæĬ¤":7007,"åŁºäºİ":7008,"å°¸":7009,"ĠChinese":7010,"Ġanything":7011,"1984":7012,"ĠTrans":7013,"Ġtrade":7014,"éªĳå£«":7015,"Ġmodels":7016,"ests":7017,"Ġrob":7018,"åĲı":7019,"Ġmis":7020,"æĪĸæĺ¯":7021,"éħ¶":7022,"OS":7023,"èĳĹåĲįçļĦ":7024,");":7025,"Ġmonitor":7026,"ç¾½æ¯Ľ":7027,"åį«çĶŁ":7028,"Ġreasons":7029,"Ġ2020":7030,"æĤ¬":7031,"çī¹çļĦ":7032,"ä»ĳ":7033,"çľĭåĪ°":7034,"Ġcool":7035,"æĴ°":7036,"time":7037,"ospital":7038,"ä¹ĭæĪĺ":7039,"åĮ»çĶŁ":7040,"Ġå°ı":7041,"Ġmid":7042,"çĶŁéķ¿":7043,"é¸£":7044,"ogle":7045,"åı¯åīįå¾Ģ":7046,"Ġcru":7047,"èĭıæł¼åħ°":7048,"çĸ¾çĹħ":7049,"åĮĸçļĦ":7050,"ĠVal":7051,"ribute":7052,"Ġpan":7053,"Ġå¼ł":7054,"Ġdepend":7055,"sec":7056,"Ġweb":7057,"å¤§æ¡¥":7058,"aught":7059,"cohol":7060,"ĠSim":7061,"èįĴ":7062,"Ġsequ":7063,"é«ĺçļĦ":7064,"ilos":7065,"æ´ģ":7066,"è¢ģ":7067,"Ġrecently":7068,"Ġtit":7069,"åĿĤ":7070,"Ġaffected":7071,"Ġbott":7072,"Ġsaw":7073,"æī®":7074,"can":7075,"å¤ıåŃ£":7076,"æĬķç¥¨":7077,"Ġgradu":7078,"éĥ½å¸Ĥ":7079,"ero":7080,"Ġeverything":7081,"é¾Ł":7082,"hest":7083,"Ġmiddle":7084,"Ġexposure":7085,"æ¬¢è¿İ":7086,"Ġdate":7087,"åĩ½":7088,"èµ°åĲĳ":7089,"Ġhope":7090,"ellig":7091,"çĭĤ":7092,"å¿Ĩ":7093,"å£®":7094,"ĠSeptember":7095,"ĠCom":7096,"åĢ¾":7097,"æ¾³æ´²":7098,"Ġfollowed":7099,"Ġrock":7100,"Ġeveryone":7101,"Ġdifferences":7102,"rick":7103,"ij":7104,"Ġbeyond":7105,"Ġpen":7106,"iples":7107,"Ġstandards":7108,"çĶ¨çļĦ":7109,"08":7110,"èĢĮæĪĲ":7111,"Ġvirt":7112,"Ġbul":7113,"çĬ¹å¤ª":7114,"æĸľ":7115,"å¢¨è¥¿åĵ¥":7116,"Ġsmaller":7117,"eal":7118,"ĠSan":7119,"åĴĮå¹³":7120,"Ġspirit":7121,"éĤĢè¯·":7122,"æ®ĸæ°ĳ":7123,"å£«åħµ":7124,"çĶµåı°":7125,"äº²çİĭ":7126,"Ġlocation":7127,"Ġexpected":7128,"è¿ĩç¨ĭä¸Ń":7129,"ĠArch":7130,"å¤§èµĽ":7131,"Ġpractices":7132,"enge":7133,"åĺīéĿĸ":7134,"ean":7135,"Ġchoose":7136,"è·ĥ":7137,"Ġpregn":7138,"è®·":7139,"å·¥åİĤ":7140,"äººåľ¨":7141,"éķ¿çº¦":7142,"è§£éĩĬ":7143,"Ġcontroll":7144,"å©Ĩ":7145,"cember":7146,"è§Ĥå¯Ł":7147,"ĠMod":7148,"Ġimag":7149,"Ġweather":7150,"èģĮæ£Ĵ":7151,"Ġpoly":7152,"09":7153,"Ġroom":7154,"ding":7155,"With":7156,"Ġdigital":7157,"ĠJournal":7158,"Ġcommunic":7159,"amb":7160,"Ġintegr":7161,"ros":7162,"ĠEducation":7163,"rees":7164,"Ġcultural":7165,"lamm":7166,"æĬķåħ¥":7167,"Ġinsp":7168,"åħ¬çĪµ":7169,"å¤§å¤ļæķ°":7170,"Ġscreen":7171,"ensity":7172,"çĪ±å°Ķåħ°":7173,"ovember":7174,"å¤§åĮº":7175,"æĲ¬":7176,"åŀĤ":7177,"ĠPat":7178,"å¤©çļĩ":7179,"load":7180,"æĳĦå½±":7181,"Ġasked":7182,"éĶĢåĶ®":7183,"éĽĨä¸Ń":7184,"Ġwon":7185,"å°Ķçī¹":7186,"æĮĳæĪĺ":7187,"éĥĬ":7188,"è®°èĢħ":7189,"Ġéĩĳ":7190,"Ġwrote":7191,"oma":7192,"Ġtrying":7193,"ĠIsrael":7194,"ĠHouse":7195,"Ġshape":7196,"å®¢è¿Ĳ":7197,"åŃ¦ä¼ļ":7198,"çİ»":7199,"Ġ2003":7200,"Ġequipment":7201,"CC":7202,"äºīè®®":7203,"Ġopportunity":7204,"èĳ¡èĲĦçīĻ":7205,"Ġbenefit":7206,"åįµ":7207,"ĠLear":7208,"ä½ľèĢħ":7209,"Ġvia":7210,"æĿĢæŃ»":7211,"ĠLondon":7212,"çĭ¼":7213,"åŁĥåıĬ":7214,"æĪĴ":7215,"ĠCong":7216,"Ġhous":7217,"ãģ«":7218,"ĠCommun":7219,"è§£åĨ³":7220,"rab":7221,"Ġcurrently":7222,"è½°":7223,"éĽĢ":7224,"åį«æĺŁ":7225,"å®ĩå®Ļ":7226,"éĵĥ":7227,"äººå£«":7228,"äºļåĨĽ":7229,"æ°ĶåĢĻ":7230,"éĺħ":7231,"é«ĺåº¦":7232,"æĻ¨":7233,"ĠVir":7234,"Ġmax":7235,"åī²":7236,"éļıèĳĹ":7237,"Ġinstru":7238,"Ġprofessional":7239,"While":7240,"ĠBi":7241,"Ġuser":7242,"å«ģ":7243,"ĠEven":7244,"Ġoccurs":7245,"è¾°":7246,"Ġmemory":7247,"roy":7248,"åıªèĥ½":7249,"AD":7250,"ought":7251,"ä¸¸":7252,"ç¥Ŀ":7253,"Ġstrength":7254,"åŃ¤":7255,"æĢĴ":7256,"ä¸ĩäºº":7257,"åįıè®®":7258,"ä¸įåĨį":7259,"åı¤ä»£":7260,"Ġsett":7261,"ĠFeb":7262,"è®®éĻ¢":7263,"ä½¿çĶ¨çļĦ":7264,"è¯ģæĺİ":7265,"Ġrecommend":7266,"é²į":7267,"Ġproperty":7268,"æ°´å¹³":7269,"è¯ķåĽ¾":7270,"Ġrain":7271,"Ġfuel":7272,"wide":7273,"Ġconstit":7274,"åĨĴ":7275,"æĢ»çĿ£":7276,"HE":7277,"è§ĦåĪĻ":7278,"éĢĨ":7279,"åįģå¹´":7280,"éĺ¿æĭīä¼¯":7281,"Ġcompletely":7282,"åĩī":7283,"Ġdeal":7284,"edia":7285,"airs":7286,"All":7287,"ä¸²":7288,"åĨįåº¦":7289,"æĸĩçī©ä¿ĿæĬ¤åįķä½į":7290,"Ġten":7291,"åıĮæĸ¹":7292,"Ġball":7293,"ocr":7294,"åĩĮ":7295,"Ġfear":7296,"Ġ2019":7297,"çĽ®çļĦ":7298,"Ġearlier":7299,"å½»":7300,"çıĬ":7301,"anish":7302,"åĲĪå¹¶ä¸º":7303,"åĹ£":7304,"æĹ¦":7305,"å§¬":7306,"Ġconstant":7307,"mm":7308,"çļĦç¬¬ä¸Ģ":7309,"96":7310,"èµ´":7311,"ä»ĭç»į":7312,"æľĢåĲİä¸Ģ":7313,"Ġorganization":7314,"Ġinteresting":7315,"çĭĦ":7316,"Ġcommonly":7317,"åįģåŃĹ":7318,"ĠDevelop":7319,"ĠEast":7320,"å°ıç»Ħ":7321,"åĽ¢éĺŁ":7322,"æŃ¥åħµ":7323,"ingu":7324,"æĿ¥åĪ°":7325,"å¿į":7326,"Ġnamed":7327,"Ġalone":7328,"ãģ¿":7329,"Ġreduced":7330,"éĽĮ":7331,"Ġenh":7332,"ãĤ·":7333,"Ġdegree":7334,"çŁ¥åİ¿":7335,"Ġswe":7336,"ĠJanuary":7337,"åģ¥åº·":7338,"bre":7339,"ĠAccording":7340,"çĦ¦":7341,"å¤·":7342,"è¯ı":7343,"oday":7344,"ä¸¾äºº":7345,"ä¹ı":7346,"åľ°åĪ©":7347,"Ġice":7348,"Ġdiabetes":7349,"åĪĹä¸º":7350,"Ġeffort":7351,"ä¸īä¸ĸ":7352,"éĩĳèŀį":7353,"Ġsch":7354,"tery":7355,"Ġ60":7356,"ĠMor":7357,"ĠOctober":7358,"Ġbra":7359,"Ġé«ĺ":7360,"éĢĢå½¹":7361,"åİĨåı²ä¸Ĭ":7362,"ä½ĽæķĻ":7363,"åĬĽçļĦ":7364,"ç®¡è¾ĸ":7365,"åĤħ":7366,"å¾ª":7367,"400":7368,"Ġoverall":7369,"Ġproviding":7370,"æ¶¦":7371,"åħĥç´ł":7372,"Ġisn":7373,"Ġfederal":7374,"Ġå¹´":7375,"Ġbirds":7376,"ç½ĳç«Ļ":7377,"ä¿Ŀç½Ĺ":7378,"ç²®":7379,"gal":7380,"more":7381,"ä¸ĭè¾ĸ":7382,"cious":7383,"åĬ±":7384,"åĪĽåĬŀ":7385,"åģľæŃ¢":7386,"Ġwoman":7387,"åĬ¨ä½ľ":7388,"Ġtoward":7389,"éĻĲåĪ¶":7390,"ç§ĺä¹¦":7391,"åĽĽä¸ª":7392,"ç¨ĭåº¦":7393,"æĺ¯ç¾İåĽ½":7394,"ä¸¤ç§į":7395,"èģļèĲ½":7396,"å¨ĥ":7397,"Ġplanet":7398,"ĠOur":7399,"rieved":7400,"rical":7401,"çĭĹ":7402,"å²Ĺ":7403,"å¤±è´¥":7404,"å°±è¯»":7405,"ãģķ":7406,"æĶ¶è´Ń":7407,"Ġrules":7408,"Ġleave":7409,"åĵģçīĮ":7410,"å£³":7411,"Ġconsequ":7412,"1983":7413,"æ¯ķä¸ļäºİ":7414,"Ġmaintain":7415,"æłª":7416,"ä¸Ĭéĺµ":7417,"æĶ¶è§Ĩ":7418,"ä»İèĢĮ":7419,"Ġscale":7420,"Ġallowed":7421,"é¦ĸéĥ½":7422,"Ġjoint":7423,"04":7424,"ĠCoun":7425,"ĠWashington":7426,"åĭĭç«ł":7427,"Ġwinter":7428,"ocks":7429,"è°ĥæķ´":7430,"æĸ¹æ¡Ī":7431,"Ġformer":7432,"Ġusers":7433,"Is":7434,"Ġbeg":7435,"Ġsteps":7436,"Ġmajority":7437,"æµĭè¯ķ":7438,"åĺ´":7439,"éĩĮäºļ":7440,"æĢ»çĲĨ":7441,"ä»¥åīį":7442,"ĠThen":7443,"ĠFl":7444,"US":7445,"lege":7446,"å¿ĥçĲĨ":7447,"Ġgoes":7448,"ç¿»è¯ĳ":7449,"Ġrise":7450,"Ġrat":7451,"æĺ¯æĹ¥æľ¬":7452,"07":7453,"Te":7454,"Ġplaced":7455,"Ġcry":7456,"è¡į":7457,"ta":7458,"Ġpet":7459,"åı°ä¸Ń":7460,"çªĹ":7461,"ternal":7462,"Ġsuccessful":7463,"æĿĨ":7464,"æľīä¸Ģä¸ª":7465,"è¿Ľä¸ĢæŃ¥":7466,"èĢĢ":7467,"Ġapplied":7468,"Ġpresence":7469,"çĪ¶æ¯į":7470,"Ġlegal":7471,"é¸¿":7472,"Ġvisual":7473,"æĲľ":7474,"åĥ§":7475,"Ġcollection":7476,"åħ¥ä¾µ":7477,"Ġoccup":7478,"Ġenter":7479,"ball":7480,"åĲĮä¸Ģ":7481,"Ġpurch":7482,"Ġmeasures":7483,"Ġroot":7484,"86":7485,"06":7486,"ĠDNA":7487,"1982":7488,"Ġacqu":7489,"å°¤åħ¶":7490,"çļĦæķħäºĭ":7491,"ĠInst":7492,"Ġmember":7493,"Ġfile":7494,"æµ·æĭĶ":7495,"Ġeconomy":7496,"æĭīä¸ģ":7497,"Ġgenetic":7498,"éĵ¾":7499,"ament":7500,"iable":7501,"å¯Ĵ":7502,"eech":7503,"Ġtox":7504,"Ġrule":7505,"ĠUnion":7506,"å¥ĳ":7507,"Ġidentified":7508,"ĠBlack":7509,"æĹº":7510,"ãģį":7511,"çĶ¸":7512,"èĦĬ":7513,"äºĭæķħ":7514,"ç¿ģ":7515,"éĻĢ":7516,"aled":7517,"Ġsigns":7518,"Ġlaws":7519,"åħ±äº§":7520,"å¹¿è¥¿":7521,"çİ°è±¡":7522,"å¼¦":7523,"çİĩé¢Ĩ":7524,"ä½ľè¯į":7525,"ç¢İ":7526,"åıī":7527,"Ġdrugs":7528,"ç¬¬ä¸ĥ":7529,"edom":7530,"æĺ¯æ³ķåĽ½":7531,"æĪĲç«ĭäºİ":7532,"Ġdisplay":7533,"ãĥ¬":7534,"Ġvill":7535,"Ġformed":7536,"ç¢į":7537,"ĠGeneral":7538,"Ġéĺ¿":7539,"Ġcities":7540,"åħ¶å®ĥ":7541,"æłĸæģ¯":7542,"âĢĿãĢģâĢľ":7543,"èĢĮè¢«":7544,"éĤ®æĶ¿":7545,"roup":7546,"å¥¥æŀĹ":7547,"å¦ĤæŃ¤":7548,"é»ĳèī²":7549,"Ġatmosp":7550,"ibly":7551,"Ġcompar":7552,"Ġteach":7553,"å¤ªç©º":7554,"èĥİ":7555,"æķĻåŃ¦":7556,"ĠAssociation":7557,"enty":7558,"Ġguid":7559,"ĠAre":7560,"èĦı":7561,"osy":7562,"ä¸įå¾Ĺ":7563,"Ġdiscovered":7564,"åĩºçİ°åľ¨":7565,"Ġapprox":7566,"è£ħç½®":7567,"odes":7568,"å¸ĤåĮº":7569,"Ġcateg":7570,"æ¹ĸåĮĹ":7571,"ä¾¦":7572,"Ġrout":7573,"irection":7574,"ĠSociety":7575,"ĠFrance":7576,"aters":7577,"æĺ¯ä½įäºİ":7578,"Ġtrack":7579,"oration":7580,"Ġbillion":7581,"æ¯ĶåĪ©":7582,"åįģåħŃ":7583,"Ġmachine":7584,"ĠéĻĪ":7585,"Ġperfect":7586,"Ġhon":7587,"ector":7588,"æĪıåī§":7589,"å¤§å¥ĸ":7590,"åĪĽéĢł":7591,"mitted":7592,"æĪªèĩ³":7593,"Ġphilos":7594,"Ġneigh":7595,"åŃ¦æľ¯":7596,"Ġrich":7597,"hemat":7598,"Ġexec":7599,"åĮ»çĸĹ":7600,"Ġroad":7601,"Ġ2002":7602,"Ġden":7603,"èĤĮ":7604,"æ°´åºĵ":7605,"Ġversion":7606,"æĺ¯åĲ¦":7607,"ä¸ŃéĹ´":7608,"å¥¥åľ°åĪ©":7609,"ĠRead":7610,"Ġincreases":7611,"Ġproperties":7612,"æĺ¯ä¸Ģä½į":7613,"ĠDuring":7614,"Ġ2001":7615,"å®¶çļĦ":7616,"Ġchurch":7617,"ãĤī":7618,"å»¶ä¼¸":7619,"Ġpowerful":7620,"Ġcontinued":7621,"ĠãĢĮ":7622,"çĳŀå£«":7623,"ä»¿":7624,"Ġlimit":7625,"èĦĤ":7626,"Ġmob":7627,"æĹ¥çļĦ":7628,"æ²³æµģ":7629,"ĠFin":7630,"known":7631,"Ġfactor":7632,"ä¼Ļ":7633,"ĠÎ":7634,"æĶ¹éĢł":7635,"Ġtou":7636,"ä¸īè§Ĵ":7637,"å®£ä¼ł":7638,"ruary":7639,"Ġassign":7640,"æĸ¯åħĭ":7641,"Ġtissue":7642,"rome":7643,"Ġremember":7644,"ç½ļ":7645,"Ġimmune":7646,"åİĨä»»":7647,"çļĦåİŁ":7648,"åĬŀåħ¬å®¤":7649,"ken":7650,"å¡«":7651,"åĮĹæµ·":7652,"Ġwond":7653,"ĠCour":7654,"Ġcoming":7655,"ĠLaw":7656,"ĠÃ":7657,"æĭīå¤«":7658,"åī§æľ¬":7659,"Ġbaby":7660,"Ġsymbol":7661,"Ġfair":7662,"åľ°ä½į":7663,"æķĻå¸Ī":7664,"ç¿ł":7665,"Ġcourt":7666,"ĠBra":7667,"æĮĩå¯¼":7668,"çŁ¶":7669,"Some":7670,"æ»©":7671,"æıĲé«ĺ":7672,"lim":7673,"Ġgold":7674,"Ġmouth":7675,"Ġnames":7676,"åī©":7677,"æĿ¥è¯´":7678,"DA":7679,"ĠGreen":7680,"house":7681,"ĠMex":7682,"ç±³å°Ķ":7683,"Ġhistorical":7684,"RE":7685,"ãĤ¿":7686,"Ġfresh":7687,"è·¯åı£":7688,"Ġevolution":7689,"Ġshowed":7690,"Ġactions":7691,"Ġacad":7692,"rec":7693,"phas":7694,"å¥¶":7695,"resp":7696,"è¯´æ³ķ":7697,"Ġprice":7698,"emy":7699,"åįľ":7700,"å¤§ä½¿":7701,"é¼»":7702,"çľģçº§":7703,"Ġcommerc":7704,"Ġappears":7705,"ĠNovember":7706,"æĽ°":7707,"ĠAng":7708,"Ġnote":7709,"ãĥŀ":7710,"Ġpow":7711,"iences":7712,"ĠDecember":7713,"ãĤ¸":7714,"Ġsitu":7715,"çĽ¾":7716,"éĢļè½¦":7717,"ç¼ħ":7718,"atin":7719,"ĠWater":7720,"uild":7721,"Ġanx":7722,"æĹ¢":7723,"Ġcorn":7724,"ä»¥å¤ĸ":7725,"åºĶè¯¥":7726,"Ġconvers":7727,"related":7728,"Ġstatus":7729,"ä¿¡åı·":7730,"iful":7731,"æĸ¯å¡Ķ":7732,"Ġmiss":7733,"ĠGermany":7734,"Ġmoment":7735,"æĶ¿æĿĥ":7736,"ä»ªå¼ı":7737,"åĳ½åĲįä¸º":7738,"ocol":7739,"Ġperhaps":7740,"Ġchoice":7741,"ophy":7742,"iring":7743,"è¸ª":7744,"fess":7745,"Ġmal":7746,"Ġstar":7747,"83":7748,"åįģä¸ī":7749,"Ġfruit":7750,"æĴŃæĶ¾":7751,"Ġarchitect":7752,"ä¸Ģå¸¦":7753,"å½ĵæĹ¶çļĦ":7754,"ĠRoman":7755,"éķ¿åº¦":7756,"Ġunit":7757,"åıĸæ¶Ī":7758,"Ġbelief":7759,"Ġap":7760,"ĠVol":7761,"èħ¾":7762,"ãĥŃ":7763,"çħ¤":7764,"Ġpromot":7765,"åĲĮæĦı":7766,"ĠUK":7767,"ĠSince":7768,"ä¹Łä¼ļ":7769,"å°ıçļĦ":7770,"ç²Ĺ":7771,"å¤Ħäºİ":7772,"och":7773,"è¢«è®¤ä¸ºæĺ¯":7774,"Ġpatterns":7775,"yd":7776,"çļĦçī¹":7777,"åıĪåĲį":7778,"åħ¶ä½Ļ":7779,"Ġchanged":7780,"ias":7781,"å»Ĭ":7782,"ä¸Ģåº¦":7783,"ä¸Ģå®¶":7784,"92":7785,"zz":7786,"çļĦå¤ĸ":7787,"æ·ĺ":7788,"Ġspect":7789,"èĩ³å°ĳ":7790,"èĥģ":7791,"åĸĢ":7792,"Ġemp":7793,"Ġforeign":7794,"ĠNow":7795,"å®¹æĺĵ":7796,"ĠPal":7797,"Ġworth":7798,"å±±èĦī":7799,"éĤ£éĩĮ":7800,"Ġmoving":7801,"ç¨³å®ļ":7802,"âĶĢ":7803,"ä¸¹éº¦":7804,"åİĿ":7805,"èľĤ":7806,"encies":7807,"çİ°æĹ¶":7808,"97":7809,"åİ¿äºº":7810,"æī¹è¯Ħ":7811,"çĻĮ":7812,"Ã¼":7813,"Ġeffic":7814,"ĠAlso":7815,"å¤§åİ¦":7816,"ĠProt":7817,"æŁ´æ²¹":7818,"å¥¥æŀĹåĮ¹":7819,"å¯Ħ":7820,"æŃ¦æ±ī":7821,"æĹ¨":7822,"Ġfully":7823,"æİĪäºĪ":7824,"nes":7825,"Ġobserved":7826,"äº¿åħĥ":7827,"æ³¨æĦı":7828,"oice":7829,"æķ°åŃ¦":7830,"é¹¤":7831,"Ġfemale":7832,"æĺ¯ä»¥":7833,"å¸ĥæĭī":7834,"ä¸ŃåĽ½äººæ°ĳ":7835,"Ġpp":7836,"Ġdat":7837,"Ġstaff":7838,"Ġrepe":7839,"ç»´æĮģ":7840,"\",":7841,"å§Ĭ":7842,"Ġstories":7843,"ĠCollege":7844,"aign":7845,"æŃ»åĲİ":7846,"åĲİæľŁ":7847,"ĠDon":7848,"rupt":7849,"èĸĽ":7850,"åĩĿ":7851,"çģ«ç®Ń":7852,"Ġincor":7853,"ander":7854,"isation":7855,"è¡°":7856,"æµ·æ´ĭ":7857,"æ°¢":7858,"cast":7859,"Ġcapacity":7860,"åıĳåĶ®":7861,"gery":7862,"ĠAustralia":7863,"æ¸Ķ":7864,"Ġgave":7865,"å®īæİĴ":7866,"obert":7867,"æľĪåįĩ":7868,"Ø§":7869,"ç¥¨æĪ¿":7870,"çĴĥ":7871,"åĩºæĿ¥":7872,"Ġhair":7873,"87":7874,"çŁ¥åĲį":7875,"ä¹Łè¢«":7876,"é¾ĻçļĦ":7877,"ygen":7878,"çĸĨ":7879,"çļĦä¸Ģåº§":7880,"æľīäºº":7881,"éĴ¦":7882,"å²ģçļĦ":7883,"Ġrelatively":7884,"è²Į":7885,"æ½Ń":7886,"ä»ĩ":7887,"Ġpeace":7888,"ä¾įéĥİ":7889,"çļĦæĦı":7890,"Ġgir":7891,"Ġemissions":7892,"1920":7893,"antic":7894,"Ġpiece":7895,"la":7896,"Ġstyle":7897,"Ġ22":7898,"æİ¥è§¦":7899,"Ġantib":7900,"Ġhom":7901,"rief":7902,"å¹´çĶ±":7903,"éĩĳæĽ²":7904,"Ġdidn":7905,"Ġgarden":7906,"è£ħçĶ²":7907,"Ġfunctions":7908,"çģ«å±±":7909,"ĠPeople":7910,"lev":7911,"åĩĢ":7912,"Ġdistance":7913,"Ġefficient":7914,"iny":7915,"Ġcomponents":7916,"å¯®":7917,"åģ·":7918,"Ġillness":7919,"åµ":7920,"èİ«æĸ¯ç§ĳ":7921,"Ġasse":7922,"ĠRetrieved":7923,"force":7924,"Ġblue":7925,"Ġconstruct":7926,"Ġnutri":7927,"ux":7928,"èĩªè¡Į":7929,"ĠJames":7930,"è®²è¿°":7931,"çİĭåŃĲ":7932,"èĬ±åĽŃ":7933,"è§£æĶ¾åĨĽ":7934,"Ġcook":7935,"Ġchallenges":7936,"Ġstrugg":7937,"eces":7938,"Ġassist":7939,"Ġoffers":7940,"åĳ½ä»¤":7941,"Ġresistance":7942,"1979":7943,"Ġing":7944,"Ġtransfer":7945,"Le":7946,"ç§ĳåŃ¦éĻ¢":7947,"åľŁèĢ³":7948,"æķĪæŀľ":7949,"Ġguide":7950,"å®Įæķ´":7951,"æ¤İ":7952,"å²ģæĹ¶":7953,"Ġregions":7954,"ãģĬ":7955,"ĠEnvironment":7956,"Ġmap":7957,"æķ°åŃĹ":7958,"æĹ©å¹´":7959,"uls":7960,"93":7961,"ĠBecause":7962,"Ġworked":7963,"iance":7964,"æ»ļ":7965,"Ġexpand":7966,"äººåĴĮ":7967,"ç¼ĸæĽ²":7968,"ida":7969,"åħĭéĩĮæĸ¯":7970,"Ġevalu":7971,"ael":7972,"äººæķ°":7973,"ĠDes":7974,"åľŁèĢ³åħ¶":7975,"ĠAir":7976,"å¾Ĺä»¥":7977,"ĠJust":7978,"Ġfriend":7979,"ãģ¡":7980,"ĠMich":7981,"Ġaim":7982,"è¿Ŀ":7983,"urt":7984,"EL":7985,"é©¬å°Ķ":7986,"ĠMat":7987,"03":7988,"Ġalcohol":7989,"æľ´":7990,"èµ¶":7991,"ç§įåŃĲ":7992,"Ġinstance":7993,"icip":7994,"å±¿":7995,"èķ¾":7996,"abilities":7997,"Ġ23":7998,"å¦Ĥä¸ĭ":7999,"æŁĲäºĽ":8000,"åĿĿ":8001,"ĠInter":8002,"rehens":8003,"raction":8004,"Ġdivid":8005,"èįĲ":8006,"è¢Ńåĩ»":8007,"Ġstim":8008,"æĶ¾å¼ĥ":8009,"roph":8010,"Ġhuge":8011,"1981":8012,"èĪŀåı°":8013,"Ġqual":8014,"èĲ¨åħĭ":8015,"Ġelement":8016,"åĽ½ä¼ļ":8017,"Ġeducational":8018,"é¡µ":8019,"åľ°çĤ¹":8020,"æ¨¡åŀĭ":8021,"ä»Ģä¹Ī":8022,"åľ°çļĦ":8023,"ĠUse":8024,"Ġweak":8025,"Ġfindings":8026,"Ġequal":8027,"ä¸´æĹ¶":8028,"berg":8029,"åŁİåł¡":8030,"Ġä¸ī":8031,"è¾Ĳ":8032,"æŁıæŀĹ":8033,"è´¡çĮ®":8034,"Ġtask":8035,"åįģäºĮå¹´":8036,"Ġdetails":8037,"Ġexisting":8038,"Ġinnov":8039,"åħ¬åı¸çļĦ":8040,"do":8041,"gypt":8042,"æľĪèĩ³":8043,"æłĩå¿Ĺ":8044,"å§ļ":8045,"çľģéģĵ":8046,"éĿ¢å¯¹":8047,"Ġsexual":8048,"è¢ĸ":8049,"Ġexplore":8050,"84":8051,"åİŁåĲį":8052,"ç±»åŀĭ":8053,"Ġreports":8054,"åĽ½éĺ²":8055,"åıĹä¼¤":8056,"çĶ·æĢ§":8057,"åħģè®¸":8058,"cont":8059,"ya":8060,"æįĲ":8061,"èŁ":8062,"çģĮ":8063,"éģĹäº§":8064,"æ¬¡å¹´":8065,"Ġpicture":8066,"æĦŁåĪ°":8067,"Ġdirection":8068,"çİ°åľº":8069,"åī§åľº":8070,"Ġdefined":8071,"æ··åĲĪ":8072,"Ġwrong":8073,"èĢĥèĻĳ":8074,"åĮĹäº¬å¸Ĥ":8075,"ĠMary":8076,"äººæ°ĳæĶ¿åºľ":8077,"åĨĽçļĦ":8078,"Ġmuscle":8079,"Ġopportunities":8080,"New":8081,"ifically":8082,"ãĥ³ãĥ":8083,"strial":8084,"Ġwatch":8085,"Ġgiving":8086,"æģĴæĺŁ":8087,"Con":8088,"ios":8089,"åĲİèĢħ":8090,"RO":8091,"ees":8092,"æĳĩ":8093,"Ġbox":8094,"éĵº":8095,"Ġthousands":8096,"ç°":8097,"é©±éĢĲ":8098,"Ġphen":8099,"è¯¥åºĦ":8100,"Ġattract":8101,"Ġinsect":8102,"ä¸ĢæĿ¡":8103,"ä¸ŀ":8104,"éĺŁä¼į":8105,"iate":8106,"ï¼ĮãĢĮ":8107,"çĹĩçĬ¶":8108,"æ±¡":8109,"ä¿ĿåŃĺ":8110,"1978":8111,"Ġfamous":8112,"åĽ½åĬ¡":8113,"Ġassum":8114,"Ġstructures":8115,"å½¢æĢģ":8116,"å°ĳæķ°":8117,"çĬ¶åĨµ":8118,"ĠAut":8119,"åĲĪæĪĲ":8120,"æºĲäºİ":8121,"Ġcelebr":8122,"ç»ıåħ¸":8123,"çŁŃæľŁ":8124,"Ġextremely":8125,"81":8126,"ching":8127,"ä¹¡è¯ķ":8128,"care":8129,"æ¸©åº¦":8130,"ä¸Ńå±±":8131,"æ³°åĽ½":8132,"Ġoptions":8133,"èĬĤåº¦":8134,"è¯ķéªĮ":8135,"ç£¨":8136,"Ġchance":8137,"èľľ":8138,"Ġbalance":8139,"Ġbelieved":8140,"é£Łåĵģ":8141,"ĠChe":8142,"éªĳåħµ":8143,"éģ¿åħį":8144,"Ġmission":8145,"Ġexplain":8146,"ÃŃ":8147,"ĠLa":8148,"é»Ħéĩĳ":8149,"ä¹ĭä¸Ń":8150,"Ġabsor":8151,"inated":8152,"pris":8153,"é¢ľèī²":8154,"æĦıä¸º":8155,"æīĵåĩ»":8156,"hors":8157,"Ġmut":8158,"ĠNet":8159,"Ġsuggests":8160,"æī°":8161,"åº·çĨĻ":8162,"Ġsignificantly":8163,"å¤§å¤«":8164,"æĬ¥éģĵ":8165,"è´¢æĶ¿":8166,"èĢĮæĺ¯":8167,"apers":8168,"ãĤ«":8169,"Ġtechnologies":8170,"ĠTheir":8171,"Ġmale":8172,"æĢĿæĥ³":8173,"Ġrunning":8174,"ĠLord":8175,"ç»ĵæĿŁåĲİ":8176,"opy":8177,"Ġfix":8178,"MS":8179,"ĠDavid":8180,"è¥¿æ´ĭ":8181,"Ġeventually":8182,"Ġbound":8183,"bed":8184,"åĴĮåħ¶ä»ĸ":8185,"åĽ½ç«ĭ":8186,"rich":8187,"Ġcollabor":8188,"æĬ½":8189,"ä¹ĭä¸ĭ":8190,"æłĩæľ¬":8191,"ç«ŀäºī":8192,"ĠRev":8193,"Ġplastic":8194,"Ġseven":8195,"çİ°ä»»":8196,"Ġglass":8197,"åĿ¦åħĭ":8198,"Ġutil":8199,"Ġconsumption":8200,"å§ľ":8201,"ãģı":8202,"Ġgain":8203,"èĸĦ":8204,"åŁºçĿ£æķĻ":8205,"iant":8206,"Ġinstruct":8207,"åħ¬åĪĨ":8208,"Ġexperim":8209,"raw":8210,"åįģäºĶ":8211,"Ġexhib":8212,"Ġriver":8213,"gl":8214,"Ġincome":8215,"Ġforward":8216,"å¹½":8217,"éĤĳ":8218,"åī§éĻ¢":8219,"âĢĿ,":8220,"char":8221,"âĢĺ":8222,"Ġexperiences":8223,"è£ħå¤ĩ":8224,"Ġbreast":8225,"åĳ¨åĽ´":8226,"oyal":8227,"åĲĲ":8228,"Ġtreated":8229,"Ġclassroom":8230,"Ġrequirements":8231,"æĦĪ":8232,"æĹ¥æ²»":8233,"asion":8234,"Ġoffice":8235,"Ġfigure":8236,"å°Ŀ":8237,"ä¸įè¶³":8238,"omic":8239,"åĵĪå°Ķ":8240,"åħ¸ç¤¼":8241,"å¤ļç§į":8242,"æĺİæĺŁ":8243,"å¤ķ":8244,"èī²åĪĹ":8245,"120":8246,"ession":8247,"ulum":8248,"æĸ°å¢ŀ":8249,"ocal":8250,"åŁĥå°Ķ":8251,"Ġplans":8252,"æŃ¦å¸Ŀ":8253,"ä¸Īå¤«":8254,"æİĺ":8255,"orage":8256,"Ġstrategies":8257,"ĠJapanese":8258,"ä¸ĳ":8259,"ĠMuseum":8260,"è¿Ł":8261,"è´«":8262,"æ¨±":8263,"åĲ¸å¼ķ":8264,"key":8265,"Ġcitizens":8266,"leg":8267,"éļĭ":8268,"æĬµè¾¾":8269,"æľ¬èº«":8270,"Ġiron":8271,"çīµå¼ķ":8272,"Ġseparate":8273,"æĸ¤":8274,"æĻ®éģį":8275,"Ġmo":8276,"Ġapply":8277,"Î±":8278,"met":8279,"1949":8280,"ĠPlan":8281,"ĠThus":8282,"ĠSocial":8283,"ĠFebruary":8284,"äºļåİĨå±±å¤§":8285,"Ġnative":8286,"bal":8287,"Ġbone":8288,"Ġsac":8289,"imens":8290,"ynam":8291,"ä¹Łåı¯ä»¥":8292,"æģŃ":8293,"æĬĳ":8294,"å¯»æī¾":8295,"ĠCouncil":8296,"ĠDec":8297,"äº¦æľī":8298,"åºŀ":8299,"After":8300,"Sc":8301,"å¼Łå¼Ł":8302,"Ġresource":8303,"Ġsurvey":8304,"ographic":8305,"çĶ±æŃ¤":8306,"çļĦä¸ī":8307,"Ġhappen":8308,"æīįèĥ½":8309,"Ġä¸ŃåĽ½":8310,"ĠSpec":8311,"pped":8312,"Ġeasier":8313,"essel":8314,"æĬ¢":8315,"1958":8316,"Ġemphas":8317,"Ġreality":8318,"èĭĳ":8319,"æĿ¡çº¦":8320,"æį¢ä¹ĺ":8321,"ĠåĪĺ":8322,"Ġplanning":8323,"ĠPublic":8324,"Ġconducted":8325,"ĠWestern":8326,"Ġtopic":8327,"Ġbed":8328,"Ġpassed":8329,"åħ¨éķ¿":8330,"èĬ¬åħ°":8331,"91":8332,"Ġexcess":8333,"å¥Ķ":8334,"èŀº":8335,"Go":8336,"Ġfavor":8337,"Ġjournal":8338,"ĠPaul":8339,"HO":8340,"Ġâ":8341,"Ġimmediately":8342,"å¥¥æŀĹåĮ¹åħĭ":8343,"Ġbodies":8344,"åĵ²åŃ¦":8345,"igen":8346,"çĲī":8347,"ago":8348,"å¤ªéĥİ":8349,"ulf":8350,"å¹¶éĿŀ":8351,"well":8352,"Ġpresented":8353,"ĠCongress":8354,"äºĮäºº":8355,"ĠMac":8356,"Ġpopulations":8357,"ä¸Ģåº§":8358,"èħº":8359,"Ġurban":8360,"ĠãĢİ":8361,"Ġvision":8362,"ĠGra":8363,"Ġcontrast":8364,"Ġmedicine":8365,"çº§èģĶèµĽ":8366,"ares":8367,"å±ķç¤º":8368,"Ġslight":8369,"othes":8370,"åľ°éĿ¢":8371,"ç¨¿":8372,"æľ¬ä½ľ":8373,"åĦĴ":8374,"èĤł":8375,"å½¢è±¡":8376,"ä¸ĵå®¶":8377,"change":8378,"Ġclinical":8379,"ä¸ĩåħĥ":8380,"æĿ°åħĭ":8381,"æĮª":8382,"åįģæľĪ":8383,"ĠOver":8384,"itz":8385,"æª":8386,"éĹª":8387,"çŁ¥è¯Ĩ":8388,"çļĦæĸ¹å¼ı":8389,"ĠLet":8390,"ç¥Ģ":8391,"ka":8392,"æł¡åĮº":8393,"Ġgoals":8394,"Ġsave":8395,"å¸¦é¢Ĩ":8396,"çĶ³è¯·":8397,"ç¡ķå£«":8398,"Ġalternative":8399,"ä»ĸè¢«":8400,"Ġorganizations":8401,"å¯ŁéĻ¢":8402,"Ġtransl":8403,"æ±°":8404,"Ġstream":8405,"Ġgraph":8406,"Ġcarried":8407,"å¾ĹçŁ¥":8408,"94":8409,"å¹´é¾Ħ":8410,"ãģ¯":8411,"ä¸ĵéĹ¨":8412,"æł¸å¿ĥ":8413,"Ġgeneration":8414,"Ġcontract":8415,"Ġdecades":8416,"Ġchallenge":8417,"éĢļéģĵ":8418,"ĠEach":8419,"æŃ¦è£ħ":8420,"Ġcycle":8421,"Ġreference":8422,"ca":8423,"è¤Ĳ":8424,"åľ¨ä¸ŃåĽ½":8425,"åľ°è´¨":8426,"ague":8427,"unction":8428,"ä¿ĺ":8429,"Ġletter":8430,"wood":8431,"çº·":8432,"è¡¨æĺİ":8433,"æľĿå»·":8434,"èı²å¾ĭ":8435,"ĠInternet":8436,"Ġvary":8437,"Ġparty":8438,"åįİçĽĽ":8439,"ager":8440,"Ġfig":8441,"èı²å¾ĭå®¾":8442,"éĺ²å¾¡":8443,"åı¦ä¸Ģä¸ª":8444,"çļĦä½ľåĵģ":8445,"Ġmath":8446,"å¦Ļ":8447,"Ġviolence":8448,"ologist":8449,"Ġpick":8450,"æıĲåįĩ":8451,"ä¹Łåľ¨":8452,"åŃ¦å£«":8453,"çĶµæ°Ķ":8454,"ãģ¦":8455,"ĠWeb":8456,"éĿĴå²Ľ":8457,"Ġboard":8458,"Ġhighest":8459,"ĠRepublic":8460,"ç»ıçĲĨ":8461,"æŃ¢äºİ":8462,"600":8463,"1000":8464,"Ġindustrial":8465,"Ġminor":8466,"æī¾åĪ°":8467,"å¾·åįİ":8468,"Ġrecords":8469,"å¥İ":8470,"Ġbran":8471,"tee":8472,"è¦ĨçĽĸ":8473,"è½¬ä¼ļ":8474,"ç¿Ķ":8475,"Ġè¥¿":8476,"ingly":8477,"uses":8478,"éĢ¢":8479,"ĠFound":8480,"çĪ±æĥħ":8481,"å¾Īå¿«":8482,"Ġrot":8483,"ĠMedic":8484,"John":8485,"km":8486,"çĢ":8487,"erate":8488,"æľºåħ³":8489,"ç¼ĸè¾ĳ":8490,"Ġflood":8491,"åĩºåħ¥åı£":8492,"ä¹ĲéĺŁ":8493,"iated":8494,"æ£ĺ":8495,"Ġagg":8496,"Ġperspect":8497,"ructure":8498,"åįİçĽĽé¡¿":8499,"Ġcommercial":8500,"Ġ1990":8501,"æĤī":8502,"é»Ħèī²":8503,"ç¼ºä¹ı":8504,"Ġtrust":8505,"UN":8506,"ĠCur":8507,"rans":8508,"åłĨ":8509,"ategy":8510,"åįģåħ«":8511,"ĠGreek":8512,"è¯¢":8513,"æĺ¯ä¸Ģéĥ¨":8514,"Ġreleased":8515,"æĮīçħ§":8516,"çĲĨäºĭ":8517,"Ġdivers":8518,"æĤ£èĢħ":8519,"å®ŀéªĮå®¤":8520,"ĠProgram":8521,"cular":8522,"Ġopin":8523,"Ġheavy":8524,"za":8525,"Ġdistribution":8526,"ä½ıå®ħ":8527,"Ġmilk":8528,"Ġliterature":8529,"é©¬æĭī":8530,"Ġpresident":8531,"æ³¨åĨĮ":8532,"Ġperformed":8533,"ĠIsland":8534,"åħĨ":8535,"ĠEgypt":8536,"ä¸Ĭæµ·å¸Ĥ":8537,"Ġlearned":8538,"å®ļä¸º":8539,"ç¯®çĲĥ":8540,"Ġmer":8541,"Ġnovel":8542,"Ġdecisions":8543,"ki":8544,"çĽĨ":8545,"çļĦæµ·":8546,"æĹĹä¸ĭ":8547,"åī§éĽĨ":8548,"Ġ1999":8549,"ä¸ĩç¾İåħĥ":8550,"ä»¥èī²åĪĹ":8551,"åį¡æĭī":8552,"ĠGeorge":8553,"Ġsample":8554,"tical":8555,"æī®æ¼Ķ":8556,"Ġesc":8557,"èĴ¸":8558,"enry":8559,"Ġtruth":8560,"ä¸»é¢ĺæĽ²":8561,"plications":8562,"Ġspeech":8563,"åįĹæĸ¹":8564,"Ġdisorder":8565,"åĵ¥ä¼¦":8566,"ĠMal":8567,"å¥¹åľ¨":8568,"Ġremove":8569,"SS":8570,"æ¹ĺ":8571,"Ġeight":8572,"ä¼°è®¡":8573,"æľºåĻ¨":8574,"åĶĲæľĿ":8575,"ĠSam":8576,"åħĭéĩĮ":8577,"æīĢå±ŀçļĦ":8578,"æĢ§è´¨":8579,"Ġbuy":8580,"ä¸Ńæľī":8581,"Ġintroduced":8582,"å°Ĩä¼ļ":8583,"Ġactual":8584,"Ġgrade":8585,"æĶ¹åĲįä¸º":8586,"ĠGovernment":8587,"Ġitems":8588,"Ġmetal":8589,"åĿª":8590,"åĬ©çĲĨ":8591,"Ġrecommended":8592,"éĺĶ":8593,"Ġliqu":8594,"oo":8595,"å®ŀéĻħä¸Ĭ":8596,"ĠBer":8597,"æī¿è®¤":8598,"è´µæĹı":8599,"ĠJewish":8600,"Ġthr":8601,"Ġinternal":8602,"Ġdestroy":8603,"åıĳçĶµ":8604,"ä»Ĩ":8605,"Ġfaith":8606,"ä»ķ":8607,"çļĦäºĭ":8608,"ping":8609,"edic":8610,"åĲ¾":8611,"å¹¶æľª":8612,"åı°åįĹ":8613,"ä¼Ĭæĸ¯åħ°":8614,"çĲ¼":8615,"çªģçĦ¶":8616,"Ab":8617,"ĠUnder":8618,"road":8619,"åıł":8620,"ä¸»åľº":8621,"åħĭèİ±":8622,"works":8623,"ãĢĭï¼ļ":8624,"Ġspring":8625,"Ġemail":8626,"Ġrelease":8627,"åĨħéĺģ":8628,"åľ°å¸¦":8629,"Ġbecoming":8630,"éĥ¨çļĦ":8631,"ç»¿èī²":8632,"ĠRel":8633,"ped":8634,"æĸĭ":8635,"éĺŁéķ¿":8636,"å¥¥å°Ķ":8637,"ĠâĢ¦":8638,"Ġestimated":8639,"Ġisol":8640,"Ġassessment":8641,"éŁµ":8642,"å·¢":8643,"æĹ¥åĨĽ":8644,"éĻ¢éķ¿":8645,"ä¿¡ä»°":8646,"Ġtemperatures":8647,"Ġign":8648,"Ġ28":8649,"ĠPort":8650,"æıŃ":8651,"å¸ĪèĮĥ":8652,"åįĥç±³":8653,"ç¬¬åħ«":8654,"Ġpolicies":8655,"çĶ¨ä½ľ":8656,"æĵİ":8657,"Ġrelationships":8658,"kin":8659,"Ġbuildings":8660,"ä¸ĭæĿ¥":8661,"éĻĦè¿ĳçļĦ":8662,"ĠAv":8663,"åľ¨åħ¶":8664,"Ġserve":8665,"Ġlegis":8666,"æĻĭçº§":8667,"Ġcausing":8668,"Bl":8669,"è¡ĮæĶ¿åĮºåĪĴ":8670,"Ġalg":8671,"ä¼ļçļĦ":8672,"çĶ¨éĢĶ":8673,"Ġtour":8674,"Ġintellig":8675,"Ġord":8676,"çĶŁçļĦ":8677,"ä¸İåħ¶ä»ĸ":8678,"ãĢĢãĢĢ":8679,"Ġplat":8680,"åĲĪçº¦":8681,"onds":8682,"Ġmessage":8683,"De":8684,"æ¼Ķå¥ı":8685,"Ġwidely":8686,"Ġindependent":8687,"å½ĵå¹´":8688,"Ġexpression":8689,"è¯ģåĪ¸":8690,"Ġfert":8691,"Ġsolutions":8692,"Ġorganic":8693,"porary":8694,"çĮĽ":8695,"å¼Ģè®¾":8696,"Ġcharacteristics":8697,"orial":8698,"Ġbank":8699,"å¼¯":8700,"å·ŀåºľ":8701,"Ġoxygen":8702,"å¯¸":8703,"olid":8704,"é¢Ī":8705,"They":8706,"ĠMount":8707,"æŃĩ":8708,"Ġdepression":8709,"RI":8710,"Ġstore":8711,"Ġprefer":8712,"uit":8713,"Ġnoted":8714,"Ġcombination":8715,"ãģĤ":8716,"ä¸Ģçº§":8717,"éĻįä½İ":8718,"olved":8719,"éĨĴ":8720,"å®īè£ħ":8721,"ferences":8722,"ously":8723,"CT":8724,"Ġchanging":8725,"Ġmag":8726,"ilit":8727,"ç»ĻäºĪ":8728,"å¦Ĥä½ķ":8729,"ologists":8730,"Ġdiscussion":8731,"Ġfrequently":8732,"Ġrisks":8733,"ç§»æ°ĳ":8734,"åĨ²çªģ":8735,"è¾¾æĪĲ":8736,"éķ¿åŃĲ":8737,"çłĤ":8738,"Ã¶":8739,"çļĦéĩįè¦ģ":8740,"Ġnotes":8741,"Ġtooth":8742,"æ±Ŀ":8743,"Ġdesp":8744,"åįĳ":8745,"Ġoutput":8746,"èīºäºº":8747,"ç§ĺå¯Ĩ":8748,"å°¹":8749,"ä¼ļéķ¿":8750,"åħ¬äº¤":8751,"Ġcompl":8752,"åįģåĽĽ":8753,"1956":8754,"Ġoperations":8755,"æľĢè¿ĳ":8756,"ault":8757,"åħīç»ª":8758,"Ġnumerous":8759,"å¯¨":8760,"ĠRich":8761,"ç»Īäºİ":8762,"rum":8763,"enth":8764,"Ġexperiment":8765,"åĬłåĪ©":8766,"mat":8767,"1940":8768,"èµĭ":8769,"Ġapproximately":8770,"éĵŃ":8771,"Ġsetting":8772,"Ġcris":8773,"æĸ©":8774,"Ġvessel":8775,"Ġstatement":8776,"ĠDevelopment":8777,"ressive":8778,"Ġtrig":8779,"è®¿éĹ®":8780,"!!!!!!!!!!!!!!!!!!!!!!!!!!!!!!!!!!!!!!!!!!!!!!!!!!!!!!!!!!!!!!!!!!!!!!!!!!!!!!!!!!!!!!!!!!!!!!!!!!!!!!!!!!!!!!!!!!!!!!!!!!!!!!!!":8781,"è´Ńä¹°":8782,"anging":8783,"Ġdrive":8784,"åľ¨å¤§":8785,"åľ¨è¯¥":8786,"Ġload":8787,"ĠNA":8788,"è¶³çĲĥè¿ĲåĬ¨åĳĺ":8789,"å¨ģèĥģ":8790,"ĠTur":8791,"éĥ¨å°ļä¹¦":8792,"1955":8793,"Ġpal":8794,"åľ¨ä¸Ģ":8795,"Ġdogs":8796,"Ġmoved":8797,"ĠSee":8798,"äººåı£æķ°éĩı":8799,"ä¸¾è¡ĮçļĦ":8800,"Ġanxiety":8801,"é©¾é©¶":8802,"Ġnuclear":8803,"æ·ĺæ±°":8804,"Ġdrop":8805,"ĠFore":8806,"Ġconnected":8807,"Ġparticipants":8808,"Ð²":8809,"Ġ26":8810,"Ġkilled":8811,"Ġlived":8812,"Ġbottom":8813,"elines":8814,"è¯·æ±Ĥ":8815,"Ġaspects":8816,"ä¸¤æ¬¡":8817,"èĤº":8818,"éĢĴ":8819,"æŃ£æľĪ":8820,"è±¡å¾ģ":8821,"ĠWork":8822,"Ġnutrition":8823,"æĪĲéĥ½":8824,"å¸ĥèİ±":8825,"nam":8826,"å¹¶å°Ĩ":8827,"lick":8828,"Ġdisorders":8829,"Ġgene":8830,"Ġcampaign":8831,"çļĦåĲĮ":8832,"ĠOb":8833,"Ġradiation":8834,"è¥Ħ":8835,"æ±Ģ":8836,"asks":8837,"ä¸Ĭæľī":8838,"è´´":8839,"ĠDem":8840,"èģĶç³»":8841,"Ġinjury":8842,"RA":8843,"Ġillustr":8844,"è§Ĥæµĭ":8845,"é³ŀ":8846,"mal":8847,"Ġhomes":8848,"ä¸Ľ":8849,"è¡¨è¾¾":8850,"é³Ħ":8851,"è¿ħéĢŁ":8852,"Ġcovered":8853,"Ġappe":8854,"hetic":8855,"VD":8856,"å½±è§Ĩ":8857,"Ġdri":8858,"Ġ1998":8859,"å¤§å¸Ī":8860,"iders":8861,"è¿Ļæ¬¡":8862,"ĠChildren":8863,"Ġkm":8864,"Ġreducing":8865,"ä¼łæĴŃ":8866,"Ġclearly":8867,"Ġconcentr":8868,"Ġradio":8869,"Ġgod":8870,"Ġtechnique":8871,"clus":8872,"Ġinput":8873,"åİĭåĬĽ":8874,"Ġgender":8875,"ç¤¾ä¼ļä¸»ä¹ī":8876,"Ã³":8877,"Ġdoub":8878,"ria":8879,"ĠWhite":8880,"Ġseed":8881,"å¤įæĿĤ":8882,"å£°éŁ³":8883,"Ġgets":8884,"åħ¨çº¿":8885,"ç¾½æ¯ĽçĲĥ":8886,"icial":8887,"Ġfailure":8888,"Ġreferred":8889,"èĢĹ":8890,"Ġreplace":8891,"äºĮæľĪ":8892,"çļĦæ°´":8893,"å¤§åŃĹ":8894,"æłĹ":8895,"Ġvitamin":8896,"ä»ĸä¸İ":8897,"Ġmostly":8898,"èģĺ":8899,"board":8900,"OT":8901,"åħĭæĭī":8902,"è°Ń":8903,"Ġdistinct":8904,"Ġfinding":8905,"æ·»":8906,"éĨĩ":8907,"åľĨå½¢":8908,"ä¸Ĭå¸Ĥ":8909,"æłı":8910,"Ġfreedom":8911,"ä»ĸäºİ":8912,"Ġarm":8913,"æ¢¨":8914,"Ġconflict":8915,")ãĢģ":8916,"Ġbattle":8917,"ãģĮ":8918,"Ġthick":8919,"ĠMet":8920,"ç¨į":8921,"gu":8922,"å±±åĮº":8923,"ä¼¯çĪµ":8924,"èĬĤåº¦ä½¿":8925,"è¥¿æĸ¹":8926,"field":8927,"å±ķè§Ī":8928,"æĸĩåŃĹ":8929,"ĠMart":8930,"èĲ¨æĸ¯":8931,"ĠBel":8932,"å¹¿ä¸ľçľģ":8933,"aped":8934,"èľ¥":8935,"Ġinitial":8936,"urance":8937,"åľºæ¯ĶèµĽ":8938,"èĥ½éĩı":8939,"Ġresulting":8940,"iveness":8941,"tes":8942,"ĠSal":8943,"ams":8944,"è£ħé¥°":8945,"åĪ·":8946,"EP":8947,"Ġkid":8948,"ĠProject":8949,"æĪĳçļĦ":8950,"ĠAsia":8951,"Ġauthors":8952,"åĩłä¸ª":8953,"Ġproperly":8954,"Ġfeeling":8955,"Ġterrit":8956,"Ġdie":8957,"æĹ¶ä»»":8958,"Ġreprodu":8959,"è¾ĥä¸º":8960,"li":8961,"å°±ä¼ļ":8962,"1975":8963,"Ġinvolves":8964,"Ġcand":8965,"erved":8966,"åĬĿ":8967,"æĦıä¹ī":8968,"è®¨è®º":8969,"ancing":8970,"æĸĲ":8971,"Ġhappens":8972,"According":8973,"Ġwanted":8974,"Ġocean":8975,"Ġfields":8976,"DC":8977,"æĹħè¡Į":8978,"ĠMark":8979,"éĢĢä¼ĳ":8980,"Ġremoved":8981,"ndrome":8982,"ĠSer":8983,"Ġä¸ľ":8984,"ç¥ł":8985,"èģĮä¸ļçĶŁæ¶¯":8986,"Ġlung":8987,"Ġpric":8988,"ãģĵ":8989,"åłª":8990,"Ġtrou":8991,"ç®Ģåįķ":8992,"èģĶåĲĪåĽ½":8993,"Ġ27":8994,"ç¨ĭåºı":8995,"Ġstarting":8996,"å§»":8997,"Ġready":8998,"åŁİéķĩ":8999,"Ġanyone":9000,"win":9001,"ç»ıéªĮ":9002,"ç©ºæ°Ķ":9003,"å¼ķæĵİ":9004,"ĠOrgan":9005,"Ġpartners":9006,"å®īä¸ľ":9007,"ognitive":9008,"åľŃ":9009,"Ġcollege":9010,"rian":9011,"å¦ĸ":9012,"rows":9013,"Ġ80":9014,"åĬ«":9015,"åįģä¸Ģå¹´":9016,"çķĶ":9017,"Ġupper":9018,"Ġprepar":9019,"åıĺå¾Ĺ":9020,"èĲ¥è¿Ĳ":9021,"Ġchronic":9022,"ĠUN":9023,"ĠMars":9024,"é¸Łç±»":9025,"IP":9026,"Ġstation":9027,"Ġtrend":9028,"ĠEv":9029,"æ´Ľåħĭ":9030,"æ£ĴçĲĥ":9031,"Ġexactly":9032,"äºĶæľĪ":9033,"éĻĦå±ŀ":9034,"onic":9035,"ĠTest":9036,"ç¡«":9037,"exas":9038,"Ġconv":9039,"Ġclick":9040,"éĴĪå¯¹":9041,"place":9042,"åĬłå·ŀ":9043,"é¸Ń":9044,"However":9045,"Ġmist":9046,"ç¢§":9047,"Ġinflamm":9048,"Ġcore":9049,"åįłåľ°":9050,"Ġencourage":9051,"æĹłçº¿çĶµè§Ĩ":9052,"Ste":9053,"tered":9054,"èĴĭ":9055,"Ġvolume":9056,"Ġwin":9057,"èĢĥåı¤":9058,"çļĦåĦ¿åŃĲ":9059,"åĽ½éģĵ":9060,"Ġdetect":9061,"ĠTherefore":9062,"Ġburn":9063,"anted":9064,"æĥŁ":9065,"å·«":9066,"ĠBay":9067,"umn":9068,"Ġadjust":9069,"ĠFood":9070,"åĽłç´ł":9071,"åįģå¤§":9072,"riculum":9073,"Ġmentioned":9074,"hi":9075,"Ġreb":9076,"èĬĴ":9077,"æ°¨":9078,"æŃ£å¸¸":9079,"acific":9080,"åĸľåī§":9081,"Ġisland":9082,"ĠSub":9083,"ĠLou":9084,"ĠOff":9085,"å°ıåŀĭ":9086,"ieties":9087,"åıĳçİ°äºĨ":9088,"Ġsynt":9089,"Ġcounter":9090,"æĹ¥æľŁ":9091,"Ġinfections":9092,"åħ³æ³¨":9093,"Ġgrass":9094,"Ġexposed":9095,"å®°":9096,"ä¸ĭåįĪ":9097,"çĵ¶":9098,"aker":9099,"Ġfine":9100,"Ġsouthern":9101,"è¤":9102,"Ġpi":9103,"æĵįä½ľ":9104,"æĤ²":9105,"ĠST":9106,"æ³¡":9107,"800":9108,"Ġtim":9109,"æī¶":9110,"æĸĩçĮ®":9111,"ĠSun":9112,"Ġelectricity":9113,"åľ°åĽ¾":9114,"éĹ´çļĦ":9115,"Ġtransform":9116,"uration":9117,"èįĨ":9118,"iling":9119,"ĠHIV":9120,"æ¶Īæģ¯":9121,"bra":9122,"Ġconnection":9123,"ek":9124,"mp":9125,"isher":9126,"åĴĸ":9127,"çľŁæŃ£":9128,"ga":9129,"Ġdegrees":9130,"åĪĹåħ¥":9131,"ç»ĻäºĨ":9132,"ĠHel":9133,"Ġscen":9134,"Ġjour":9135,"å¾ĭå¸Ī":9136,"çī¹èī²":9137,"ï¼ħ":9138,"1972":9139,"Ġprinciples":9140,"å¤ļå¹´":9141,"Ġhousehold":9142,"åİ¢":9143,"ĠCath":9144,"æ´ĽæĿī":9145,"åıĤåĬłäºĨ":9146,"Ġstorage":9147,"Ġcredit":9148,"ville":9149,"Ġadvantage":9150,"Ġupd":9151,"Ġlayer":9152,"ION":9153,"éĥ¨èĲ½":9154,"åĮĹæĸ¹":9155,"ä¸ºæŃ¢":9156,"æ¶Ĥ":9157,"éº¦åħĭ":9158,"Ġturned":9159,"Ġgames":9160,"èĤ¢":9161,"Ġhear":9162,"èĤ¤":9163,"æ¸Ĭ":9164,"Ġfilm":9165,"å¯¹æĬĹ":9166,"åħ¶å®ŀ":9167,"åıĳåĬ¨æľº":9168,"Mar":9169,"1941":9170,"ĠSpanish":9171,"åĮĹæµ·éģĵ":9172,"ishing":9173,"åĪ¶çļĦ":9174,"ĠWhy":9175,"vis":9176,"Ġbelong":9177,"Ġadvanced":9178,"æĮªå¨ģ":9179,"Ġ90":9180,"Ġsav":9181,"æ¦Ĥè¦ģ":9182,"é¡¾éĹ®":9183,"Ġvul":9184,"åı¯èĥ½ä¼ļ":9185,"åĢĻéĢī":9186,"Ġconfirm":9187,"Ġtrib":9188,"ä»·æł¼":9189,"Ġfarmers":9190,"ĠBur":9191,"é¢Ĩè¢ĸ":9192,"Ġcopy":9193,"Ġmotor":9194,"Ġemotional":9195,"ĠIslam":9196,"æģĲé¾Ļ":9197,"ç¥ŀè¯Ŀ":9198,"æ³¢æĸ¯":9199,"æĺİæľĿæĶ¿æ²»äººçī©":9200,"Ġtum":9201,"atically":9202,"Ġsolid":9203,"æ´ĽæĿīçŁ¶":9204,"è¾½å®ģ":9205,"Ġhorm":9206,"å¼ķåıĳ":9207,"åı²ä¸Ĭ":9208,"æĦıè¯Ĩ":9209,"è½¬ç§»":9210,"åħ³éĹŃ":9211,"çī¹éĩĮ":9212,"ĠClass":9213,"Res":9214,"çļĦä¸¤":9215,"Ġphase":9216,"ĠOnce":9217,"ç»Ħå»º":9218,"å¤§éĺª":9219,"ĠInf":9220,"æ¬§åħĥ":9221,"ception":9222,"1944":9223,"åĢº":9224,"No":9225,"ĠHuman":9226,"åĽºå®ļ":9227,"è´µå·ŀ":9228,"Ġclasses":9229,"Ġlandsc":9230,"mark":9231,"åĬłæĭī":9232,"ĠCentral":9233,"çľģéģĵåı°":9234,"è´£ä»»":9235,"Ġhttps":9236,"çĶŁåŃĺ":9237,"oper":9238,"å¹´åºķ":9239,"åĽĽæľĪ":9240,"ç»ĦæĪĲçļĦ":9241,"Ġexperienced":9242,"èĢĲ":9243,"Ġlanguages":9244,"1973":9245,"ä¹ĺå®¢":9246,"æĪĺå£«":9247,"IM":9248,"å»¶éķ¿":9249,"Ġhop":9250,"Ġsurgery":9251,"æľĢå¤ļ":9252,"æİª":9253,"ĠCompany":9254,"è½¬åĲĳ":9255,"Ġmanufacture":9256,"ny":9257,"Ġ...":9258,"ä¼ª":9259,"å¯¹æĸ¹":9260,"Ġexperts":9261,"Ġunf":9262,"Ġdiss":9263,"Ġrace":9264,"æĶ¿åħļ":9265,"cers":9266,".;":9267,"å¤ĸåĽ½":9268,"Ġreligion":9269,"1976":9270,"Ġreaction":9271,"ĠISBN":9272,"åĨ¢":9273,"with":9274,"Ġãĥ":9275,"ç©´":9276,"ãĤŃ":9277,"åīįçļĦ":9278,"æ²¿éĿ©":9279,"bi":9280,"osystem":9281,"rog":9282,"Ġacademic":9283,"Se":9284,"ipe":9285,"bert":9286,"çĽ¸æ¯Ķ":9287,"Ġhelped":9288,"åīįèº«":9289,"æ£ķ":9290,"åĪĨç¦»":9291,"Ġnorthern":9292,"çļĦä¸Ń":9293,"Ġsand":9294,"ä¹īå¤§åĪ©":9295,"Ġexcell":9296,"Ġbackground":9297,"Ġdangerous":9298,"pen":9299,"ç¦ħ":9300,"Ġ2021":9301,"ressed":9302,"1965":9303,"èµĦäº§":9304,"æłĭ":9305,"çº¤":9306,"Ġoption":9307,"alle":9308,"Ġcomprehens":9309,"ä¿®å»º":9310,"Ġdepending":9311,"çīĻåĪ©":9312,"çľģçļĦä¸Ģä¸ª":9313,"ortunately":9314,"Ġmeeting":9315,"astern":9316,"è°¦":9317,"Ġplease":9318,"çıĢ":9319,"1974":9320,"åĮĪçīĻåĪ©":9321,"Ġsong":9322,"éĽį":9323,"ç¡®è®¤":9324,"ini":9325,"çİ²":9326,"è¢ĭ":9327,"éºŁ":9328,"éĽĩ":9329,"åı¯è¾¾":9330,"Ġphysic":9331,"Ġé¦Ļæ¸¯":9332,"ä¸°å¯Į":9333,"Ġaid":9334,"Ġdescribe":9335,"çĪµå£«":9336,"Ġseeds":9337,"åĨ¬åŃ£":9338,"ç»ĪçĤ¹":9339,"æ¼ĶåĶ±ä¼ļ":9340,"Ġship":9341,"åĳ¨å¹´":9342,"æĬķéĻį":9343,"çļĦå¥³åĦ¿":9344,"ĠCourt":9345,"Ġfol":9346,"ules":9347,"Ġkept":9348,"Ġinfluen":9349,"Ġpages":9350,"çŃīçŃī":9351,"æĪĺéĺŁ":9352,"Ġregarding":9353,"çļĦåĲİ":9354,"Ġpul":9355,"1930":9356,"Ġeffectively":9357,"åħ´è¶£":9358,"Ġmathemat":9359,"Ġdetermined":9360,"èĩªæĿĢ":9361,"ĠLife":9362,"inger":9363,"è¿¦":9364,"Ġunivers":9365,"Ġbeautiful":9366,"burg":9367,"1968":9368,"Ġprepared":9369,"IL":9370,"çľŁå®ŀ":9371,"åıĹæ¬¢è¿İ":9372,"éļ¶å±ŀ":9373,"ĠPhys":9374,"Ġdram":9375,"èħĶ":9376,"Ġgenes":9377,"Ġannual":9378,"rem":9379,"Ġheard":9380,"Ġleads":9381,"Here":9382,"å¹³åİŁ":9383,"Ġvegetables":9384,"Ġmort":9385,"HK":9386,"èģĮåĬ¡":9387,"ded":9388,"Ġinh":9389,"otic":9390,"IG":9391,"éŃĶæ³ķ":9392,"ä½įäºİæ³ķåĽ½":9393,"æĶ¯æı´":9394,"Ġnor":9395,"ç¨»":9396,"1963":9397,"Ġdu":9398,"æĦıå¤ĸ":9399,"å§ĳ":9400,"Ġlinked":9401,"Ġincorpor":9402,"rete":9403,"åĮĹéŃı":9404,"1946":9405,"èĤĸ":9406,"Ġconcern":9407,"Ġcircum":9408,"èĻ¹":9409,"å¸ĥå°Ķ":9410,"Ġserved":9411,"Ġoperation":9412,"Ġinterested":9413,"Ġrelevant":9414,"ä¸Ģæ®µ":9415,"æĽ´åĬł":9416,"Ne":9417,"Ġsem":9418,"æķ¢":9419,"åĽ½åĬ¡éĻ¢":9420,"Why":9421,"æĸĩç«ł":9422,"æĽ´å¤ļ":9423,"Ġatmosphere":9424,"åĪ¶ä½ľäºº":9425,"å°¼äºļå·ŀ":9426,"ä»»åĳ½ä¸º":9427,"æ°ĳéĹ´":9428,"ĠRem":9429,"Ġround":9430,"æĶ¶èĹı":9431,"Ġconver":9432,"My":9433,"Ġprocessing":9434,"oseph":9435,"æŀĦéĢł":9436,"åħ¬æ°ĳ":9437,"Ġexpert":9438,"ĠIts":9439,"adian":9440,"Ġcomfort":9441,"æĮĸ":9442,"Ġinterpret":9443,"osa":9444,"çģ«æĺŁ":9445,"ä¸İåħ¶":9446,"Ġdefinition":9447,"Ġinvolve":9448,"attle":9449,"iverse":9450,"å±Ī":9451,"äºļç§į":9452,"Ġseek":9453,"Ġelimin":9454,"æĪĺçķ¥":9455,"éĩĳçīĮ":9456,"éĤª":9457,"igration":9458,"æľīæīĢ":9459,"Ġpret":9460,"å¹¶ä»¥":9461,"Ġpreviously":9462,"Ġmeant":9463,"åıĤè°ĭ":9464,"1954":9465,"IR":9466,"ado":9467,"å¼ĹæľĹ":9468,"ributed":9469,"Ġsquare":9470,"Ġplatform":9471,"1964":9472,"ĠBas":9473,"Ġunits":9474,"lig":9475,"Ġwest":9476,"èĵĿèī²":9477,"åīª":9478,"Ġdecided":9479,"standing":9480,"ĠGroup":9481,"é¦ĸåħĪ":9482,"æµ·å¤ĸ":9483,"Ġkill":9484,"ĠStreet":9485,"ifying":9486,"ç§ģäºº":9487,"åĲ¹":9488,"oking":9489,"è©¹å§Ĩæĸ¯":9490,"å°¼å°Ķ":9491,"è¯ģæį®":9492,"Ġsaying":9493,"Ġofficial":9494,"Ġamounts":9495,"Ġ70":9496,"ç¨£":9497,"æĽ²çĽ®":9498,"åıĳæĺİ":9499,"è¯±":9500,"ä»¥ä¸º":9501,"ĠçļĦ":9502,"æ°¯":9503,"é¢ĨåľŁ":9504,"Ġcreation":9505,"èħ¿":9506,"çłĸ":9507,"å½ķéŁ³":9508,"1952":9509,"aughter":9510,"DF":9511,"åĳĬè¯ī":9512,"ĠTexas":9513,"ĠService":9514,"eline":9515,"ä¸ĭéĻį":9516,"Ġmeat":9517,"å¹´æĹ¶":9518,"uted":9519,"Ġhour":9520,"Ġinvent":9521,"ä¼½":9522,"çĶľ":9523,"äº¦æĺ¯":9524,"æµĭéĩı":9525,"ä¸īæľĪ":9526,"å®ĺèĩ³":9527,"ĠThomas":9528,"çŃ¾çº¦":9529,"ç§ĳåŃ¦å®¶":9530,"ÑĮ":9531,"lease":9532,"æĻ®æŁ¥":9533,"CH":9534,"uing":9535,"æĬ±":9536,"Ġarticles":9537,"ears":9538,"Many":9539,"åį³ä½¿":9540,"ĠåįĹ":9541,"å¤§åį«":9542,"å¯¹è±¡":9543,"1977":9544,"åħ«æľĪ":9545,"1962":9546,"åĪ¶çīĩ":9547,"å¹´åĪ°":9548,"ĠBen":9549,"Ġvot":9550,"åĲŀ":9551,"éĹ²":9552,"ING":9553,"CR":9554,"Ġmel":9555,"Ġhelping":9556,"åĲ§":9557,"Ġstrategy":9558,"Ġsort":9559,"å¿§":9560,"åĽĽå·Ŀçľģ":9561,"çĽ¸äºĴ":9562,"1969":9563,"ĠDi":9564,"1959":9565,"TS":9566,"æĸ¯é¡¿":9567,"ãĤª":9568,"ĠProfess":9569,"çĽ¸ä¿¡":9570,"....":9571,"umin":9572,"Ġspot":9573,"alled":9574,"Ġmainly":9575,"ä¸»æĮģäºº":9576,"ä¸īåĽ½":9577,"èĢ¶ç¨£":9578,"ãĤ¨":9579,"çĿ¡":9580,"gra":9581,"Ġ1997":9582,"è¿Ļéĥ¨":9583,"ĠNews":9584,"clusion":9585,"åĲĽä¸»":9586,"Ġprofession":9587,"ormal":9588,"1961":9589,"åĨĽåĽ¢":9590,"Our":9591,"å¤©ä¸ĭ":9592,"andom":9593,"åħĭç½Ĺ":9594,"æ¯Ķä¾ĭ":9595,"ç¬¬äºĮæ¬¡ä¸ĸçķĮå¤§æĪĺ":9596,"çŁŃæľŁå¤§åŃ¦":9597,"Ġconservation":9598,"Ġimpl":9599,"Ġconsult":9600,"ship":9601,"col":9602,"å°¿":9603,"çĪ·":9604,"ĠStudents":9605,"èģª":9606,"Ġconcepts":9607,"omin":9608,"Ġarmy":9609,"Ġpromote":9610,"Ġengineering":9611,"eters":9612,"Ġwhom":9613,"nic":9614,"åĽĬ":9615,"èĤ¿":9616,"åį«è§Ĩ":9617,"ç¦ģæŃ¢":9618,"1971":9619,"Ġyouth":9620,"Ġsignal":9621,"å¤©çĦ¶":9622,"Ġconcerns":9623,"itt":9624,"çľģåĴĮ":9625,"åĪ©æĸ¯":9626,"åĪĽå»º":9627,"Ġlesson":9628,"åĵ¥ä¼¦æ¯Ķäºļ":9629,"Ġmanage":9630,"Ġvolunt":9631,"ĠDist":9632,"è´¼":9633,"Ġpun":9634,"å¼ĵ":9635,"ĠHol":9636,"Ġefficiency":9637,"èĢģå¸Ī":9638,"éľĢæ±Ĥ":9639,"Ġspent":9640,"Ġclos":9641,"å¼Ģå·¥":9642,"Ġpollution":9643,"van":9644,"è¥¿å®ī":9645,"ĠOld":9646,"Ġchemicals":9647,"Ind":9648,"åŃĹæ¯į":9649,"Ġdiscover":9650,"ĠMexico":9651,"Ġcere":9652,"ãĤ³":9653,"åħŃæľĪ":9654,"Although":9655,"çº¦ä¸º":9656,"ä»ĬæĹ¥":9657,"çİ»çĴĥ":9658,"ÃĹ":9659,"ĠBudd":9660,"éģµ":9661,"æķĻå®Ĺ":9662,"çŃ¾ç½²":9663,"ä¸ĥæľĪ":9664,"ĠAtl":9665,"ä½ĵèĤ²åľº":9666,"Ġcamer":9667,"äºĨè§£":9668,"çİ°åľ¨çļĦ":9669,"Ġeggs":9670,"æı¡":9671,"æ±ª":9672,"å¤©çļĦ":9673,"ä¹¡éģĵ":9674,"Americ":9675,"å¯ĵ":9676,"Ġhearing":9677,"des":9678,"èĪŁ":9679,"comes":9680,"è®¤è¯Ĩ":9681,"Ġobvious":9682,"æĵħ":9683,"æĢķ":9684,"éķ¿æ±Ł":9685,"çķĻä¸ĭ":9686,"rep":9687,"Ġreached":9688,"Ġdefic":9689,"arp":9690,"åįģäºĮæľĪ":9691,"èľĢ":9692,"èħĵ":9693,"å·®å¼Ĥ":9694,"west":9695,"Ġnav":9696,"JR":9697,"æķ´ä½ĵ":9698,"Ġrecorded":9699,"CA":9700,"åħ¬æĸ¤":9701,"ĠDef":9702,"åķ¡":9703,"æī«":9704,"è¿Ļåº§":9705,"ä¸¤ä¾§":9706,"ç¥Ĳ":9707,"Ġcorresp":9708,"çĶ«":9709,"å·¥äºº":9710,"æľ¬åľ°":9711,"arrow":9712,"ãĤĮ":9713,"åıĳåĩº":9714,"å¾ĹåĲį":9715,"è¿ĻéĩĮ":9716,"ä¿ĥè¿Ľ":9717,"Ġcompleted":9718,"ĠCivil":9719,"å®ĥæĺ¯":9720,"ĠArab":9721,"áĢ":9722,"å¼ºçĥĪ":9723,"ä¹¦ç±į":9724,"éĴ»":9725,"zing":9726,"roid":9727,"aser":9728,"olute":9729,"ä¹ĭå¥³":9730,"osc":9731,"inf":9732,"çļĦéģĵè·¯":9733,"éĺ³å¸Ĥ":9734,"which":9735,"èµĦéĩĳ":9736,"En":9737,"é¦ĸæĴŃ":9738,"ĠAcad":9739,"æĴ¤éĶĢ":9740,"Ġvaccine":9741,"ĠSmith":9742,"Ġcalc":9743,"åħ¬ä¼Ĺ":9744,"åįĩä¸º":9745,"Ġidentity":9746,"çļĦåħ³ç³»":9747,"Ġbird":9748,"eck":9749,"ä¸Ńè¢«":9750,"è°¥":9751,"Ġé©¬":9752,"èĩªæ²»åĮº":9753,"Ġowners":9754,"çŁ¢":9755,"ä¸įæķĮ":9756,"æ¡ĵ":9757,"Ġproposed":9758,"æŁ¥çĲĨ":9759,"åľ¨æĹ¥æľ¬":9760,"ä¸ºäºº":9761,"Ġstorm":9762,"å·¥åħ·":9763,"ato":9764,"ä»»èģĮ":9765,"Ġawareness":9766,"ç²¹":9767,"æĬķæīĭ":9768,"åĽ½éĻħæľºåľº":9769,"Ñĥ":9770,"æĹ§å¸Ĥéķĩ":9771,"Ġfrequency":9772,"Ġprofessor":9773,"Ð´":9774,"è¾ĸåĮº":9775,"Ġconclud":9776,"ä¸Ģå®ļ":9777,"æĸ¹è¨Ģ":9778,"éģĵåħī":9779,"çĶ»å®¶":9780,"Ġ1996":9781,"Ġcast":9782,"æľ¬é±¼":9783,"Ġappoint":9784,"ye":9785,"Ġpractical":9786,"Ġtoxic":9787,"çĶµèĦĳ":9788,"èĭıä¸¹":9789,"æĻļä¸Ĭ":9790,"apes":9791,"çĤ¼":9792,"æ¶µ":9793,"That":9794,"ä½ĨçĶ±äºİ":9795,"ä¼ĺåĬ¿":9796,"åŁĭ":9797,"éĦĤ":9798,"uke":9799,"stitution":9800,"éĢĢåĩº":9801,"è®¡ç®Ĺæľº":9802,"è·¯æ®µ":9803,"æĭ±":9804,"1942":9805,"uable":9806,"èĸĩ":9807,"åĲįä¹ī":9808,"amental":9809,"ĠBritain":9810,"Ġdiagnosis":9811,"Ġdatab":9812,"ĠæľĢä½³":9813,"ota":9814,"çĶĺèĤĥ":9815,"Ġsamples":9816,"ĠJer":9817,"è¿ĲçĶ¨":9818,"ä¸ĸçķĮä¸Ĭ":9819,"riage":9820,"Ġsupported":9821,"Ġpurposes":9822,"çĶµåĬĽæľºè½¦":9823,"é¢ĩ":9824,"æľįå½¹":9825,"çļĦå·¥ä½ľ":9826,"åİŁå§ĭ":9827,"æĳĨ":9828,"å±ł":9829,"çĲª":9830,"Ġnotice":9831,"Ġcontribute":9832,"ett":9833,"Ġlooks":9834,"ample":9835,"éĽ¾":9836,"å¤§èģĶçĽŁ":9837,"rier":9838,"1939":9839,"éļľç¢į":9840,"åħ¬åħĥåīį":9841,"è¾©":9842,"å¯¹å¤ĸ":9843,"äºĭå®ŀ":9844,"ĠåĴĮ":9845,"Ġstone":9846,"Ġpieces":9847,"åı¤åħ¸":9848,"1943":9849,"Su":9850,"äº¿ç¾İåħĥ":9851,"çļĦå¸Ĥéķĩ":9852,"ç²¤è¯Ń":9853,"ixt":9854,"ĠMr":9855,"Dr":9856,"å¸¦æľī":9857,"å¥¥è¿Ĳä¼ļ":9858,"ĠCommission":9859,"æĬĵ":9860,"ishes":9861,"osen":9862,"1966":9863,"æĸ½å·¥":9864,"æ¯ķä¸ļåĲİ":9865,"SEE":9866,"Now":9867,"Ġlib":9868,"å¹¶æŃ¢äºİ":9869,"åİŁåŃĲ":9870,"Ġlargely":9871,"çĪĨçĤ¸":9872,"æ°ĳä¸»åħļ":9873,"Ġwealth":9874,"é¤Ĳåİħ":9875,"Ġkn":9876,"585":9877,"Ġjobs":9878,"Ġsituations":9879,"Ġdynam":9880,"èĿ¶":9881,"'ll":9882,"down":9883,"å®¶äºº":9884,"ĠMiss":9885,"Ġintended":9886,"roke":9887,"é£İéĻ©":9888,"æ²³åįĹçľģ":9889,"Ġsusp":9890,"èĤĿ":9891,"Ġmanner":9892,"Ġextensive":9893,"1953":9894,"Ġdoll":9895,"è½¯ä»¶":9896,"zy":9897,"è¾¾å°Ķ":9898,"Ġformation":9899,"Ġkinds":9900,"ç§°åı·":9901,"å¯¼å¼¹":9902,"ĠVirgin":9903,"éĢ¸":9904,"fered":9905,"ĠConf":9906,"ç¦»åŃĲ":9907,"Ġeast":9908,"Ġrou":9909,"æĸĩä»¶":9910,"Ġpresc":9911,"éĹ¸":9912,"acing":9913,"Ġbud":9914,"å¹´åĪĿ":9915,"Ġimproved":9916,"Ġå¤©":9917,"Ġhospital":9918,"èĥĨ":9919,"åĮĸåĲĪçī©":9920,"éĢ¼":9921,"éħįåĲĪ":9922,"æµĻæ±Łçľģ":9923,"ç»´åŁĥ":9924,"Ġé»Ħ":9925,"Ġrail":9926,"Do":9927,"åĬ¿åĬĽ":9928,"çļĦåİĨåı²":9929,"è°Ĭ":9930,"ounced":9931,"From":9932,"inding":9933,"æĽ¾ç¥ĸ":9934,"çŁ³æ²¹":9935,"Ġfinally":9936,"ĠEvery":9937,"CS":9938,"point":9939,"Ġlic":9940,"Ġcombined":9941,"æ¼ĶåĮĸ":9942,"æ³¢ç½Ĺ":9943,"Ġallowing":9944,"æł¹å»·":9945,"Ġflex":9946,"Ġhyper":9947,"Ġphenomen":9948,"å°¼åħĭ":9949,"å¤ıä»¤":9950,"éĥİä¸Ń":9951,"Ġprocedure":9952,"çĺ¤":9953,"åĮĹç¾İ":9954,"éŃģ":9955,"ä¸ºæ³ķåĽ½":9956,"Ġcontinues":9957,"625":9958,"ç»³":9959,"åįķåħĥ":9960,"Ġkil":9961,"æ¶īåıĬ":9962,"Ġreduction":9963,"åį³ä½į":9964,"ĠCharles":9965,"Ġyellow":9966,"ona":9967,"inent":9968,"Ġheight":9969,"å¤§å¤ļ":9970,"281":9971,"Ġideal":9972,"ĠTechnology":9973,"ä»¥åĮĹ":9974,"unk":9975,"å±±åİ¿":9976,"Ġelectrical":9977,"Ġrevolution":9978,"Ġbrief":9979,"Ġsettle":9980,"Ġbrother":9981,"ags":9982,"åį°å°¼":9983,"1967":9984,"ç½ĳçĲĥ":9985,"osite":9986,"ĠEnergy":9987,"Ġforced":9988,"Ġfocused":9989,"Ġexistence":9990,"å¸Ĩ":9991,"æľ¬çīĩ":9992,"é©¬æĸ¯":9993,"å·¡åĽŀ":9994,"ĠMass":9995,"anda":9996,"è§ĤçĤ¹":9997,"ĠDel":9998,"åį¡æĸ¯":9999,"çĪ±å¾·åįİ":10000,"å®ªæ³ķ":10001,"æĿŃå·ŀ":10002,"ãģ§":10003,"Ġsecret":10004,"1957":10005,"Ġsustainable":10006,"ä¹ĿæľĪ":10007,"Ġther":10008,"çļĦæĥħåĨµä¸ĭ":10009,"amps":10010,"å¼ķåħ¥":10011,"akers":10012,"Ġwaters":10013,"ĠBook":10014,"ĠMedical":10015,"åĬ³åĬ¨":10016,"1948":10017,"Ġmuscles":10018,"Ġindicate":10019,"é¼İ":10020,"é¦ĸä¸ª":10021,"å½¢çĬ¶":10022,"Ġcertainly":10023,"æİ¨è¿Ľ":10024,"ava":10025,"éģ¥":10026,"æ´¾éģ£":10027,"Ġstraight":10028,"Ġcharge":10029,"åį±æľº":10030,"Ġexternal":10031,"ç«ĭæ³ķ":10032,"æ£ĢæŁ¥":10033,"Ġauthority":10034,"åĲįäºº":10035,"è¥¿åħ°":10036,"ipped":10037,"å¤©åłĤ":10038,"çļĦæĹ¶éĹ´":10039,"ossible":10040,"ĠEngine":10041,"Most":10042,"å¿ĺ":10043,"æ²¼":10044,"çĶ¨æĪ·":10045,"Ġhaz":10046,"Ġshared":10047,"oster":10048,"è¾¹ç¼ĺ":10049,"Ġ29":10050,"æ¶Īå¤±":10051,"çº¬":10052,"æıĲåĪ°":10053,"æīĵç®Ĺ":10054,"Ġextent":10055,"çİ°ä»Ĭ":10056,"è®ºæĸĩ":10057,"åħ±äº§åħļ":10058,"Ġbegins":10059,"ht":10060,"ĠArmy":10061,"è·Łéļı":10062,"é¾Ļç§ĳ":10063,"Ġmetab":10064,"æ±Łèĭıçľģ":10065,"å®Ľ":10066,"ĠUSA":10067,"Ġprimarily":10068,"Ġfib":10069,"acters":10070,"ĠSpace":10071,"ses":10072,"Ġcollected":10073,"Ġtreatments":10074,"Ġmaster":10075,"æĢĸ":10076,"çļĦæĪĲåĳĺ":10077,"ä¼ĬæľĹ":10078,"ç´¯è®¡":10079,"ĠCle":10080,"è·ĭ":10081,"Ġvulner":10082,"ç¥¯":10083,"espite":10084,"éĢĤåĲĪ":10085,"æĥ¯":10086,"ä¸»è¦ģæĺ¯":10087,"Ġcoal":10088,"è¹Ī":10089,"cel":10090,"umber":10091,"Ġparticles":10092,"ä¸ŃåĽ½äººæ°ĳè§£æĶ¾åĨĽ":10093,"Ġfacts":10094,"çĭŃ":10095,"Ġpark":10096,"Ġwonder":10097,"Ġvent":10098,"åĪĨéħį":10099,"1937":10100,"ras":10101,"ä¸įä»ħ":10102,"ĠElect":10103,"ç¿Į":10104,"Ġoccurred":10105,"æħķå®¹":10106,"INSEE":10107,"ä¼ļåĳĺ":10108,"èĲ¨å°Ķ":10109,"band":10110,"Ġ1980":10111,"æº¯":10112,"ĠStand":10113,"Ġdigest":10114,"æīĭæľ¯":10115,"CE":10116,"ĠMont":10117,"Ġdrinking":10118,"ulating":10119,"Ġspend":10120,"é£ŁçĶ¨":10121,"èĴĻçī¹":10122,"çº¿è·¯åı£":10123,"ä¸»äºĭ":10124,"èīºæľ¯å®¶":10125,"ĠRobert":10126,"nel":10127,"çļĦçĶµå½±":10128,"1947":10129,"Ġcrisis":10130,"æĺ¯é¦Ļæ¸¯":10131,"ĠSecond":10132,"yr":10133,"æľŃ":10134,"Ġmaximum":10135,"Ġgar":10136,"çĪª":10137,"Ġvital":10138,"ĠSou":10139,"æĶ¹åĸĦ":10140,"Ġcenturies":10141,"å°ļæľª":10142,"æĿĥåĬĽ":10143,"éĤ£äºĽ":10144,"Ġcoord":10145,"Ġrefers":10146,"Ġtopics":10147,"éĩĬæĶ¾":10148,"Ġinstitutions":10149,"ĠFurther":10150,"å©´":10151,"åĮºéĹ´":10152,"ĠWind":10153,"å¾·çļĦ":10154,"æ¿ĳ":10155,"æ¸¸æ³³":10156,"ç¡®è¯Ĭ":10157,"Ġfoss":10158,"èĪ±":10159,"éĴ¢çĲ´":10160,"Ġsnow":10161,"å¾·å°Ķ":10162,"å¢ŀéķ¿":10163,"Ġtechnical":10164,"ä¸įæĺİ":10165,"äº¬éĥ½":10166,"Ġhit":10167,"ĠOut":10168,"ç»´æĸ¯":10169,"è¾¨":10170,"å¤§åŃ¦çļĦ":10171,"Gen":10172,"1082":10173,"é©¬éĩĮ":10174,"Ġshowing":10175,"èĤ¡ä»½æľīéĻĲåħ¬åı¸":10176,"Ġspecifically":10177,"Ġlov":10178,"athy":10179,"ĠPacific":10180,"æ¯ħ":10181,"ãģ£":10182,"æ¼ł":10183,"ãĤ£":10184,"åĿĩä¸º":10185,"374":10186,"Ġremained":10187,"ä½Ľç½Ĺ":10188,"è¢«è¿«":10189,"å°Ĩé¢Ĩ":10190,"Ġtaught":10191,"ä¸Ńåħ±":10192,"æĹ¶æľŁçļĦ":10193,"éĺµå®¹":10194,"ä½ĵç³»":10195,"ä¹Ŀé¾Ļ":10196,"Ġadvice":10197,"rastructure":10198,"æĻ´":10199,"ä¸Ĭä¸ĭ":10200,"è¥¿æĸ¯":10201,"Ġthin":10202,"ç§¯æŀģ":10203,")ï¼ļ":10204,"olars":10205,"èĥº":10206,"å¸¦æĿ¥":10207,"Ġmorning":10208,"Ġmotiv":10209,"DS":10210,"isp":10211,"æ¡Īä»¶":10212,"lar":10213,"Ġdro":10214,"éĵİ":10215,"ĠTwo":10216,"çĽ´å¾Ħ":10217,"åįĩçº§":10218,"å¤¹":10219,"Ġvast":10220,"fl":10221,"Ġraised":10222,"å£«é¡¿":10223,"Ġtail":10224,"Ġdivided":10225,"å¹´åĴĮ":10226,"ĠUp":10227,"å¯Ĩåº¦":10228,"å®ł":10229,"æ¯ĶåĪ©æĹ¶":10230,"ala":10231,"asure":10232,"ĠJud":10233,"çķĻåľ¨":10234,"æĭĸ":10235,"é¦ĸå¸Ń":10236,"itors":10237,"Ġoperating":10238,"åĴĸåķ¡":10239,"èĢĮè¨Ģ":10240,"æ·ĳ":10241,"çļĦåıĳå±ķ":10242,"èĭ¯":10243,"Ġwestern":10244,"æĪĲå°±":10245,"å¸Ĥéķ¿":10246,"'ve":10247,"ĠHenry":10248,"ensis":10249,"Ġadvance":10250,"ĠData":10251,"å¯¹åºĶ":10252,"Ġoffered":10253,"æµ·å³¡":10254,"Ġflowers":10255,"åĳĺå·¥":10256,"Ġproteins":10257,"Ġperman":10258,"roc":10259,"éĩįéĩı":10260,"è¯¥çīĩ":10261,"ĠMil":10262,"å®ŀè¡Į":10263,"åºŁéĻ¤":10264,"indu":10265,"MA":10266,"éĺ¿æł¹å»·":10267,"Ġflat":10268,"èĥľåĩº":10269,"æĿĢå®³":10270,"æįŁå¤±":10271,"èĮħ":10272,"onia":10273,"Ġsend":10274,"é¢Ĩåľ°":10275,"ç§ĳå¤«":10276,"Ġcrucial":10277,"å¾·æĭī":10278,"åĲīå°Ķ":10279,"rapy":10280,"ĠCarol":10281,"ä¸įåĪ°":10282,"Ġrecy":10283,"othing":10284,"istan":10285,"Ġtested":10286,"æ»¡è¶³":10287,"ä»£çĲĨ":10288,"åħ¥çĲĥ":10289,"Ġcareer":10290,"çī¹æĭī":10291,"çŃīçº§":10292,"åŃķ":10293,"amily":10294,"ĠFre":10295,"ãĤĴ":10296,"ä¹¦éĻ¢":10297,"æĽ´ä¸º":10298,"å¤įåħ´":10299,"çĬ¯ç½ª":10300,"çļĦè®¾è®¡":10301,"åľ¨ä»ĸ":10302,"Ġnations":10303,"Ġsufficient":10304,"ĠJews":10305,"åįģä¹Ŀ":10306,"anguage":10307,"éĤ»è¿ĳ":10308,"å¤ªå®Ī":10309,"åĪĨåĪ«ä¸º":10310,"Ġvehicle":10311,"Ã¤":10312,"éĢīä¸º":10313,"Ġsurrounding":10314,"ĠTem":10315,"Ġquar":10316,"abil":10317,"ç§°ä½ľ":10318,"ificial":10319,"ĠMedicine":10320,"å©ļå§»":10321,"Ġsalt":10322,"Ġecosystem":10323,"å·´å°Ķ":10324,"Ġsubjects":10325,"More":10326,"itness":10327,"å®ļå±ħ":10328,"æĹłäºº":10329,"ĠQue":10330,"DP":10331,"æĬ«":10332,"Ġcomment":10333,"åĲ»":10334,"å¼ĹéĩĮ":10335,"éĥģ":10336,"Ġresponsibility":10337,"Ġrenew":10338,"æĺ¯ä¸ª":10339,"è®¾å®ļ":10340,"Ġslightly":10341,"å±Ģéķ¿":10342,"Ġhelpful":10343,"Ġaren":10344,"å»ºçŃĳçī©":10345,"ĠFoundation":10346,"Ġdespite":10347,"æĲº":10348,"çŃ¾è®¢":10349,"Ġkeeping":10350,"æī©å¤§":10351,"åĩºåĶ®":10352,"ç¿ħ":10353,"Ġblog":10354,"1938":10355,"ç¼ħçĶ¸":10356,"Ġclim":10357,"Ġliquid":10358,"ç±»çļĦ":10359,"Ġfacilities":10360,"ĠTreat":10361,"å°Ŀè¯ķ":10362,"ĠSl":10363,"Ġmoist":10364,"å²Ľå±¿":10365,"å·²è¢«":10366,"iced":10367,"Ġimpacts":10368,"Ġperspective":10369,"Ġpotentially":10370,"Ġnutrients":10371,"Ġ1995":10372,"é¢Ħè®¡":10373,"Ġbill":10374,"ĠLake":10375,"éĺ®":10376,"é£ŁæĢ§":10377,"Ġmeasured":10378,"eria":10379,"ĠMicro":10380,"åº¶":10381,"Ġwife":10382,"ĠTer":10383,"Ġfamiliar":10384,"è¶³åįı":10385,"war":10386,"active":10387,"å±±ä¸ľçľģ":10388,"Ġemergency":10389,"Car":10390,"Ġsector":10391,"å®īå¨ľ":10392,"Ġimmun":10393,"åħ¬å¼ĢèµĽ":10394,"OL":10395,"åį¢çĵ¦å°Ķ":10396,"Ġspl":10397,"Ġotherwise":10398,"å·²æľī":10399,"å°ĳå°Ĩ":10400,"éĽ·æĸ¯":10401,"ÙĦ":10402,"ĠNASA":10403,"äºİP":10404,"å¸ĥæĶ¿":10405,"ãĢľ":10406,"à¥":10407,"è¥¿ä¾§":10408,"çī¹åħ°":10409,"åĬŀäºĭ":10410,"Ġsounds":10411,"Ġonto":10412,"å´©":10413,"Ġattacks":10414,"ãĤĤ":10415,"å¯¹éĺµ":10416,"åħĭå°Ķ":10417,"ĠDise":10418,"åĲ«æľī":10419,"Ġexcellent":10420,"atric":10421,"åĩ¶":10422,"åĳ¨æľŁ":10423,"èħĲ":10424,"ä¾ĿçĦ¶":10425,"æķĮäºº":10426,"ä»ĸè¿ĺ":10427,"enses":10428,"èĥĮé³į":10429,"Ġdetailed":10430,"åľ¨é¦Ļæ¸¯":10431,"ãĢĭ(":10432,"Ġmere":10433,"äººåı£æķ°éĩıä¸ºP":10434,"Ed":10435,"Im":10436,"èıĬ":10437,"åĪĨæĶ¯":10438,"å¥³çİĭ":10439,"ä¸»è¦ģçļĦ":10440,"æģĲæĢĸ":10441,"Ġconsequences":10442,"amil":10443,"åıĳèµ·":10444,"Ġsche":10445,"what":10446,"ãĥķ":10447,"Ġsyn":10448,"åĩ½æķ°":10449,"Ġfort":10450,"Ġweap":10451,"tion":10452,"Ġsuggested":10453,"Ġcharacters":10454,"Ġmotion":10455,"ĠMem":10456,"Ġdouble":10457,"é¡·":10458,"Ġgoods":10459,"MV":10460,"çļĦçĪ¶äº²":10461,"ç£·":10462,"add":10463,"ç½¢":10464,"æĥħæĬ¥":10465,"è§£æķ£":10466,"going":10467,"SP":10468,"ä»¤äºº":10469,"Ġinternet":10470,"Ġroots":10471,"åŃ£åĲİ":10472,"æĦıå¿Ĺ":10473,"gment":10474,"ita":10475,"Ġbright":10476,"Ġhabitat":10477,"Ġwet":10478,"å¥³ä¸»è§Ĵ":10479,"æºĲèĩª":10480,"ĠRussia":10481,"ä¸ŃæľŁ":10482,"éľŀ":10483,"ometimes":10484,"æ¸ł":10485,"oughly":10486,"].":10487,"ĠIr":10488,"æĪ¿å±ĭ":10489,"Ġiniti":10490,"æĸĩèīº":10491,"aturally":10492,"ç«Ł":10493,"ework":10494,"Ġleader":10495,"oxide":10496,"inn":10497,"Ġaffects":10498,"Ġfaster":10499,"ĠMiddle":10500,"ĠLatin":10501,"Ġpolice":10502,"Ġgreatest":10503,"ola":10504,"é¥¼":10505,"Ġfluid":10506,"aks":10507,"çĽĳåĪ¶":10508,"åħ¼ä»»":10509,"Ġresist":10510,"ĠæĹ¥æľ¬":10511,"å§¿":10512,"åĪĻä¸º":10513,"å¦¹å¦¹":10514,"æĭ¼":10515,"éĩĩåıĸ":10516,"æīĢæľīçļĦ":10517,"Ġtypical":10518,"è½°çĤ¸":10519,"2046":10520,"æľ¬ç§ĳ":10521,"Am":10522,"Ð¹":10523,"ä¸ľä¾§":10524,"Ġfundamental":10525,"ä¹Łä¸į":10526,"çĽ¸éĤ»":10527,"Ġliver":10528,"é²¸":10529,"AK":10530,"Ġexplan":10531,"åį±éĻ©":10532,"éĺ»æŃ¢":10533,"Ġpregnancy":10534,"æİ¥å£¤çļĦå¸Ĥéķĩ":10535,"æİĴè¡Į":10536,"ç¬¦åĲĪ":10537,"Ġdomin":10538,"ache":10539,"èĩĤ":10540,"ä¼łåªĴ":10541,"å°Ķå¤«":10542,"Ġcert":10543,"çĤī":10544,"oviet":10545,"name":10546,"ç¹ģæ®ĸ":10547,"è¤Ĳèī²":10548,"å¾ªçİ¯":10549,"Ġpump":10550,"å¤§å°ı":10551,"å·¥ç¨ĭå¸Ī":10552,"å¤§è¡Ĺ":10553,"åħ¨éĿ¢":10554,"ä½įäºİä¸ŃåĽ½":10555,"Ġcontrolled":10556,"ĠBible":10557,"æ·³":10558,"å¿½":10559,"é£İæļ´":10560,"å¤ıä»¤æĹ¶":10561,"olf":10562,"è¯´æĺİ":10563,"èĪŀè¹Ī":10564,"Ġsubstant":10565,"ĠLearning":10566,"resents":10567,"Ġstudied":10568,"Ġdiam":10569,"ena":10570,"èĥ½æºĲ":10571,"å®ģæ³¢":10572,"Ġharvest":10573,"Ġstret":10574,"ĠDirect":10575,"æ¡Ĳ":10576,"Ġphone":10577,"ĠToday":10578,"æľīæľº":10579,"that":10580,"Ġvoice":10581,"çĻ»éĻĨ":10582,"å¤©ä½¿":10583,"å¹³éĿ¢":10584,"MP":10585,"Ġoral":10586,"è¥¿åĮĹéĥ¨":10587,"Ġtro":10588,"Ġlose":10589,"ç§įæ¤į":10590,"ML":10591,"orith":10592,"asp":10593,"ĠPsych":10594,"è¿ĽçĲĥ":10595,"éĥ½çĿ£":10596,"æĹ¶æ®µ":10597,"æ¦Ħ":10598,"Ġdepth":10599,"ensus":10600,"Ġfelt":10601,"ua":10602,"ĠAD":10603,"æģ°":10604,"Ġsed":10605,"å¹¶ä¸İ":10606,"æĪĲçļĦ":10607,"Ġble":10608,"åŁ¹åħ»":10609,"æ¯Ķå¦Ĥ":10610,"Ġaccurate":10611,"Ġdiversity":10612,"å®¶ä¸Ń":10613,"Ġfollows":10614,"åı¯ä»¥åľ¨":10615,"çļĦä½įç½®":10616,"Ġexplained":10617,"Ġroll":10618,"Ġplayed":10619,"ä¸ĬäºĨ":10620,"Ġconscious":10621,"utive":10622,"iest":10623,"Ġrural":10624,"æĮīå¯Ł":10625,"ĠRad":10626,"Ġsurpris":10627,"stood":10628,"åĽ°éļ¾":10629,"å¸¸è§ģçļĦ":10630,"æĪĲæľ¬":10631,"æİ§èĤ¡":10632,"æĸĩæĺİ":10633,"èı©":10634,"Ġsubsequ":10635,"äº«å¹´":10636,"æĢ¡":10637,"Ġmonitoring":10638,"ĠSea":10639,"Ġcomponent":10640,"VID":10641,"å¨¶":10642,"Ġlinks":10643,"ĠNor":10644,"ç¾İåĨĽ":10645,"éļıåį³":10646,"Ġinvestment":10647,"åģľéĿł":10648,"åľ¨äºİ":10649,"åĨķ":10650,"ãĥĨ":10651,"chers":10652,"ĠBoth":10653,"ãģĻ":10654,"æ¸¯åı£":10655,"Ġexplains":10656,"æĪĲäºĨ":10657,"ĠHall":10658,"ella":10659,"å¥ĭ":10660,"å·¡æĬļ":10661,"ĠWild":10662,"Ġsmart":10663,"Ġapparent":10664,"èĦ¸":10665,"Ġperiods":10666,"Ġcrops":10667,"IF":10668,"aria":10669,"ĠAN":10670,"å¡ŀçº³":10671,"åł¤":10672,"Ġfloor":10673,"åľ¨ä¸Ģèµ·":10674,"Ġcurriculum":10675,"åĮºä¸ºUTC":10676,"éĢīåĮº":10677,"Ġfruits":10678,"ĠPost":10679,"Ġtasks":10680,"ï¼İ":10681,"åĲīæŀĹ":10682,"Ġrein":10683,"æĪĲå¹´":10684,"ĠForm":10685,"çļĦæĹ¶åĮºä¸ºUTC":10686,"Ġtips":10687,"Ġproport":10688,"çº¦çĳŁ":10689,"Ġbiological":10690,"ĠEmp":10691,"oral":10692,"åĩºéģĵ":10693,"INSEEå¸Ĥéķĩ":10694,"Ġju":10695,"è¯ºå¤«":10696,"å··":10697,"æľīèĳĹ":10698,"èĹ»":10699,"ç¬¬ä¹Ŀ":10700,"Ġappearance":10701,"ĠSupp":10702,"Ġhappened":10703,"æĬ¥å¯¼":10704,"INSEEå¸Ĥéķĩç¼ĸçłģä¸ºP":10705,"çĶµè½¦":10706,"Ġstock":10707,"Ġprices":10708,"Ġinterests":10709,"ey":10710,"åİ¿çļĦ":10711,"æļĸ":10712,"Ġpaint":10713,"è´§çī©":10714,"Ġletters":10715,"ĠEconom":10716,"èĢĮä¸į":10717,"Ġagricultural":10718,"éĤ®æĶ¿ç¼ĸçłģä¸ºP":10719,"Ġ31":10720,"Ġinstrument":10721,"Ġconcerned":10722,"ĠLouis":10723,"æł¼æĭī":10724,"Ġsuffering":10725,"DNA":10726,"Ġ>":10727,"åħĭçļĦ":10728,"å¸ĥæľĹ":10729,"éĤµ":10730,"Ġbehaviour":10731,"è±«":10732,"Ġvalid":10733,"åģľè½¦":10734,"äº¤æį¢":10735,"èİ·å¥ĸ":10736,"Ġformat":10737,"åĨĴéĻ©":10738,"Ġhundreds":10739,"èĩĢ":10740,"Ġfiles":10741,"pping":10742,"éĢļä¿¡":10743,"åİ¿éģĵ":10744,"110":10745,"çļ®èĤ¤":10746,"Ġdomestic":10747,"æľµ":10748,"anges":10749,"Ġdeliver":10750,"èĬĿåĬł":10751,"âĢ§":10752,"åĽŀå½Ĵ":10753,"uilding":10754,"Ġsin":10755,"racy":10756,"Ġcontinuous":10757,"ĠRussian":10758,"LE":10759,"å¯Įå£«":10760,"Ġwalls":10761,"ĠKh":10762,"å®Įå·¥":10763,"èĬĿåĬłåĵ¥":10764,"free":10765,"ĠMo":10766,"ĠFlor":10767,"Ġinstruction":10768,"çħ§çīĩ":10769,"æĹ¶çļĦäººåı£æķ°éĩıä¸ºP":10770,"æµ·åŁŁ":10771,"éļ¾ä»¥":10772,"ä¸»æķĻç»ĥ":10773,"Ġconvent":10774,"Ġchief":10775,"ascular":10776,"Ġclaims":10777,"pat":10778,"å¤§è¥¿æ´ĭ":10779,"cest":10780,"Ġnerv":10781,"éĿ¢ç§¯P":10782,"ircraft":10783,"äºĶåįģ":10784,"ĠDiv":10785,"Ġ1970":10786,"åĬ¨è½¦":10787,"ä¿ĿéĻ©":10788,"Ġfeelings":10789,"oto":10790,"æĹ¶åĢĻ":10791,"çİ°å®ŀ":10792,"æħİ":10793,"Ġdepends":10794,"æĭĨéĻ¤":10795,"ç¨Ģ":10796,"ç®¡çĲĨå±Ģ":10797,"Ġcognitive":10798,"Ġå±±":10799,"éĩıçļĦ":10800,"Ġclosely":10801,"Ġdut":10802,"Ġhorse":10803,"Ġconcentration":10804,"Ġpil":10805,"ä¸ĢåĪĩ":10806,"ĠUsing":10807,"Ġwel":10808,"æ»ķ":10809,"é¢ģåıĳ":10810,"Ġdecrease":10811,"Ġviews":10812,"ç±³åħ°":10813,"åģ¿":10814,"äººæ°ĳå¸ģ":10815,"ĠFranc":10816,"Ġsyndrome":10817,"æĤ¦":10818,"ĠMake":10819,"è±¹":10820,"ĠInformation":10821,"Ġdial":10822,"Ġgirls":10823,"Ġband":10824,"ĠLike":10825,"éĵ¸":10826,"ĠStr":10827,"åĪĽå§ĭ":10828,"å¤§å°ĨåĨĽ":10829,"ç½Ĺä¼¯çī¹":10830,"ĠGood":10831,"ä¸įæ»¡":10832,"Ġ1994":10833,"1951":10834,"å¾Ģå¾Ģ":10835,"âĢĻ.":10836,"Ġchann":10837,"æĭ¿ä¸ĭ":10838,"FC":10839,"åī¯ä½¿":10840,"è½©":10841,"ĠBro":10842,"Ġtrain":10843,"çļĦç¬¬äºĮ":10844,"å²©çŁ³":10845,"aud":10846,"æĬ¼":10847,"Another":10848,"éĻ¢å£«":10849,"åľ£ç»ı":10850,"Ġwire":10851,"æĪĸæĹ§å¸Ĥéķĩ":10852,"æĮģæľī":10853,"Or":10854,"Ġsan":10855,"é«ĺçŃīåŃ¦æł¡":10856,"Ġtitle":10857,"Ġ35":10858,"Ġobtained":10859,"ĠTV":10860,"éĹ½":10861,"Ġneut":10862,"Ġtrial":10863,"æ½ľèīĩ":10864,"Ġfirm":10865,"Ġlik":10866,"ä½Ĩä»ĸ":10867,"ä¿®å¤į":10868,"è¶³çĲĥèģĶèµĽ":10869,"è¯Ĺäºº":10870,"Ġrepresents":10871,"è¶³çĲĥéĺŁ":10872,"Ġgrown":10873,"Ġsatis":10874,"IA":10875,"æĶ¶éĽĨ":10876,"äº§çĶŁçļĦ":10877,"éĩįå¤§":10878,"Ġappeared":10879,"ĠSum":10880,"åı¯è§ģ":10881,"Ġoutcomes":10882,"Ġrequest":10883,"çĽ´éļ¶":10884,"RNA":10885,"å®´":10886,"åĬłå¼º":10887,"åľºæĻ¯":10888,"Ġincreasingly":10889,"Ġlatest":10890,"éĢĶä¸Ń":10891,"Ġofficials":10892,"liam":10893,"Ġfif":10894,"Ġminimum":10895,"ä¼Ĺå¤ļ":10896,"Ġpersons":10897,"Ġextract":10898,"åĬªåĬĽ":10899,"èİ·èĥľ":10900,"Ġprinciple":10901,"çĲĨå·¥":10902,"Ġcontaining":10903,"æĻ®é²ģ":10904,"æĪĲç«ĭçļĦ":10905,"ï¼īï¼į":10906,"èĬ¦":10907,"åı¸èģĮ":10908,"åķĨåĵģ":10909,"ario":10910,"Ġthoughts":10911,"å¸Ĥæ°ĳ":10912,"åº¦çļĦ":10913,"Ġshel":10914,"ĠMag":10915,"éĢīåĮºä¸º":10916,"Ġprison":10917,"icks":10918,"celer":10919,"å¤ªåĲİ":10920,"Ġconsists":10921,"ĠManagement":10922,"å¦ĩå¥³":10923,"no":10924,".|":10925,"ĠNav":10926,"å¸½":10927,"ĠBre":10928,"é¹ħ":10929,"Ġplaying":10930,"ĠGoogle":10931,"Ġarms":10932,"ĠSoviet":10933,"Ġadding":10934,"ç±³çļĦ":10935,"å»ºçŃĳå¸Ī":10936,"è°ģ":10937,"ç§įæĹı":10938,"åŁ¹è®Ń":10939,"åĪĨåĪ«æĺ¯":10940,"æīĢå±ŀçļĦçľģçº§":10941,"Ġrapidly":10942,"æīĢå±ŀçļĦçľģçº§éĢīåĮºä¸º":10943,"å¿Ļ":10944,"ãĥī":10945,"Ġmoral":10946,"Can":10947,"è¯¥çľģä»½":10948,"Ġstars":10949,"èĮµ":10950,"Ġintroduction":10951,"Ġrecognized":10952,"spec":10953,"æ£Ģæµĭ":10954,"èĬĻ":10955,"æľºåĪ¶":10956,"Ġbow":10957,"æ»¨æµ·":10958,"Ġaqu":10959,"åĵ¥åĵ¥":10960,"å¹´ç¾İåĽ½":10961,"Ġinterview":10962,"Ġmovements":10963,"æĥľ":10964,"åı¤èĢģ":10965,"åĲİè¢«":10966,"æĸ°åŁİ":10967,"èĩªèº«":10968,"ç¼ĸåħ¥":10969,"å±±å¸Ĥ":10970,"mas":10971,"éĶĲ":10972,"æĺ¯ä¸Ģåº§":10973,"Ġreturned":10974,"Ġneighbor":10975,"çľģçļĦä¸Ģä¸ªå¸Ĥéķĩ":10976,"long":10977,"èĴ²":10978,"Ġastron":10979,"Ġelev":10980,"Ġwear":10981,"Ġcreative":10982,"åįİäºº":10983,"ç¤ģ":10984,"éħįç½®":10985,"åįļå£«åŃ¦ä½į":10986,"Ġvisible":10987,"Ġapproaches":10988,"ompl":10989,"åľ°åĲį":10990,"åĲĪåĲĮ":10991,"åºĦä¸º":10992,"ĠAnother":10993,"Ġdiscussed":10994,"fall":10995,"æ´Ľå¤«":10996,"ãĥ£":10997,"Ġleaving":10998,"Ġmedium":10999,"alse":11000,"ulin":11001,"ĠWomen":11002,"Ġselected":11003,"çŁ¥åºľ":11004,"Ġmyth":11005,"ĠSen":11006,"cript":11007,"Ġsen":11008,"rolog":11009,"ç«ŀèµĽ":11010,"Ġlooked":11011,"æľ«æľŁ":11012,"çļĦç¥ŀ":11013,"ĠStudies":11014,"ĠControl":11015,"Ġstem":11016,"Ġportion":11017,"Ġfle":11018,"ĠKore":11019,"ä¼łæķĻ":11020,"æĸ°äºº":11021,"Ġdisapp":11022,"apping":11023,"Ġcorrespond":11024,"ä¸ľåĮĹéĥ¨":11025,"æĸ¯æĭīå¤«":11026,"Ġvaluable":11027,"äº¤çķĮ":11028,"ç¢Ł":11029,"åĲ¸æĶ¶":11030,"Ġabsolute":11031,"ĠCatholic":11032,"Ġcontem":11033,"æ²³çķĶ":11034,"ĠGold":11035,"asive":11036,"verty":11037,"Ġresidents":11038,"çĶµè¯Ŀ":11039,"cling":11040,"Ġinteg":11041,"ä½ľåĩº":11042,"Ġpoverty":11043,"Ġgrand":11044,"ĠWell":11045,"åĿł":11046,"äº§åľ°":11047,"orter":11048,"ä¸ŃæľĢ":11049,"rey":11050,"èĮİ":11051,"Ġnit":11052,"äººå·¥":11053,"è¶³çĲĥä¿±ä¹Ĳéĥ¨":11054,"æ¢µ":11055,"åľ£æ¯į":11056,"ani":11057,"Ġlessons":11058,"liament":11059,"æľ¬åľŁ":11060,"tenance":11061,"Ġsecure":11062,"Ġsides":11063,"ora":11064,"Ġmigr":11065,"Ġregularly":11066,"æŁĦ":11067,"Ġpoet":11068,"æ£Ģå¯ŁéĻ¢":11069,"Ġcardi":11070,"ĠPhilipp":11071,"atever":11072,"Ġchapter":11073,"æ°Ķè±¡":11074,"Ġstated":11075,"Ġages":11076,"èĿł":11077,"èĢķ":11078,"Ġinfrastructure":11079,"è£ģåĪ¤":11080,"bing":11081,"ĠAlex":11082,"æĪĲéķ¿":11083,"è½¨éģĵäº¤éĢļ":11084,"Ġmac":11085,"ĠSuch":11086,"éĶĢéĩı":11087,"æĹ¬":11088,"ä»İæŃ¤":11089,"Ġtried":11090,"ä¿®éģĵ":11091,"æĶ»æīĵ":11092,"Ġtouch":11093,"osh":11094,"çľł":11095,"Ġparam":11096,"çļĦåĽ½å®¶":11097,"Ġabuse":11098,"being":11099,"lers":11100,"iled":11101,"æŃ»äºİ":11102,"Ġpray":11103,"åĮĹä¾§":11104,"æŃ¤åī§":11105,"Ġsoldiers":11106,"Ġalt":11107,"èģĮä½į":11108,"çļĦè¯Ŀ":11109,"ester":11110,"æīģ":11111,"Ġrandom":11112,"ä¾ĽåºĶ":11113,"æ¾Ħ":11114,"ĠPower":11115,"çĪ¸":11116,"ç¢°":11117,"Pe":11118,"Ġpu":11119,"Ġpaid":11120,"çŁ®":11121,"å®īæīĵ":11122,"Ġcomputers":11123,"Ġpig":11124,"è½¦éģĵ":11125,"åĽĽä¸ĸ":11126,"ç«ĭåį³":11127,"Ġemployees":11128,"ano":11129,"å¤ļå°Ķ":11130,"ĠHistor":11131,"åĲĳåįĹ":11132,"ĠCommit":11133,"Ġleaf":11134,"åĲĪåĶ±":11135,"é¢ģå¥ĸåħ¸ç¤¼":11136,"Ġvillage":11137,"çļĦåĲįåŃĹ":11138,"å»ºç«ĭäºĨ":11139,"Us":11140,"Ġprotected":11141,"Ġingred":11142,"atal":11143,"ç»´å¤ļ":11144,"æīĢå±ŀ":11145,"Ġgovernments":11146,"æīĳ":11147,"obe":11148,"ç¢±":11149,"Ġod":11150,"çļĦæĥħ":11151,"åŃĲå¥³":11152,"åĲĮçĽŁ":11153,"åİŁæĿ¥":11154,"è¿Ĳä½ľ":11155,"Ġlabel":11156,"stream":11157,"pass":11158,"ĠæŀĹ":11159,"Ġjustice":11160,"ĠInstead":11161,"Ġdirector":11162,"ä¸»åĬĽ":11163,"Ġknew":11164,"æĢ§æł¼":11165,"ç©ºä¸Ń":11166,"Ġanswers":11167,"ä¸ºåħ¶":11168,"è´©":11169,"aine":11170,"èĪªå¤©":11171,"Ġdriving":11172,"Ġmamm":11173,"ä¸Ģåľº":11174,"åĨĽå®ĺ":11175,"çİ°åŃĺ":11176,"éģĩåĪ°":11177,"åįģä¸ĢæľĪ":11178,"å´ĸ":11179,"æĹ¥äºİ":11180,"Ġassemb":11181,"ä¾ĭåŃĲ":11182,"çī¹åĪ«æĺ¯":11183,"éķ¿è¾¾":11184,"äº²èĩª":11185,"ooth":11186,"åĪĨè£Ĥ":11187,"èµĦè®¯":11188,"çŃĴ":11189,"Ġrecovery":11190,"åĳĪçİ°":11191,"é¢Į":11192,"Ġphr":11193,"èĢĥè¯ķ":11194,"çīĻé½¿":11195,"æĺ¥ç§ĭ":11196,"Ġprevention":11197,"Ġdiscovery":11198,"å¼ĹéĽ·":11199,"çĸ«æĥħ":11200,"Ġprem":11201,"Ġgall":11202,"æ±ŁæĪ·":11203,"å¹¶çĶ±":11204,"ä¸īäºº":11205,"è¯¥çľģä»½ä¸ºæ³ķåĽ½":11206,"æł¡åĽŃ":11207,"ĠDesign":11208,"Ge":11209,"ĠParis":11210,"æĪĲçĨŁ":11211,"ĠPers":11212,"Ġneuro":11213,"äºĮæĪĺ":11214,"åĲĦèĩª":11215,"ãĢıï¼Ī":11216,"çļĦéĤ®æĶ¿ç¼ĸçłģä¸ºP":11217,"itage":11218,"Ġnarrow":11219,"ç©·":11220,"ĠOF":11221,"å·´åŁº":11222,"Ġdocuments":11223,"æľ¬äºº":11224,"è¾Ĳå°Ħ":11225,"stein":11226,"çļĦè§Ĵèī²":11227,"çŁ©":11228,"itter":11229,"Ġgun":11230,"Ġtrad":11231,"Ġargument":11232,"icide":11233,"ãĢĭï¼ī":11234,"ä¸»ä½ĵ":11235,"Ġchain":11236,"Ġcouple":11237,"æµĨ":11238,"Ġcircumst":11239,"ä¸¤å¹´":11240,"æ¶Į":11241,"iform":11242,"Don":11243,"çłģå¤´":11244,"ä»¥åįĹ":11245,"ĠFrank":11246,"Ġpure":11247,"ä¼¼ä¹İ":11248,"alysis":11249,"å¤§ä¼Ĺ":11250,"å¾ĹåĪ°äºĨ":11251,"Ġstages":11252,"ç«Ļåİħ":11253,"åħ³éĶ®":11254,"æ²¿æµ·":11255,"å¿Į":11256,"Ġinfected":11257,"Ġdeaths":11258,"æ¯ıå¤©":11259,"Ġä¼Ĭ":11260,"ĠTHE":11261,"å·²çŁ¥":11262,"Ġnetworks":11263,"âĦ":11264,"æĿ¯åĨłåĨĽ":11265,"Ġhunt":11266,"åĬłåĪ©ç¦ı":11267,"rors":11268,"Ġinflammation":11269,"Ġmit":11270,"åįĹéĿŀ":11271,"ä¸ĭä»¤":11272,"éĤ£ä¹Ī":11273,"å°Ħåĩ»":11274,"Ġera":11275,"700":11276,"æĢ»è£ģ":11277,"äººåı£æĻ®æŁ¥":11278,"äºĴçĽ¸":11279,"Ġaccomp":11280,"ä¿®æĶ¹":11281,"ãĢĤãĢĤ":11282,"Ġpush":11283,"hist":11284,"èħ°":11285,"Ġsuffer":11286,"åĨĽåĮº":11287,"Ġminim":11288,"åĲ¯åĬ¨":11289,"Ġspiritual":11290,"Ġopinion":11291,"Ġaccepted":11292,"æİ¨èįĲ":11293,"vironments":11294,"æĶ¿æ²»å®¶":11295,"OP":11296,"ãģ¤":11297,"é¡ºåĪ©":11298,"Ð¸Ñ":11299,"Ġagriculture":11300,"ĠEnvironmental":11301,"Ġleadership":11302,"Ġdream":11303,"Ġsuitable":11304,"Ġaccompl":11305,"Qu":11306,"èĬŃ":11307,"èĭıç»´åŁĥ":11308,"Ġinches":11309,"æľºçļĦ":11310,"æĢ§èĥ½":11311,"ypes":11312,"åıĮæīĵ":11313,"æ´»è·ĥ":11314,"Ġprocedures":11315,"Ġ<":11316,"Ġrecognize":11317,"alian":11318,"osph":11319,"ocratic":11320,"ails":11321,"ocy":11322,"éĩĮåħĭ":11323,"Ġalgorith":11324,"åŁİçļĦ":11325,"UR":11326,"æİł":11327,"ĠDisc":11328,"åĴ¨":11329,"å¼Ģä¸ļ":11330,"Ġdoi":11331,"Ġcapable":11332,"LA":11333,"ĠAtt":11334,"ĠNature":11335,"ä»ĸä¸º":11336,"Ġtea":11337,"ĠKnow":11338,"æĢ»çĽĳ":11339,"Ġvehicles":11340,"Ġlifest":11341,"Ġpictures":11342,"ĠOx":11343,"å°¼è¥¿äºļ":11344,"ç©Ĩæĸ¯":11345,"ä¹Łå°±æĺ¯":11346,"åİ¨":11347,"Ġwave":11348,"Ġrub":11349,"åī¯ä¸»å¸Ń":11350,"ç«ĭæĸ¹":11351,"çĭĲ":11352,"åıĳçĶŁåľ¨":11353,"tage":11354,"ĠCa":11355,"Ġimpossible":11356,"plicated":11357,"Ġ2022":11358,"Ġdistrict":11359,"è´§è¿Ĳ":11360,"ellect":11361,"Ġlisted":11362,"èµĽä¸Ń":11363,"é¾Ļæ±Ł":11364,"Ġsubstance":11365,"bran":11366,"zil":11367,"ĠSol":11368,"ä¹Įæĸ¯":11369,"Ġworkshe":11370,"erals":11371,"ĠIN":11372,"è¯¥åħļ":11373,"Ġexpensive":11374,"Ġmobile":11375,"é±¼ç±»":11376,"hemical":11377,"æ¡ĥåĽŃ":11378,"å£°ç§°":11379,"Ġmillions":11380,"inet":11381,"Ġmassive":11382,"æĸ°ç«¹":11383,"Ġtun":11384,"ä¸¤èĢħ":11385,"å¤ĦçļĦ":11386,"ĠAp":11387,"ç½Ĺå¾·":11388,"Ġreform":11389,"ä¸Ĭè¿°":11390,"ĠLibrary":11391,"Ġmedications":11392,"Ġflight":11393,"èµ·ä¹ī":11394,"æĦıæĢĿ":11395,"osal":11396,"ĠJoseph":11397,"è¯ŃçļĦ":11398,"çĵ·":11399,"åĮ»åŃ¦éĻ¢":11400,"æ¡¥æ¢ģ":11401,"èĩ³äºİ":11402,"Ġenhance":11403,"åįĹä¾§":11404,"Ġrecon":11405,"èµ·æºĲ":11406,"å·¥ä½ľå®¤":11407,"è¡Įä¸ļ":11408,"ĠCanadian":11409,"During":11410,"mic":11411,"Ġincl":11412,"æĳ§":11413,"ĠProv":11414,"çłĶåıĳ":11415,"ĠAnn":11416,"Ġharmful":11417,"å°ıå§Ĳ":11418,"III":11419,"åįģä¸ĥ":11420,"Ġplate":11421,"Ġunlike":11422,"åĤ¬":11423,"Ġentirely":11424,"Ġstick":11425,"è¯ģå®ŀ":11426,"çªģçł´":11427,"åįĩä»»":11428,"Ġsets":11429,"Ġrevealed":11430,"ĠLab":11431,"åĩºåıĳ":11432,"wo":11433,"Ġsensitive":11434,"é¹ı":11435,"èµĮ":11436,"Ġtalking":11437,"çĪ±çļĦ":11438,"Ġnaturally":11439,"ĠMa":11440,"æĺ¯ä¸º":11441,"ĠPeter":11442,"Ġmanufacturing":11443,"igenous":11444,"åħ¶ä¸ŃåĮħæĭ¬":11445,"othe":11446,"åĵģç§į":11447,"èµĦæľ¬":11448,"mary":11449,"uh":11450,"Ġnormally":11451,"èĲĿ":11452,"Ġallerg":11453,"uter":11454,"Ġax":11455,"inity":11456,"ä¸»å¼ł":11457,"éķ¿å®ĺ":11458,"æĥ¨":11459,"ä½ıåľ¨":11460,"Ġcorpor":11461,"Ġwarming":11462,"Ġroutine":11463,"ä¸»åĬŀ":11464,"éĺ³åİ¿":11465,"Ġapart":11466,"éĶĻè¯¯":11467,"ä¸ľäº¬éĥ½":11468,"ĠExp":11469,"idden":11470,"èĤ©":11471,"åıĳçİ°çļĦ":11472,"ĠLand":11473,"éĩĳå±±":11474,"Ġsatell":11475,"å¤§çĲĨ":11476,"ä¸¤ä½į":11477,"çļĦä¸ĢæĿ¡":11478,"Ġbrown":11479,"æķĪåĬĽäºİ":11480,"ĠOffice":11481,"exp":11482,"Ġoriginally":11483,"ä¸Ģèĩ´":11484,"ura":11485,"åŁİåİ¿":11486,"Ġrepeated":11487,"å¯ĩ":11488,"ĠVirginia":11489,"Ġnarr":11490,"è¥¿éĩĮ":11491,"ç³»ç»ŁçļĦ":11492,"Ġpossibly":11493,"Ġprecise":11494,"NBA":11495,"atus":11496,"abits":11497,"Ġraise":11498,"ä¹ĲåĻ¨":11499,"hips":11500,"ĠCap":11501,"Ġunderstood":11502,"Ġsecondary":11503,"Ġtraffic":11504,"è¸¢":11505,"Ġintelligence":11506,"rus":11507,"rate":11508,"ä¼łå¥ĩ":11509,"æĪĺè½¦":11510,"å¤´éĥ¨":11511,"ictor":11512,"Ġcolors":11513,"Ġjourney":11514,"è¾Ł":11515,"å¤ĸçļĦ":11516,"Ġcars":11517,"ĠSk":11518,"ä¾¨":11519,"çĥ·":11520,"èĮĦ":11521,"Ġsolve":11522,"Ġachieved":11523,"åı·çļĦ":11524,"Ġcalls":11525,"çī©ç§įçļĦ":11526,"Ġagreement":11527,"ä¸ľåįĹéĥ¨":11528,"ĠScot":11529,"ĠScott":11530,"ĠScient":11531,"å¯¹æŃ¤":11532,"ogue":11533,"inations":11534,"ĠBet":11535,"ects":11536,"é©³":11537,"ady":11538,"æĪĺèĥľ":11539,"Ġintake":11540,"æľīä¸ĢäºĽ":11541,"Ġfigures":11542,"ctic":11543,"Ġancest":11544,"ä¸¤åĲį":11545,"éĻ¨":11546,"inson":11547,"zen":11548,"ä¸Ńå¼ı":11549,"ĠDan":11550,"Ġpossess":11551,"1936":11552,"cher":11553,"eer":11554,"è¢«è§Ĩä¸º":11555,"Ġexchange":11556,"åıĳæĮ¥":11557,"ç¾İä¸½":11558,"å¥³åŃ©":11559,"Ġregional":11560,"ä¿ĦåĽ½":11561,"Ġ1993":11562,"organ":11563,"Ġ1992":11564,"130":11565,"éªı":11566,"äºĶä¸ª":11567,"è¿½æº¯":11568,"æīĢåľ¨åľ°":11569,"Ġformal":11570,"èĽĻ":11571,"Ġgal":11572,"çļĦæīĭ":11573,"Ġsurvival":11574,"Ġéķ¿":11575,"Ġlandscape":11576,"?âĢĿ":11577,"Ġcloud":11578,"åįĩæł¼":11579,"å½ĵåľ°çļĦ":11580,"çĮªç¬¼":11581,"struct":11582,"riting":11583,"Ġtransmission":11584,"Int":11585,"Ġcatch":11586,"å°ĺ":11587,"å¨ħ":11588,"ĠCommon":11589,"Ġdiverse":11590,"åķĨäºº":11591,"iotics":11592,"Ġproducing":11593,"è¿Ļæł·çļĦ":11594,"iology":11595,"çī¹çĤ¹":11596,"åĬłåħ¥äºĨ":11597,"ãĤ°":11598,"Ġ978":11599,"çĽ¸åħ³çļĦ":11600,"çĶµåĬ¨":11601,"åĭŁ":11602,"æ¸¸æĪıçļĦ":11603,"Ġmur":11604,"abric":11605,"agers":11606,"prise":11607,"dden":11608,"ĠLabor":11609,"ston":11610,"Ġnurs":11611,"Ġexpressed":11612,"çĮªç¬¼èįī":11613,"fish":11614,"icago":11615,"Ġtells":11616,"tra":11617,"ĠLim":11618,"box":11619,"ctive":11620,"æĹ¥æŃ£å¼ı":11621,"opl":11622,"é¢ĸ":11623,"éħ·":11624,"Ġgenerate":11625,"Ġaccounts":11626,"Ġmountain":11627,"Cont":11628,"anged":11629,"Ġwildlife":11630,"åľ°ä¸Ĭ":11631,"ãĤº":11632,"olester":11633,"æĪĺåĽ½":11634,"åı°é£İ":11635,"ä¸´åºĬ":11636,"itan":11637,"æĺ¯åĽłä¸º":11638,"ĠTime":11639,"åį§":11640,"anta":11641,"Ġbusinesses":11642,"va":11643,"Ġworse":11644,"åĮħåĽ´":11645,"Ġadvoc":11646,"ç¬¬ä¸Ģä½į":11647,"gent":11648,"Ġtoler":11649,"æĬĳåĪ¶":11650,"åĵĢ":11651,"Ġclosed":11652,"æĺ¯åı°æ¹¾":11653,"æºĥ":11654,"Ġfunding":11655,"ĠMad":11656,"åĩºå¸Ń":11657,"Î¿":11658,"çĪ¬":11659,"Ġvs":11660,"è§Ĩé¢ĳ":11661,"çĮ´":11662,"å¤§æŃ£":11663,"æ£ī":11664,"å®¤åĨħ":11665,"ĠCare":11666,"ä¸ĭä¸Ģ":11667,"Ġsupplement":11668,"Ġchart":11669,"æĦŁè§ī":11670,"cules":11671,"æ³ķå®ĺ":11672,"ãĤµ":11673,"Ġlatter":11674,"å²Ĳ":11675,"flow":11676,"Ġdental":11677,"Ġedge":11678,"åģ¶åĥı":11679,"Ġguidelines":11680,"reed":11681,"è¿Ļé¦ĸ":11682,"å°ģä¸º":11683,"Ġdescribes":11684,"ropical":11685,"Ġfacilit":11686,"Ġpretty":11687,"å¥³æ¼Ķåĳĺ":11688,"æĶ¹ç§°":11689,"èº«ä¸Ĭ":11690,"çĽĳå¯Ł":11691,"Ġaw":11692,"Ġstored":11693,"250":11694,"ä¸Ĭåįĩ":11695,"å«Į":11696,"éĿłè¿ĳ":11697,"çļĦéĥ¨åĪĨ":11698,"Ġmm":11699,"åħħæ»¡":11700,"Ġfiber":11701,"æĤł":11702,"ç²¾çģµ":11703,"æĴŀåĩ»":11704,"Ġadopted":11705,"éĻ·åħ¥":11706,"æ³ķæ¡Ī":11707,"ffee":11708,"ansion":11709,"ĠAddition":11710,"Ġ1960":11711,"Ġbudget":11712,"äº©":11713,"æľĢé«ĺçļĦ":11714,".âĢĻ":11715,"Ġreject":11716,"ä¸Ģäºº":11717,"åĲįè¿Ľå£«":11718,"å¼łä¸ĵè¾ĳ":11719,"Ġindeed":11720,"è¸ı":11721,"OD":11722,"åīĬ":11723,"ĠLong":11724,"éĹ»åĲį":11725,"æ³¢å£«é¡¿":11726,"çī¹å®ļ":11727,"æĢ§åĪ«":11728,"å¿ĥèĦı":11729,"å¹´èİ·":11730,"Ġacts":11731,"Ð¾Ð²":11732,"è¶ĭ":11733,"Ġamb":11734,"Ġabund":11735,"Ġauthorities":11736,"æ³ķåħ°åħĭ":11737,"Ġcomprehensive":11738,"èĲ¥ä¸ļ":11739,"æ´¾åĩº":11740,"body":11741,"Ġmarine":11742,"Ġderived":11743,"rid":11744,"AA":11745,"state":11746,"æľįè£ħ":11747,"arn":11748,"Ġdedic":11749,"Stud":11750,"éĢ»":11751,"æİ¢æµĭ":11752,"Ġerror":11753,"ç½Ĺé©¬å°¼äºļ":11754,"Ġscholars":11755,"çĲĨæŁ¥":11756,"å²Ľå¼ı":11757,"Ġremaining":11758,"èĽĽ":11759,"ifies":11760,"Ġwindow":11761,"illa":11762,"äº¥":11763,"Ġ300":11764,"Ġworldwide":11765,"Ġengage":11766,"è¾ħåĬ©":11767,"ĠRights":11768,"å¸ĥéĽ·":11769,"under":11770,"wing":11771,"Ġenvironments":11772,"Ġsteel":11773,"Ġaf":11774,"äºĮçº§":11775,"teen":11776,"ĠOh":11777,"å¥¹ä»¬":11778,"æĽ¾äºİ":11779,"azine":11780,"Ġaircraft":11781,"Ġbones":11782,"lets":11783,"æľ¬çº¿":11784,"Ġdecline":11785,"æĺŁç³»":11786,"çļĦéĹ®é¢ĺ":11787,"é«ĺè¾¾":11788,"çļĦéŁ³ä¹Ĳ":11789,"æµİåįĹ":11790,"åĮĹèµ·":11791,"èĢĮéĿŀ":11792,"acts":11793,"Ġsick":11794,"omach":11795,"éĤ±":11796,"CP":11797,"å°Ķé¡¿":11798,"çļĦæľĢ":11799,"Not":11800,"Will":11801,"faces":11802,"éĻª":11803,"ä½ĵéĩį":11804,"æķĳæı´":11805,"å°¤åħ¶æĺ¯":11806,"born":11807,"DVD":11808,"åľºåľ°":11809,"è¿ĳå¹´":11810,"ĠCommittee":11811,"ð«":11812,"æĹŃ":11813,"æĮĩå®ļ":11814,"æ¶Īè´¹":11815,"American":11816,"Ġfrag":11817,"åĲĳåĮĹ":11818,"Ġsudden":11819,"ĠRob":11820,"ãĥĬ":11821,"çķħ":11822,"æ®·":11823,"å¼ıçļĦ":11824,"ä¼ļè¯ķ":11825,"Ġhealthcare":11826,"Ġsuc":11827,"Ġ)":11828,"Ġparties":11829,"å¥½åıĭ":11830,"æİªæĸ½":11831,"Pr":11832,"Ġlibrary":11833,"åĺīå®¾":11834,"normal":11835,"sis":11836,"Ġdust":11837,"oted":11838,"é«ĺéĽĦ":11839,"é©¬ä¸ģ":11840,"ĠValley":11841,"Ġsweet":11842,"heim":11843,"ĠReview":11844,"äººæ°ĳæ£Ģå¯ŁéĻ¢":11845,"éķ¿å®ī":11846,"çĻ¾ä¸ĩ":11847,"æİ¨åĬ¨":11848,"æıĲçĲ´":11849,"æ¯ıæĹ¥":11850,"Ġhouses":11851,"EG":11852,"ih":11853,"æĬµæĬĹ":11854,"irus":11855,"Ġunknown":11856,"Ġafford":11857,"Ġdistingu":11858,"æ³ķåħ°è¥¿":11859,"æķ²":11860,"çĶŁæĪĲ":11861,"è¡ĮçļĦ":11862,"Ġadequ":11863,"åŃ¦çļĦ":11864,"Ġopened":11865,"olesterol":11866,"Ġselection":11867,"Ġinject":11868,"å¼Ħ":11869,"é©±éĢĲèĪ°":11870,"Ġcomposition":11871,"æģ¨":11872,"Ġratio":11873,"é¦ĸä½į":11874,"ãĢĭãĢĬ":11875,"éķĳ":11876,"Ġremote":11877,"ums":11878,"Ġdoor":11879,"è·¯æĺĵæĸ¯":11880,"Ġcandid":11881,"EF":11882,"ä»Ĭå¤©":11883,"å¾Īå¤§":11884,"Ġ500":11885,"æĸ°å»º":11886,"æł¼å°Ķ":11887,"æµģæµª":11888,"åı¬å¼Ģ":11889,"ç¼©åĨĻ":11890,"kes":11891,"ĠSing":11892,"ĠIII":11893,"ä»ĸåĴĮ":11894,"Ġunless":11895,"åıĺä¸º":11896,"Ġtal":11897,"Ġthor":11898,"æµ·ä¸Ĭ":11899,"çłĶç©¶éĻ¢":11900,"Ġsimpl":11901,"ĠProfessor":11902,"ĠPan":11903,"ĠExt":11904,"uma":11905,"Ġpossibility":11906,"Ġå®ī":11907,"bour":11908,"Ġyield":11909,"åĢĻéĢīäºº":11910,"æ±ŁåįĹ":11911,"Ġstarts":11912,"å¼Ģå±ķ":11913,"Ġcolour":11914,"æ©Ħ":11915,"cm":11916,"ĠId":11917,"çľ¼çĿ":11918,"Ġtwice":11919,"è¿ŀç»Ńåī§":11920,"åĬŁçİĩ":11921,"inder":11922,"æĻļæľŁ":11923,"å¥¥æĸ¯åį¡":11924,"æķĪåºĶ":11925,"åį¡ç½Ĺ":11926,"æĥ³è¦ģ":11927,"ç»¼èīº":11928,"ĠReport":11929,"rd":11930,"Ġdownload":11931,"Ġprepare":11932,"Ġwants":11933,"olve":11934,"Ġcreates":11935,"å¥¥æŀĹåĮ¹åħĭè¿ĲåĬ¨ä¼ļ":11936,"å¸ĤæĶ¿":11937,"èĪĮ":11938,"Me":11939,"Ġexperiments":11940,"ĠBank":11941,"æ°ĳä¼Ĺ":11942,"ĠColumb":11943,"Ġmoon":11944,"èĲ½æĪĲ":11945,"Ġimproving":11946,"Other":11947,"è¥¿åįĹéĥ¨":11948,"Ã¨":11949,"æł¼éĩĮ":11950,"çĶ°æĿĳ":11951,"Ġdatabase":11952,"edu":11953,"Ġfill":11954,"åħįè´¹":11955,"Ġoptim":11956,"Ġinjuries":11957,"Ġban":11958,"lements":11959,"ç»µ":11960,"ĠBab":11961,"ĠVer":11962,"å·´åŁºæĸ¯åĿ¦":11963,"ymph":11964,"æ³¢å°Ķ":11965,"ç»ĺçĶ»":11966,"ä¸Ńä¹¦":11967,"throp":11968,"çľī":11969,"éĢ®":11970,"Ġplays":11971,"Ġcultiv":11972,"æ¹ĸåįĹçľģ":11973,"Ġwid":11974,"çļĦæĢ»":11975,"å·¥èīº":11976,"äº¤åıī":11977,"æĨ":11978,"ocracy":11979,"æ®ĸæ°ĳåľ°":11980,"sey":11981,"åħĭæŀĹ":11982,"åĸĻ":11983,"âĢĻ,":11984,"Ġequival":11985,"ittle":11986,"åĬŀäºĭå¤Ħ":11987,"æł¼éĽ·":11988,"Ġpull":11989,"Ġenable":11990,"åħ·ä½ĵ":11991,"Ġswitch":11992,"èĦ±ç¦»":11993,"å±±åı£":11994,"ibilities":11995,"è¯¥åħ¬åı¸":11996,"ç¼ĸç»Ħ":11997,"å¹¶è¢«":11998,"çŁĽ":11999,"Ġdensity":12000,"occ":12001,"ç¦ıå¾·":12002,"Ġmedication":12003,"Ġsignals":12004,"Ġbroken":12005,"æī©å±ķ":12006,"ĠCam":12007,"æ¯Ĺ":12008,"agues":12009,"ä½ĵéķ¿":12010,"æ²³è°·":12011,"Ġaudience":12012,"ĠNatural":12013,"Ġrestrict":12014,"Ġ;":12015,"ĠAny":12016,"ç§ĳå°Ķ":12017,"èĭ±éĩĮ":12018,"åĽ½å®¶çļĦ":12019,"é¢Ĥ":12020,"äº¤åĵį":12021,"ĠFe":12022,"Ġ1991":12023,"Ġforests":12024,"Ġflav":12025,"Ġconsistent":12026,"ĠCamp":12027,"èµ«å°Ķ":12028,"ctor":12029,"Ġskill":12030,"åĨħéĻĨ":12031,"1933":12032,"Ġmechanism":12033,"ä»ĸä¹Ł":12034,"å·¨å¤§":12035,"ĠIll":12036,"æĸĩåºĵ":12037,"1935":12038,"æīĵçł´":12039,"æĢĢçĸĳ":12040,"Ġtruly":12041,"Ġimper":12042,"dered":12043,"roduction":12044,"ä¸ĭäºĨ":12045,"gans":12046,"çļĦåİŁåĽł":12047,"æĪĲåĪĨ":12048,"å¾ĹåĪĨ":12049,"Ġspeaking":12050,"BM":12051,"Ġtiny":12052,"Ġindex":12053,"Ġsurvive":12054,"tic":12055,"orrow":12056,"Ġpapers":12057,"æĥ§":12058,"æľ¬ä¹¦":12059,"ä»¥ä¸ĬçļĦ":12060,"ĠEnd":12061,"ĠAbout":12062,"è¿ŀè½½":12063,"çİĭä½į":12064,"åİŁä¸º":12065,"ĠGlobal":12066,"Ġhappy":12067,"Ġfasc":12068,"çİ°ä¸º":12069,"çŁŃæļĤ":12070,"Ġmulti":12071,"ä½¿åħ¶":12072,"Ġuniverse":12073,"ä¾Ŀæį®":12074,"å¸Ĥä¸Ńå¿ĥ":12075,"æ©¡":12076,"åºļ":12077,"éĺ²æŃ¢":12078,"Ġsequence":12079,"Ġdent":12080,"åĳĺå¤ĸ":12081,"ç©Ĺ":12082,"Ġshell":12083,"ä¸»åĶ±":12084,"åİŁä½ľ":12085,"ĠParty":12086,"ĠExper":12087,"Ġbeneficial":12088,"Col":12089,"æ·±åº¦":12090,"è¯Ħä¼°":12091,"TA":12092,"Ġreaders":12093,"Ġtow":12094,"level":12095,"åľ°äº§":12096,"ĠThose":12097,"èĻı":12098,"usal":12099,"æ©Ħæ¦Ħ":12100,"çģŃç»Ŀ":12101,"é©¹":12102,"abul":12103,"Ġbear":12104,"ĠHome":12105,"ä¸ľæµ·":12106,"çĶµå½±èĬĤ":12107,"Ġtransition":12108,"å®īå¾½çľģ":12109,"åľ°åŁŁ":12110,"Ġelectron":12111,"æĶ¾åľ¨":12112,"çĹħä¾ĭ":12113,"ä¸ºæŃ¤":12114,"èĤ¾":12115,"ĠJe":12116,"çļĦä¸ĢäºĽ":12117,"ĠOnly":12118,"Ġdoctors":12119,"æĽ´æĸ°":12120,"èļĢ":12121,"æĳ§æ¯ģ":12122,"ç§°åĳ¼":12123,"edy":12124,"Ġgather":12125,"åŁºéĩĳä¼ļ":12126,"ĠFlorida":12127,"1901":12128,"pet":12129,"ç»ĳ":12130,"stone":12131,"ashion":12132,"åĩ°":12133,"Ġfixed":12134,"æµģåŁŁ":12135,"æ¸¸å®¢":12136,"éķ¿æ²Ļ":12137,"æĪĺåľº":12138,"æŃ£éĿ¢":12139,"ĠWhe":12140,"ä¾£":12141,"Ġextended":12142,"å¡ŀå°Ķç»´äºļ":12143,"ç»´å¤ļåĪ©äºļ":12144,"éĺ¿éĩĮ":12145,"èĻ¾":12146,"luding":12147,"å¾ģæľį":12148,"Ġresponses":12149,"åĪĨå¸ĥåľ¨":12150,"å¼Ģå¹ķ":12151,"çĽ´æĴŃ":12152,"å¼Ĺæĭī":12153,"nce":12154,"ç¿°æŀĹ":12155,"Ġobtain":12156,"æĴ°åĨĻ":12157,"ĠClin":12158,"èĥ¡åĲĮ":12159,"æľĪçĲĥ":12160,"è¥¿èĹı":12161,"Ġchrom":12162,"ç½Ĺé©¬å¸ĿåĽ½":12163,"ĠMill":12164,"ä¹ĭä¸º":12165,"ĠGard":12166,"Ġuns":12167,"å¤§è¿ŀ":12168,"è¯Ħä¸º":12169,"PC":12170,"éĥ½åľ¨":12171,"Ġfell":12172,"Ġstruggle":12173,"ait":12174,"teries":12175,"å¹³è¡¡":12176,"venue":12177,"åı²å¯Ĩ":12178,"Ġapprec":12179,"åıªè¦ģ":12180,"åĴı":12181,"æ°Ķä½ĵ":12182,"èģĶç»ľ":12183,"å±Ĭåħ¨åĽ½":12184,"Ġagencies":12185,"Ġseeing":12186,"Ġmaintenance":12187,"åĬłå°Ķ":12188,"æīĢè°ĵ":12189,"Ġcompounds":12190,"ĠThrough":12191,"åĽŀåĲĪ":12192,"å¥ĸç«ł":12193,"Ġcutting":12194,"arant":12195,"å»ĸ":12196,"Ġlocations":12197,"Figure":12198,"åĲĬ":12199,"ĠTor":12200,"åĲĦä¸ª":12201,"æľĪçļĦ":12202,"Ġstudying":12203,"èµŀåĬ©":12204,"æĶ¹å»º":12205,"çĥ¯":12206,"æıĲä¾ĽäºĨ":12207,"ĠåĮĹ":12208,"Ġelectronic":12209,"rine":12210,"æĸ¹ä¾¿":12211,"1909":12212,"utch":12213,"åįķæīĵ":12214,"Ġrepresented":12215,"Ġfertil":12216,"using":12217,"èĭ±è¶ħ":12218,"Ġpron":12219,"æĮ¡":12220,"å½ĵå±Ģ":12221,"Per":12222,"icians":12223,"æĬĦ":12224,"çº§åĪ«":12225,"äºĨä»ĸçļĦ":12226,"ç»ĩçĶ°":12227,"Ġsuccessfully":12228,"Ġdaughter":12229,"Ġlect":12230,"Ġslowly":12231,"eless":12232,"Ġfract":12233,"è¿Ĳæ²³":12234,"Ġprincip":12235,"ä¸Ĭå¸Ŀ":12236,"ĠWood":12237,"ç§įç±»":12238,"Ġacceler":12239,"1934":12240,"Ġchoices":12241,"éĢļå¾Ģ":12242,"Ġourselves":12243,"å´ĩç¥¯":12244,"åħ¬é¡·":12245,"åĭĺ":12246,"ä¸ĭåįĬ":12247,"çº¤ç»´":12248,"Ġoutl":12249,"åħįçĸ«":12250,"Ġbreathing":12251,"åŃ£åĲİèµĽ":12252,"è¿ģèĩ³":12253,"Ġvessels":12254,"hav":12255,"eper":12256,"esity":12257,"Ġmice":12258,"ifications":12259,"æİ¨å¹¿":12260,"Ġframework":12261,"Ġprofessionals":12262,"ãĥł":12263,"åħĶ":12264,"å¤§éĢī":12265,"Ġdesire":12266,"èı²åĪ©":12267,"rates":12268,"Ġinhib":12269,"å¼ºè°ĥ":12270,"stract":12271,"å°¼åı¤":12272,"Ġmarriage":12273,"Ġwaves":12274,"isk":12275,"Ġlots":12276,"ä¸ļä½Ļ":12277,"æĦ¤":12278,"Ġadministration":12279,"ĠRichard":12280,"æľĪåľ¨":12281,"ĠExpl":12282,"rons":12283,"ä¸¤åĽ½":12284,"hand":12285,"å±ĤçļĦ":12286,"ä¼ļæľī":12287,"æĸ°è®¾":12288,"ãĥĹ":12289,"æŁ¥å°Ķæĸ¯":12290,"ä¸ĬåįĪ":12291,"ĠRoad":12292,"Ġshop":12293,"æ´Ľæĸ¯":12294,"Ġfailed":12295,"Ġchildhood":12296,"å»ºçŃĳéĿ¢ç§¯":12297,"Ġgreatly":12298,"but":12299,"net":12300,"çªĦ":12301,"åħ¶ä¸Ńä¸Ģä¸ª":12302,"Ġcm":12303,"ç«£":12304,"è½¦åİ¢":12305,"éĩįè¿Ķ":12306,"1918":12307,"Ġarchitecture":12308,"å²Ľä¸Ĭ":12309,"æļ¨":12310,"Ġopening":12311,"âĪ":12312,"åĮºåĨħ":12313,"Let":12314,"Ġunp":12315,"çĶ·ä¸»è§Ĵ":12316,"å¹ķåºľ":12317,"çĩĥæĸĻ":12318,"éŀĭ":12319,"æŀ¢çº½":12320,"Ġdepos":12321,"rison":12322,"Ġcircumstances":12323,"ĠFort":12324,"iana":12325,"inking":12326,"Ġvoc":12327,"Ġcourses":12328,"ãĥŁ":12329,"Ġimmediate":12330,"ĠGet":12331,"Ġdescription":12332,"ãĥĩ":12333,"çĥĤ":12334,"Ġattend":12335,"é»ĳé¾Ļæ±Ł":12336,"Ġwww":12337,"ĠVis":12338,"ceived":12339,"irt":12340,"Ġneck":12341,"æ´Ľéĺ³":12342,"Ġåĳ¨":12343,"Ġdefe":12344,"ml":12345,"èģĶèµĽåĨłåĨĽ":12346,"åĪ¶ä½ľçļĦ":12347,"Ġwriter":12348,"ä½ĳ":12349,"Ġintellect":12350,"igation":12351,"æ¼ı":12352,"éħ¿":12353,"å·´æĭī":12354,"å¤§åħ¬":12355,"æĶ¹åĲį":12356,"è¶³å¤Ł":12357,"Ġethnic":12358,"å®īä¸ľå°¼":12359,"ĠRoyal":12360,"æī©å»º":12361,"ĠMichael":12362,"ä½ľæĽ²å®¶":12363,"ä¿®éģĵéĻ¢":12364,"orses":12365,"Ġacids":12366,"Ġboost":12367,"Ġfilled":12368,"ĠYet":12369,"Ġindicates":12370,"ĠæĹ¥":12371,"åĶ¤":12372,"Ġimplementation":12373,"Ġsell":12374,"Ġlaboratory":12375,"Ġsky":12376,"Ġfly":12377,"æĪĬ":12378,"èį¡":12379,"æĶ¯æµģ":12380,"iration":12381,"åľºæīĢ":12382,"äº¤æµģéģĵ":12383,"Ġmixed":12384,"åıįæĺł":12385,"ä»ĸä»¬åľ¨":12386,"Ġorganisms":12387,"itative":12388,"Ġhighlight":12389,"Ġwish":12390,"æĸ¯æ´Ľ":12391,"Ġcritic":12392,"Ġsentence":12393,"from":12394,"ican":12395,"Ġdecide":12396,"æııç»ĺ":12397,"å¹³æĪĲ":12398,"éĢīç§Ģ":12399,"Ġopposite":12400,"Ġassistance":12401,"hesis":12402,"é¦ĸçĽ¸":12403,"Ġcomparison":12404,"ãĥģ":12405,"è·¯ç«Ļ":12406,"æĸ¯åį¡":12407,"èĢĮä¸įæĺ¯":12408,"omer":12409,"ĠNations":12410,"åĨłçĬ¶":12411,"æ²³åĮĹçľģ":12412,"éĻĨç»Ń":12413,"çļĦæ¯ĶèµĽ":12414,"å¹´å¤ıåŃ£":12415,"èº«åĪĨ":12416,"Ġconsumers":12417,"åĲİåį«":12418,"ĠHill":12419,"ĠRevolution":12420,"Ð¼":12421,"å¸Ĳ":12422,"Ġpermanent":12423,"Ġsod":12424,"ĠCult":12425,"æ²ª":12426,"Ġsports":12427,"Ġmachines":12428,"ĠçĻ½":12429,"ĠDet":12430,"Ġphilosophy":12431,"ictionary":12432,"Ġstomach":12433,"phone":12434,"å²ĽçļĦ":12435,"ç´§æĢ¥":12436,"æŃ¤æ¬¡":12437,"Ġproduces":12438,"Ġzone":12439,"Ġbattery":12440,"Ġhypothes":12441,"æ³ķè¯Ń":12442,"åīįéĶĭ":12443,"Ġdiscipl":12444,"ĠHaw":12445,"HD":12446,"antly":12447,"Ġfewer":12448,"å¹²çº¿":12449,"Ġfeeding":12450,"ribed":12451,"éĨī":12452,"inction":12453,"çĲĨæĥ³":12454,"è¾¹å¢ĥ":12455,"Ġstanding":12456,"Ġmolecules":12457,"ĠFederal":12458,"ç¥ŀç§ĺ":12459,"iah":12460,"1932":12461,"ĠEmpire":12462,"ÉĽ":12463,"æįī":12464,"ä¿Ŀå®Ī":12465,"ivery":12466,"å¾Īå°ĳ":12467,"åıĻè¿°":12468,"Ġultimately":12469,"UT":12470,"Ġmagnetic":12471,"ĠAustralian":12472,"Ġconventional":12473,"Co":12474,"Ġhabits":12475,"Ġdecade":12476,"åĨľæ°ĳ":12477,"Ġsupporting":12478,"Ġ45":12479,"Ġdifficulty":12480,"ĠRome":12481,"Ġcircuit":12482,"çĽ¸å½ĵäºİ":12483,"irds":12484,"Ġroof":12485,"Ġdoubt":12486,"Ġcloser":12487,"ĠAdd":12488,"Ġinteraction":12489,"Ġintervention":12490,"Ġdestroyed":12491,"Read":12492,"éĥ½è¢«":12493,"æĹłè®º":12494,"Ġlifestyle":12495,"åĪĽæĸ°":12496,"ä¼ļç¤¾":12497,"Ġfoundation":12498,"Ġorganized":12499,"çļĦæĪĲç»©":12500,"Ġmanaged":12501,"æŃ¥æŀª":12502,"itudes":12503,"andon":12504,"å½°åĮĸ":12505,"oga":12506,"Ġthousand":12507,"æŁ´æ²¹æľºè½¦":12508,"Ġsight":12509,"è¾¹ä¸º":12510,"Ġwalking":12511,"ç©Ĩæĸ¯æŀĹ":12512,"æĦıè§ģ":12513,"ĠCarolina":12514,"Ġshift":12515,"æŃĮè¯į":12516,"æ±¡æŁĵ":12517,"Since":12518,"ployment":12519,"ç«ŀæĬĢ":12520,"Ġreplaced":12521,"Ġinsects":12522,"èµ·çĤ¹":12523,"è½¬æį¢":12524,"Ġmuseum":12525,"æĹ¶ä»£çļĦ":12526,"å½ĵä»£":12527,"ribe":12528,"åĺīä¹ī":12529,"ĠSpain":12530,"Ġfer":12531,"ĠSil":12532,"agon":12533,"Ġbiggest":12534,"Ġtroops":12535,"AV":12536,"comm":12537,"ãĤ¦":12538,"Ġregulations":12539,"Ġgrav":12540,"Ġmarried":12541,"ä¸Ńå°Ĩ":12542,"èĭıå·ŀ":12543,"Ġarrived":12544,"inate":12545,"Ġaer":12546,"åĩºåľŁ":12547,"å¤´è¡Ķ":12548,"Ġdedicated":12549,"åĲĮåĲį":12550,"Ġlaun":12551,"Ġjoin":12552,"ĠBrazil":12553,"icon":12554,"æł¼æŀĹ":12555,"çº³ç²¹":12556,"æĪ·éĥ¨":12557,"Ġcultures":12558,"Ġgenerated":12559,"åį¸":12560,"åı¸æ³ķ":12561,"çªĿ":12562,"ĠEss":12563,"Ġhandle":12564,"éĽķå¡ĳ":12565,"å¹»æĥ³":12566,"Ġnine":12567,"çĽĪ":12568,"ĠPub":12569,"çĤŃ":12570,"éĢĤåºĶ":12571,"bridge":12572,"æĽ¹æĵį":12573,"See":12574,"word":12575,"Ġprotocol":12576,"éĵĥæľ¨":12577,"idae":12578,"Ġchosen":12579,"ãģł":12580,"ĠæĿ¨":12581,"ä¸Ģè¯į":12582,"Ġlimits":12583,"Ġparalle":12584,"ĠSouthern":12585,"å¹´ä¸İ":12586,"åľ¨æĸ°":12587,"æıĲåıĬ":12588,"æĿĥåĪ©":12589,"Ġreader":12590,"æ»¡æ´²":12591,"ĠMer":12592,"çĲĨè§£":12593,"ãĤĦ":12594,"æİ¥æĽ¿":12595,"Ġbehaviors":12596,"ugh":12597,"Ġmeth":12598,"éħ®":12599,"æ°Ł":12600,"ä»¥æŃ¤":12601,"Ġ1950":12602,"Ġmechanisms":12603,"Ġfossil":12604,"Ġeastern":12605,"Ġnecessarily":12606,"EE":12607,"ao":12608,"çļĦéķ¿":12609,"æĸ¯æīĺ":12610,"Ġartificial":12611,"Comp":12612,"è®°å¿Ĩ":12613,"åĺīåºĨ":12614,"çļĦæ¯ĶèµĽä¸Ń":12615,"é»Ľ":12616,"éģĹä¼ł":12617,"çļĦåŁºç¡Ģ":12618,"èĭį":12619,"çľ¼çĿĽ":12620,"çļĦæĸ¹æ³ķ":12621,"åķĨåĬ¡":12622,"ĠAcademy":12623,"éĿĴå°ĳå¹´":12624,"azing":12625,"First":12626,"è¯¥æł¡":12627,"åįķçĭ¬":12628,"ĠSuper":12629,"å¤§è§Ħæ¨¡":12630,"ĠConstitution":12631,"Ġcarefully":12632,"æĬĽ":12633,"ç¥Ī":12634,"ï¼ĪãĢĬ":12635,"åĪĨæł¡":12636,"usiness":12637,"ä¹ĭå¤Ħ":12638,"äºĨä»ĸ":12639,"ĠChicago":12640,"æĶ¯ä»ĺ":12641,"then":12642,"imm":12643,"Ġevaluation":12644,"ä¼ļè¢«":12645,"æŃ£å¾·":12646,"Ġmarked":12647,"Ġç½Ĺ":12648,"Ġgram":12649,"åĳ¼åĲ¸":12650,"åı¦æľī":12651,"Ġzero":12652,"ä¸ĢçĻ¾":12653,"ãĥ¥":12654,"åº§åłĤ":12655,"asters":12656,"å¤«å¦ĩ":12657,"ĠDisease":12658,"åĴĴ":12659,"æ¸ħæ°´":12660,"ç¦ıå»ºçľģ":12661,"åĪ¶å®ļ":12662,"åİŁåħĪ":12663,"å¸ĤæĶ¿åºľ":12664,"Ġlisten":12665,"åı²èĴĤ":12666,"è£´":12667,"æ°¸ä¹ħ":12668,"äºĨä¸ĢäºĽ":12669,"åĩ¤åĩ°":12670,"çļĦå½¢å¼ı":12671,"æľīè®¸å¤ļ":12672,"tering":12673,"ä½ĵåŀĭ":12674,"struction":12675,"ç¥ŀç¤¾":12676,"ĠOcean":12677,"yth":12678,"iratory":12679,"è¿ĽæŃ¥":12680,"å¤©åĲİ":12681,"çļĦç¾İåĽ½":12682,"åĬłéĢŁ":12683,"æİĴåĪĹ":12684,"åĨĻä½ľ":12685,"çİĩåĨĽ":12686,"uts":12687,"Ġroute":12688,"è§īå¾Ĺ":12689,"Ġconcrete":12690,"El":12691,"ĠGal":12692,"oven":12693,"æ¼Ĥ":12694,"Ġbond":12695,"è¯¥åĽ½":12696,"afety":12697,"è¿ĩçļĦ":12698,"èĵĦ":12699,"äººå¤§":12700,"ĠWorks":12701,"heast":12702,"ĠNorthern":12703,"Ġacknow":12704,"etime":12705,"éĺ²å®Ī":12706,"è´§å¸ģ":12707,"print":12708,"æĪĺæĸĹæľº":12709,"Ġparticipate":12710,"æľĢä½İ":12711,"Ġyounger":12712,"äººç§°":12713,"elled":12714,"Ġnewsp":12715,"è§ĤéŁ³":12716,"Ġentry":12717,"Ġ1987":12718,"ç±³äºļ":12719,"Ġgluc":12720,"Ġveter":12721,"levision":12722,"ĠLib":12723,"agram":12724,"çĽ´åįĩ":12725,"La":12726,"é¦Ļæ¸¯éħįéŁ³":12727,"æĺĶ":12728,"è¾Ī":12729,"æł¼åĭĴ":12730,"éªĹ":12731,"èĵ¬":12732,"æ²Īéĺ³":12733,"Î½":12734,"æĺı":12735,"Ġcamera":12736,"itivity":12737,"irty":12738,"OC":12739,"èĪªçıŃ":12740,"orous":12741,"ä¸ĢæľŁ":12742,"Ġinstitution":12743,"112":12744,"ĠTimes":12745,"ä»£æĽ¿":12746,"æ¸¯åħĥ":12747,"ĠCancer":12748,"zed":12749,"ĠItaly":12750,"Ġattached":12751,"è®¨ä¼Ĳ":12752,"çļĦæĶ¯æĮģ":12753,"Ġoverl":12754,"æĮĩæĮ¥å®ĺ":12755,"æĳĶ":12756,"éĿĴæĺ¥":12757,"å¾·åĨĽ":12758,"Ġnan":12759,"å¢ŀå¼º":12760,"Ġemotions":12761,"Ġcommunicate":12762,"Ġremark":12763,"é¢ħ":12764,"æİ¢ç´¢":12765,"Ġsmoking":12766,"opic":12767,"æİ©":12768,"è½¦ç«Ļç»ĵæŀĦ":12769,"Ġends":12770,"Ġ1989":12771,"Ġdin":12772,"ferent":12773,"Ġregul":12774,"Ġtwenty":12775,"ä¹Ŀå·ŀ":12776,"å®ĪæĬ¤":12777,"Comm":12778,"Ġ150":12779,"åĩºçİ°äºĨ":12780,"çļĦæĥħåĨµ":12781,"Ġfabric":12782,"ä¹¦ä¸Ń":12783,"Ġcholesterol":12784,"rimination":12785,"OV":12786,"å¸Ńä½į":12787,"åĽ½å°ı":12788,"å¹´ä»ĸ":12789,"Ġwitness":12790,"å¸¸å¸¸":12791,"Ġunderlying":12792,"izer":12793,"Ġflo":12794,"Ġconstitution":12795,"ä½¥":12796,"åĵª":12797,"earchers":12798,"Ġæľ¬":12799,"å¾·å·Ŀ":12800,"å¸ĥéĩĮ":12801,"Ġtall":12802,"orph":12803,"Ã¢":12804,"gebra":12805,"Ġcontained":12806,"Ġfr":12807,"ä¸ªä½ĵ":12808,"ĠColor":12809,"Ġpercentage":12810,"è¿ĳä»£":12811,"äºĭåĬ¡æīĢ":12812,"fortunately":12813,"Ġä¸Ĭ":12814,"åŀ£":12815,"è§Ĩè§ī":12816,"ĠStar":12817,"éĶħ":12818,"ĠSciences":12819,"**":12820,"Ġkit":12821,"Ġdebate":12822,"Ġthy":12823,"ä»»æľŁ":12824,"Ġwhereas":12825,"ĠAdminist":12826,"Ġadministr":12827,"å§Ĭå¦¹":12828,"ãĢĳ":12829,"åĨħèĴĻåı¤":12830,"ipping":12831,"Ġreactions":12832,"lder":12833,"Ġaccum":12834,"é¢ĳçİĩ":12835,"è¯¦ç»Ĩ":12836,"ä¹ŀ":12837,"Ġpup":12838,"Ġpersist":12839,"æĳĩæ»ļ":12840,"Ġrelax":12841,"èĿĻ":12842,"ãĢĲ":12843,"Ġmos":12844,"Ġobservations":12845,"Ġunable":12846,"è§Ĥåħī":12847,"å¡Ķå°Ķ":12848,"çļĦæ¯įäº²":12849,"åį³å°Ĩ":12850,"èĿĻèĿł":12851,"å¤§æ°Ķ":12852,"oding":12853,"åıĳè¡ĮçļĦ":12854,"ĠIP":12855,"ĠBC":12856,"ĠNative":12857,"è®¾äºİ":12858,"ç»ĨèıĮ":12859,"èµ·åĪĿ":12860,"abeth":12861,"ç«ĭéĻ¶":12862,"umes":12863,"Ġprev":12864,"Ġvoltage":12865,"åľ¨ä¸Ń":12866,"å¤©æ´¥å¸Ĥ":12867,"èĪ¹åıª":12868,"å®ĮæĪĲäºĨ":12869,"èĽĭçĻ½è´¨":12870,"Ġcompetition":12871,"ĠPract":12872,"Ġhero":12873,"åħ¶ä¸Ńä¸Ģ":12874,"Ġgone":12875,"çĽ¸è¿ŀ":12876,"ä½ıæ°ĳ":12877,"Ġvariable":12878,"å¯¹åħ¶":12879,"isters":12880,"æ¶Ľ":12881,"ï¼īãĢģãĢĬ":12882,"ä¸½èİİ":12883,"å·¡æ´ĭ":12884,"Ġsharing":12885,"Ġtissues":12886,"ĠForest":12887,"riers":12888,"Ġnoise":12889,"å·¨å¤§çļĦ":12890,"Ġmembran":12891,"ĠDar":12892,"çłĶç©¶ä¸Ńå¿ĥ":12893,"çļĦåľ£":12894,"Êģ":12895,"Ġvote":12896,"æµ·åįĹ":12897,"Ġoccasion":12898,"Ġfalse":12899,"åľ¨èĭ±åĽ½":12900,"ãĥĭ":12901,"äº¤ç»Ļ":12902,"åĨ»":12903,"é¸¦":12904,"Ġdepartment":12905,"ĠPet":12906,"é¢ĨéĺŁ":12907,"Ġneur":12908,"ĠKeep":12909,"æĶĢ":12910,"cycl":12911,"Ġstable":12912,"å¤ªåİŁ":12913,"acebook":12914,"Ġraw":12915,"cons":12916,"Ġsupports":12917,"Ġvirtual":12918,"æĪĮ":12919,"æµģä¼ł":12920,"çĸ¯":12921,"åıĽä¹±":12922,"æĸ¯èĴĤ":12923,"è¶ħè¶Ĭ":12924,"åī¯ä¸»ä»»":12925,"Ġlies":12926,"æ¡Į":12927,"èĩªç§°":12928,"ç¼Ŀ":12929,"éĩĳåĪļ":12930,"åıĻåĪ©äºļ":12931,"Ġcoffee":12932,"äº¤æĺĵæīĢ":12933,"å¥¸":12934,"Ġfunctional":12935,"Ġpurchase":12936,"ç»ıçĶ±":12937,"Ġreserv":12938,"åĲĮæĹ¶ä¹Ł":12939,"èªĵ":12940,"Ġprogramming":12941,"Ġjoined":12942,"èı©èĲ¨":12943,"æľīä¸ī":12944,"æ±¶":12945,"ĠLanguage":12946,"Ġtrials":12947,"NG":12948,"ãĥĵ":12949,"åįģä¸īå¹´":12950,"Ġinstruments":12951,"Ġpreval":12952,"çļĦå¤©":12953,"Ġstands":12954,"éĽħåħ¸":12955,"Ġrow":12956,"ĠBoard":12957,"Ġborder":12958,"å®ļæľŁ":12959,"Ġresulted":12960,"esis":12961,"ä»ĸæĽ¾":12962,"ç«ĭéĻ¶å®Ľ":12963,"1919":12964,"éķĩåĮº":12965,"é»ĳæļĹ":12966,"hop":12967,"how":12968,"Ġbeliefs":12969,"ĠStudy":12970,"reland":12971,"Ġobjective":12972,"Ġlayers":12973,"Ġcalcium":12974,"ila":12975,"Ġexplo":12976,"called":12977,"Ġtaste":12978,"aked":12979,"Ġcontamin":12980,"æİ¥èĳĹ":12981,"æļĤæĹ¶":12982,"Ġcart":12983,"åº¸":12984,"ç»ıæµİåŃ¦":12985,"Ġimprovement":12986,"eg":12987,"ether":12988,"ãģĺ":12989,"Ġsucceed":12990,"çļĦä¸Ĭ":12991,"çªģåĩº":12992,"OM":12993,"åĩºèµĽ":12994,"ĠBrown":12995,"åīįåĲİ":12996,"äºĶä¸ĸ":12997,"æīĵè´¥":12998,"çģ«è½¦":12999,"Ġprompt":13000,"åĨłçĬ¶çĹħæ¯Ĵ":13001,"AG":13002,"Ġfounded":13003,"ĠKingdom":13004,"ba":13005,"ç«£å·¥":13006,"Ġmild":13007,"ç¥¸":13008,"èĬ½":13009,"pes":13010,"åĽ½åħ¬":13011,"åĩĨåĨ³èµĽ":13012,"å¸ĥæĶ¿ä½¿":13013,"éĢļè®¯":13014,"è®©ä»ĸ":13015,"yles":13016,"éĺľ":13017,"æĮĩæķ°":13018,"Ġcapture":13019,"Ġvulnerable":13020,"Ġnest":13021,"åĽ¾æ¡Ī":13022,"æ¤ħ":13023,"æĻ®é²ģå£«":13024,"Ġaccident":13025,"åħĪè¿Ľ":13026,"Ġrising":13027,"Ġemployment":13028,"Ġbread":13029,"éĢłåŀĭ":13030,"æĤŁ":13031,"Ġcrow":13032,"å¦Ĥä»Ĭ":13033,"Ġlegs":13034,"Ġtransportation":13035,"Ġagency":13036,"Ġsubs":13037,"Ġturns":13038,"Ġfighting":13039,"Ġpool":13040,"å¤§å¹ħ":13041,"æĭ¨":13042,"Ġhus":13043,"ä½ĨåĽł":13044,"gs":13045,"ĠDig":13046,"éķ¿å¤§":13047,"åĲİäºİ":13048,"æĿ°åĩº":13049,"å¤ĸåĽ´":13050,"åŀĴæīĵ":13051,"èŃ¦æĸ¹":13052,"ĠAI":13053,"ä»»å¤©åłĤ":13054,"æİ¥æĶ¶":13055,"Ġinsurance":13056,"Ġserver":13057,"alls":13058,"æĦıåĳ³":13059,"ĠAdv":13060,"æīĩ":13061,"è´·":13062,"ä¿Ŀéļľ":13063,"èĳĹæľī":13064,"åºĦä¸ºéĤ»":13065,"çĶ²ç»Ħ":13066,"pan":13067,"rovers":13068,"æĶ¯çº¿":13069,"å§Ķæīĺ":13070,"åºĨç¥Ŀ":13071,"æľĢæĹ©çļĦ":13072,"Ġdemonstrate":13073,"Ġbot":13074,"åĩºèĩª":13075,"Ġsupplies":13076,"åıĭè°Ĭ":13077,"éĻĦåĬł":13078,"æ²¿çº¿":13079,"æī©å¼ł":13080,"å¤§éĩıçļĦ":13081,"ÐºÐ°":13082,"äºļç¾İ":13083,"æĴ¤éĢĢ":13084,"åĲĳä¸ľ":13085,"Ġtrained":13086,"Met":13087,"Ġknows":13088,"åįıè°ĥ":13089,"æĪ¿éĹ´":13090,"éĺħè¯»":13091,"Ġlaunch":13092,"åİĮ":13093,"å·²äºİ":13094,"è¾¹çļĦ":13095,"while":13096,"éĺŁåĳĺ":13097,"Ġfever":13098,"OW":13099,"çº¦çĳŁå¤«":13100,"Ġru":13101,"Ġclust":13102,"è®¾è®¡çļĦ":13103,"æĹ¥åĲİ":13104,"æĹ¥å¼Ģå§ĭ":13105,"é¥²":13106,"Ġstring":13107,"ä½Ļäºº":13108,"éĺŁåıĭ":13109,"Ġwilling":13110,"Ġdioxide":13111,"æī£":13112,"ĠEr":13113,"æĵ¢":13114,"ìĿ":13115,"ç«ĻçļĦ":13116,"Ġrelation":13117,"çłĶç©¶çĶŁ":13118,"Ġcolleagues":13119,"æĶ¹ç¼ĸèĩª":13120,"Ġdrawing":13121,"Ġmales":13122,"ä¹ĭå¹´åı·":13123,"ocation":13124,"æĺİç¡®":13125,"ĠForce":13126,"å¤ļäºº":13127,"è¶ģ":13128,"ä¸ľäºļ":13129,"Ġphotograph":13130,"æĸ¥":13131,"éĢīåĩº":13132,"çĽ¸åĲĮçļĦ":13133,"Ġstroke":13134,"è¾ŀèģĮ":13135,"ĠåĲ´":13136,"åĪĻåľ¨":13137,"rite":13138,"åķĨåºĹ":13139,"Ġconfidence":13140,"iotic":13141,"æĸ¯åł¡":13142,"æĽ´å¤ļçļĦ":13143,"Ġregist":13144,"æĢ»ä¼ļ":13145,"LL":13146,"åºµ":13147,"è¡Įäºº":13148,"æ¬¡åŃĲ":13149,"Ġscene":13150,"Ġorient":13151,"Ġpartner":13152,"é¢ĨåħĪ":13153,"åŁİå¢Ļ":13154,"soft":13155,"Ġissued":13156,"Ġconnections":13157,"æħķå°¼":13158,"hered":13159,"Ġvan":13160,"Ġgenerations":13161,"Ġinner":13162,"æĹħå®¢éĵģéģĵ":13163,"RS":13164,"ented":13165,"è¶ĬæĿ¥":13166,"Ġfeedback":13167,"Ġweapons":13168,"å¤§å®¶":13169,"è´¬":13170,"é¢ł":13171,"æĽ¿ä»£":13172,"ĠMusic":13173,"èĩªæĪĳ":13174,"èĭ±éķĳ":13175,"æħĪåĸĦ":13176,"å·¡æ´ĭèĪ°":13177,"ãĢģãĢĬ":13178,"æ¯Ķå°Ķ":13179,"Ġguarant":13180,"App":13181,"å¹´èİ·å¾Ĺ":13182,"Ġsupposed":13183,"Ġinstructions":13184,"Ġterritory":13185,"åĨħåľ°":13186,"ä¿Ĺç§°":13187,"HA":13188,"ima":13189,"éħįéŁ³åĳĺ":13190,"Rec":13191,"ĠCy":13192,"æ¡Ĩ":13193,"ĠFamily":13194,"æ¨¡æĭŁ":13195,"éĽķåĥı":13196,"åľ°ä¸Ń":13197,"å¾·æĦıå¿Ĺ":13198,"gov":13199,"æľīä¸¤":13200,"Ġprove":13201,"Ġrhy":13202,"èī³":13203,"æ»ĭ":13204,"åħ¬ä¼ļ":13205,"éĥ½å¾¡åı²":13206,"å°±åľ¨":13207,"ĠGrand":13208,"igan":13209,"èĳµ":13210,"BT":13211,"å¸ĸ":13212,"Ġconclusion":13213,"æĪĲäºº":13214,"Ġcrime":13215,"éĢ®æįķ":13216,"Ġcos":13217,"åĬ¾":13218,"è¯Ħå®¡":13219,"ç»´ä¹Ł":13220,"fit":13221,"ç»´æĬ¤":13222,"Ġpresentation":13223,"çĭ¬ç«ĭçļĦ":13224,"sell":13225,"Ġgreenhouse":13226,"kins":13227,"ãĥĲ":13228,"åĪĳéĥ¨":13229,"æ³ķçļĦ":13230,"çĨĶ":13231,"Ġorgans":13232,"Ġunus":13233,"Ġflag":13234,"pread":13235,"Ġpip":13236,"ĠFree":13237,"ä¸ĵçĶ¨":13238,"Ġresolution":13239,"åĽ¾åĥı":13240,"Ġexists":13241,"ç§ĳçļĦ":13242,"åı·ä¸º":13243,"ĠEarly":13244,"ä¸¾åĬŀçļĦ":13245,"rial":13246,"æīĵè¿Ľ":13247,"æ¿Ĵ":13248,"åĿļæĮģ":13249,"Fran":13250,"Ġpositions":13251,"äººçĶŁ":13252,"1929":13253,"æ³Ħ":13254,"ä»¥è¥¿":13255,"Ġgrew":13256,"è¶ĬæĿ¥è¶Ĭ":13257,"åĩºå±Ģ":13258,"rot":13259,"Ġmaps":13260,"icious":13261,"åĩ¸":13262,"ä¸ĸçºªçļĦ":13263,"æ²¿å²¸":13264,"Ġmand":13265,"earing":13266,"èĤ¡æĿĥ":13267,"Ġrecept":13268,"Ġ32":13269,"Ġbreath":13270,"æħķå°¼é»ĳ":13271,"Ġdivision":13272,"Ġdemonstrated":13273,"æĿı":13274,"ĠIreland":13275,"ifest":13276,"æĥħèĬĤ":13277,"é©±åĬ¨":13278,"å¾·æĸ¯":13279,"Ġpair":13280,"è®¾è®¡å¸Ī":13281,"such":13282,"ä¸ĵç§ĳ":13283,"Ġmeters":13284,"zo":13285,"å¾Ĺå¥ĸ":13286,"æĪĺæľ¯":13287,"åİŁåĪĽ":13288,"Ġconsumer":13289,"ĠGree":13290,"é¢Ĩäºĭ":13291,"Ġç¬¬äºĮ":13292,"æ¸ħä»£":13293,"Ġindependence":13294,"!<|":13295,"elesc":13296,"æ£±":13297,"çĶ·å¥³":13298,"æĭĵè·ĭ":13299,"NS":13300,"ali":13301,"åĨħæĪĺ":13302,"Ġexamine":13303,"ä¸Ģéĥ¨":13304,"1928":13305,"çļĦæĹ¥":13306,"æµ¸":13307,"å§ĭå»ºäºİ":13308,"inating":13309,"ĠBig":13310,"éĢļçĶ¨":13311,"å¥ĸæľĢä½³":13312,"ç¥ĸåħĪ":13313,"idespread":13314,"Ġnerve":13315,"å½ĵå¤©":13316,"Ġputting":13317,"å¥ł":13318,"ä¸įè¯¦":13319,"æĶ¹è¿Ľ":13320,"åĸĿ":13321,"åĳİ":13322,"çİ¯çĲĥ":13323,"mann":13324,"Ġestimates":13325,"çī²":13326,"æ¸©æ³ī":13327,"mes":13328,"Ġéĥĳ":13329,"ĠWhere":13330,"å°Ĩåľ¨":13331,"æĺ¾èĳĹ":13332,"åŃĺåľ¨çļĦ":13333,"èĥĥ":13334,"ĠEst":13335,"ĠGeorg":13336,"Over":13337,"åĽ½æľī":13338,"Ġsheet":13339,"sen":13340,"èĻŀ":13341,"çĻ»ä¸Ĭ":13342,"1931":13343,"Ġhem":13344,"é¾Ļç±»":13345,"Ġdelay":13346,"HS":13347,"å«©":13348,"Ġspok":13349,"çĲĨåŃ¦":13350,"æĸĮ":13351,"ç§¯åĪĨ":13352,"èĳ£äºĭéķ¿":13353,"Ġequivalent":13354,"Med":13355,"åŀĭçĶµåĬĽæľºè½¦":13356,"çĻ¾å§ĵ":13357,"ç¡®ä¿Ŀ":13358,"è¯ĬæĸŃ":13359,"ĠMartin":13360,"era":13361,"ĠCOVID":13362,"Of":13363,"Ġships":13364,"quit":13365,"Ġuniversity":13366,"è¿ªå£«":13367,"èĢ¶å¤«":13368,"Ġsubstances":13369,"Ġpolitics":13370,"hma":13371,"ĠHy":13372,"Ġrecognition":13373,"dr":13374,"çª¦":13375,"åģļåĩº":13376,"è¢ľ":13377,"ãģĳ":13378,"èŀįåĲĪ":13379,"ĠĠĠĠ":13380,"MC":13381,"Ġahead":13382,"ĠCast":13383,"æĿĳåºĦ":13384,"rav":13385,"åĽļ":13386,"æĿ¥èĩªäºİ":13387,"car":13388,"Ġped":13389,"çİ°æľī":13390,"Ġhousing":13391,"Ġcav":13392,"Ġnob":13393,"ĠAcc":13394,"aph":13395,"æĸ¹éĿ¢çļĦ":13396,"ourage":13397,"1922":13398,"æīĭæľº":13399,"çļĦéĺ¿":13400,"åįĹæĺĮ":13401,"æľĢä¸º":13402,"scale":13403,"Ġcats":13404,"ĠVictor":13405,"åį«éĺŁ":13406,"Ġcenters":13407,"ureau":13408,"éĴł":13409,"ä¼ļä¸Ĭ":13410,"ä¸įçŁ¥":13411,"ighter":13412,"Ġdistur":13413,"TP":13414,"çĶµè§ĨèĬĤçĽ®":13415,"ç»´ä¹Łçº³":13416,"è¢«æĿĢ":13417,"asty":13418,"çļĦçĶŁæ´»":13419,"Ġrank":13420,"Ġpsychological":13421,"ading":13422,"umps":13423,"æĸĩå¸Ŀ":13424,"å¤©åºľ":13425,"Ġcomments":13426,"Ġeveryday":13427,"åħĥå¸ħ":13428,"Ġcarb":13429,"æĹĭè½¬":13430,"ĠCre":13431,"Ġpassage":13432,"æĺĨèĻ«":13433,"Ġassociation":13434,"Ġhoriz":13435,"Ġsettings":13436,"ĠPo":13437,"åıĳæİĺ":13438,"åľ¨éĤ£éĩĮ":13439,"etics":13440,"åĲįä¸¾äºº":13441,"ãĥ¡":13442,"çĽĳçĭ±":13443,"Ġmeasurement":13444,"è¿ªå£«å°¼":13445,"alm":13446,"Ġfold":13447,"Ġhur":13448,"ä¸İæİ¥å£¤çļĦå¸Ĥéķĩ":13449,"çĮľ":13450,"Ġsmooth":13451,"è¯ºæĽ¼":13452,"å±¥":13453,"ĠJac":13454,"Ġelection":13455,"æĹ¥æĬ¥":13456,"ĠPenn":13457,"ç»´åħĭ":13458,"Ġexpansion":13459,"ĠDistrict":13460,"Ġnearby":13461,"å¹´ä»»":13462,"ritis":13463,"åĸī":13464,"ĠAtlantic":13465,"ups":13466,"æŀ«":13467,"ãĥĸ":13468,"çºº":13469,"Ġartists":13470,"rooms":13471,"Ġgap":13472,"èĭ±åĨĽ":13473,"ä¸ŃåĽ½çļĦ":13474,"éģ®":13475,"igned":13476,"å¥½è¯Ħ":13477,"åĨľåľº":13478,"aya":13479,"Google":13480,"çĹķ":13481,"éħįè§Ĵ":13482,"åİ¦éĹ¨":13483,"çī©çļĦ":13484,"åį°åĪ·":13485,"åįĩæł¼ä¸º":13486,"abulary":13487,"Char":13488,"Even":13489,"ĠPop":13490,"åĽłåħ¶":13491,"ãĤĪ":13492,"ibl":13493,"éĢıéľ²":13494,"Ġmatters":13495,"è¿Ļé¡¹":13496,"é¢Ħå¤ĩ":13497,"Ġemployed":13498,"Ġpowers":13499,"1900":13500,"ä½¿çĶ¨äºĨ":13501,"éģŃéģĩ":13502,"ä¸Ĭæ¸¸":13503,"æ¯ıåĳ¨":13504,"æİĪæĿĥ":13505,"Ġhole":13506,"ä¸ĢèģĮ":13507,"Ġ1988":13508,"åĲĦåĽ½":13509,"è¾ĥå¤§":13510,"ä¸ĸçºªåĪĿ":13511,"Ġpainting":13512,"Ġscript":13513,"Ġï¼ļ":13514,"Ġwhatever":13515,"ä»ħæľī":13516,"çļĦåĪĨ":13517,"1927":13518,"åĮºåĪ«":13519,"Ġwasn":13520,"Ġepid":13521,"ĠAge":13522,"éķ°":13523,"èĭ±å°º":13524,"Ġmeasurements":13525,"liest":13526,"urrent":13527,"Ġdefine":13528,"ä¸İæŃ¤":13529,"åįķä¸Ģ":13530,"ĠTeam":13531,"ĠEastern":13532,"Ġagreed":13533,"Ġdelivery":13534,"ĠæľĪ":13535,"äºĭä¸Ń":13536,"éĽĨçļĦ":13537,"æĽ¾æĺ¯":13538,"Ġoblig":13539,"èĩĢé³į":13540,"itely":13541,"åĲĮæĹ¶ä¹Łæĺ¯":13542,"3000":13543,"Ġoutbre":13544,"ä¹¡æĿĳ":13545,"èĹ¤åİŁ":13546,"Ġdys":13547,"éĩĮè¾¾":13548,"å°Ħåħ¥":13549,"æĺİæ²»ä¸īåįģ":13550,"ushed":13551,"å¾·è¯Ń":13552,"çº§çļĦ":13553,"%)":13554,"å¾·ç½Ĺ":13555,"Ġinvolving":13556,"Ġfunds":13557,"Ġlegislation":13558,"å¹´ä¸ĸçķĮæĿ¯":13559,"ĠAgricult":13560,"ĠEth":13561,"èĲ¥åħ»":13562,"æ²Ļæ¼ł":13563,"osion":13564,"ĠEffect":13565,"æĺŁçļĦ":13566,"Ġoffering":13567,"chen":13568,"ori":13569,"âĢĿï¼ī":13570,"è¾ĵåħ¥":13571,"Ġment":13572,"Ġspending":13573,"æħ°":13574,"éģĹè¿¹":13575,"Ġinteractions":13576,"å¥ĸéĩĳ":13577,"everal":13578,"ĠServices":13579,"Ġcryst":13580,"ä¸įè¦ģ":13581,"Ġstrongly":13582,"Ġsurve":13583,"èı²å°Ķå¾·":13584,"ä¸»äºº":13585,"é«ĺæł¡":13586,"ĠYear":13587,"Ġpoison":13588,"èĸª":13589,"oli":13590,"èĢ¶å¾ĭ":13591,"åı¸ä»¤éĥ¨":13592,"ati":13593,"æĢ»éĿ¢ç§¯":13594,"åĽŀå¿Ĩ":13595,"Ġtrip":13596,"Ġ75":13597,"Sm":13598,"ĠConn":13599,"Ġtele":13600,"éĵ¶æ²³":13601,"ĠGuide":13602,"Ġchallenging":13603,"èº«ä¸º":13604,"åĴ¨è¯¢":13605,"åĢ¡":13606,"Ġcolumn":13607,"é¢Ĩå¯¼äºº":13608,"Gl":13609,"ãĢĤâĢľ":13610,"äºİæŃ¤":13611,"éķ¶":13612,"ĠHave":13613,"åŁİéĻħ":13614,"ä¿Ŀè¯ģ":13615,"åįłæį®":13616,"ä¼łç»ŁçļĦ":13617,"ĠWik":13618,"Ġdebt":13619,"OK":13620,"å¥³ç¥ŀ":13621,"Ġaccessible":13622,"Ġfrequent":13623,"åŀĤçĽ´":13624,"Ã±":13625,"Ġvolcan":13626,"gers":13627,"æ¢¦æĥ³":13628,"Ġvac":13629,"Ġrice":13630,"çº³å¾·":13631,"æĭħå½ĵ":13632,"ç«ŀéĢī":13633,"é¼ĵåĬ±":13634,"ĠFil":13635,"weight":13636,"èĲ¨æĭī":13637,"ishment":13638,"å·Ŀåİ¿":13639,"åĶ¯ä¸ĢçļĦ":13640,"Ġsections":13641,"æľ¬åī§":13642,"åĨħæľī":13643,"å¼ķè¿Ľ":13644,"åĭĴæĸ¯":13645,"Ġmode":13646,"èı±":13647,"åľ¨ä¸Ģä¸ª":13648,"Ġarchae":13649,"Ġholid":13650,"åĵŃ":13651,"oom":13652,"itamin":13653,"Ġmeal":13654,"Your":13655,"Ġcup":13656,"sm":13657,"æ¹ĸå¹¿":13658,"å°¸ä½ĵ":13659,"ç¾İåĽ½çļĦ":13660,"Ġrelief":13661,"Ġpublication":13662,"Ġhydrogen":13663,"æĺ¯ä»İ":13664,"Ġusage":13665,"çĽ¸åºĶ":13666,"éĩİçĶŁ":13667,"ĠCD":13668,"åħ¨åŀĴæīĵ":13669,"ults":13670,"ä¹¦åºĹ":13671,"è§Ĵåº¦":13672,"æĻ¯çĤ¹":13673,"raining":13674,"erior":13675,"æĭīå°Ķ":13676,"æĦŁæĥħ":13677,"Ġfemales":13678,"åĮł":13679,"æĶ¶è´¹":13680,"Ġexplanation":13681,"ĠPolic":13682,"SM":13683,"å±¡":13684,"åįĹèĩ³":13685,"Ġended":13686,"NHK":13687,"Ġfulf":13688,"çĽ®çļĦæĺ¯":13689,"åĲĦç±»":13690,"çªĳ":13691,"ĠçŁ³":13692,"ĠRock":13693,"åĬłå·¥":13694,"Ġmarkets":13695,"Ġtank":13696,"åįģåĽĽå¹´":13697,"å½¢å®¹":13698,"Ġcustomers":13699,"gical":13700,"Ġwidespread":13701,"Ġmaintaining":13702,"åĬłæĸ¯":13703,"çĶ·åŃ©":13704,"Ġfung":13705,"å¿ħè¦ģ":13706,"Ġindicated":13707,"Ġmoisture":13708,"Ġblow":13709,"ĠPlant":13710,"åĪĽå§ĭäºº":13711,"é¥¶":13712,"ä»¥ä¾¿":13713,"æĶ¶è§Ĩçİĩ":13714,"æŃ§":13715,"abled":13716,"èĢģæĿ¿":13717,"é²¨":13718,"æ¨¡çī¹":13719,"ĠâĨĴ":13720,"ä»¥ä¸ľ":13721,"æ²īç§¯":13722,"çĸ«èĭĹ":13723,"å¹´æ¯ķä¸ļäºİ":13724,"åı°åĮĹå¸Ĥ":13725,"Ġundert":13726,"Ġearn":13727,"Ġinsulin":13728,"she":13729,"åŃ¦åĽŃ":13730,"é©°":13731,"izabeth":13732,"Ġminerals":13733,"åı¦ä¸Ģæĸ¹éĿ¢":13734,"Ġarrange":13735,"Ġfu":13736,"ĠMel":13737,"åĪ©çļĦ":13738,"ãģ²":13739,"çĽ¸åıį":13740,"Ġdiagnosed":13741,"Ġsole":13742,"Ġruns":13743,"è½¯æĿ¡":13744,"å®¹çº³":13745,"æ§½":13746,"ĠMen":13747,"ä¹Łåı¯":13748,"æĬ¥çº¸":13749,"ĠEqu":13750,"æľªæľī":13751,"åĬŀçĲĨ":13752,"å¼ºåº¦":13753,"iral":13754,"åĲİåľ¨":13755,"åľ°äºļ":13756,"æł¼é²ģ":13757,"çĳ°":13758,"ĠAsian":13759,"å®¡åĪ¤":13760,"ĠTake":13761,"äºĮå±Ĥ":13762,"æ¬¡äºİ":13763,"ä¼Ĺè®®éĻ¢":13764,"é¥®é£Ł":13765,"Ġlaunched":13766,"åĽ½è¯Ń":13767,"ĠProp":13768,"æĭīå¾·":13769,"Ġformula":13770,"æĳ©å°Ķ":13771,"Ġdeclared":13772,"Ġmortality":13773,"åłĢ":13774,"Ġmining":13775,"PP":13776,"Ġcompare":13777,"Ġholding":13778,"æį·åħĭ":13779,"Ġislands":13780,"Ġforget":13781,"Ġworry":13782,"Ġblocks":13783,"Ġparticipation":13784,"ĠMah":13785,"Ġshot":13786,"Ġrecip":13787,"åİŁåŀĭ":13788,"ĠCentre":13789,"ä¸Ģéĥİ":13790,"èķĥ":13791,"Ġexercises":13792,"åĮĸä¸º":13793,"Ġsacr":13794,"opes":13795,"ĠOpen":13796,"æĪĺäºīä¸Ń":13797,"ãģĪ":13798,"è°Ĳ":13799,"ä¸¥æł¼":13800,"erest":13801,"Ñı":13802,"åĨľæĿĳ":13803,"1924":13804,"ĠLow":13805,"Ġreliable":13806,"åĪºæ¿Ģ":13807,"æļĤåģľ":13808,"ĠNetwork":13809,"osaur":13810,"ĠNaz":13811,"åľ¨åĨħçļĦ":13812,"äº¤æ±ĩ":13813,"å®¢ä¸²":13814,"èĪªçº¿":13815,"æľĽè¿ľ":13816,"ĠAccess":13817,"Ġcomposed":13818,"Ġcategories":13819,"çİ«":13820,"åħ¥åĽ´":13821,"åĪ¶æĪĲ":13822,"å¤ĸè§Ĥ":13823,"æŃ£ç¡®":13824,"Ġhun":13825,"Ġnone":13826,"æ·Ģ":13827,"otton":13828,"ä¾Ħ":13829,"vin":13830,"ĠWall":13831,"æ¬§çĽŁ":13832,"æĵħéķ¿":13833,"yer":13834,"Ġlaser":13835,"åħ¶åŃĲ":13836,"ĠLee":13837,"LC":13838,"ili":13839,"åĪ©çĽĬ":13840,"è´¢åĬ¡":13841,"å¸Įçī¹":13842,"ä½İäºİ":13843,"çĴĭ":13844,"ä¸Ńåľº":13845,"é©¬æģ©":13846,"Ġoperate":13847,"åľ¨è¥¿":13848,"Once":13849,"Ġmissing":13850,"çļĦèĥ½åĬĽ":13851,"åħ¬å¯ĵ":13852,"è¶ħçº§èģĶèµĽ":13853,"ä¸ľæ±ī":13854,"äºļå½ĵ":13855,"åī§ä¸Ń":13856,"Ġbrings":13857,"Ġplayers":13858,"ĠStep":13859,"wan":13860,"åĪ°çļĦ":13861,"æĶ¹è®¾":13862,"Ġestimate":13863,"inally":13864,"åĨĢ":13865,"Ġscan":13866,"ç¥ŀåľ£":13867,"èľĺ":13868,"åºıåĪĹ":13869,"ĠJohnson":13870,"ĠSpecial":13871,"æ©Ļ":13872,"operation":13873,"æ¥ł":13874,"æ¹ĸåĮĹçľģ":13875,"Ġfashion":13876,"åĩ¹":13877,"eli":13878,"ç§ĳè¿Ľå£«":13879,"çº¦æľī":13880,"å®¢è½¦":13881,"Ġmetabol":13882,"Ear":13883,"Ġholds":13884,"ĠMuslim":13885,"ĠScotland":13886,"Lear":13887,"ĠPC":13888,"Ġdepart":13889,"Ġcaptured":13890,"á¹":13891,"æŃĮåĶ±":13892,"çļĦä¸ĸçķĮ":13893,"riend":13894,"åĪĨä¹ĭä¸Ģ":13895,"éĵģè·¯å±Ģ":13896,"å¹³å®ļ":13897,"1500":13898,"Ġinfluenced":13899,"æĹ±":13900,"æ³ķåºŃ":13901,"å®ŀåĬĽ":13902,"é£İæĻ¯":13903,"Ġbreeding":13904,"Ġwithd":13905,"çĶŁçī©åŃ¦":13906,"Ġindustries":13907,"Ġid":13908,"Ġtheore":13909,"èĤĮèĤī":13910,"çģ«è½¦ç«Ļ":13911,"çĶ·äºº":13912,"Ġcovers":13913,"æ³°åĭĴ":13914,"Ġtexts":13915,"Ġpregnant":13916,"çİĭåĲİ":13917,"ĠJo":13918,"Ġteen":13919,"åħĪåıĳ":13920,"Ġentered":13921,"éĶ¥":13922,"forcement":13923,"à¦":13924,"åĲĮåŃ¦":13925,"åıĤä¸İäºĨ":13926,"Ġmatch":13927,"Ġinstalled":13928,"Every":13929,"æĢ¨":13930,"åľ£æ®¿":13931,"è¡Ģæ¶²":13932,"çļĦé©¬":13933,"åīįè¿Ľ":13934,"æĢģåº¦":13935,"ä¼ļè®®åĳĺ":13936,"èľĺèĽĽ":13937,"ä¸ªæĢ§":13938,"Ġmechanical":13939,"çļĦä¸į":13940,"è¿Ļåľº":13941,"Ġshif":13942,"éĩĩè®¿":13943,"åħµéĥ¨":13944,"åĳĺå¤ĸéĥİ":13945,"Ġhorses":13946,"åĮºåĪĨ":13947,"Ġevaluate":13948,"Ġannounced":13949,"ĠHeb":13950,"çĶ»éĿ¢":13951,"å±ħå§Ķä¼ļ":13952,"ĠClimate":13953,"å®¢æĪ·":13954,"ãĥĥãĤ¯":13955,"Play":13956,"Ġsignificance":13957,"æ³ª":13958,"ĠHor":13959,"Ġobesity":13960,"åĻ¨çļĦ":13961,"åĪĩå°Ķ":13962,"èģĶåĲĪä¼ļ":13963,"Ġnegot":13964,"Ġdestruction":13965,"å±±è¥¿çľģ":13966,"çľŁäºº":13967,"ä¼¤å®³":13968,"zer":13969,"çļĦåľ°åĮº":13970,"acher":13971,"å¹¸ç¦ı":13972,"Ġboy":13973,"æľĽè¿ľéķľ":13974,"Ġpra":13975,"ĠAst":13976,"ĠSir":13977,"dule":13978,"ĠCreat":13979,"çľĭè§ģ":13980,"Ġframe":13981,"estival":13982,"å¤ļä¼¦":13983,"Ġsmoke":13984,"ĠYoung":13985,"Ġaward":13986,"åĲİç»Ń":13987,"é«ĺæŀ¶":13988,"èµĦåĬ©":13989,"Ġessays":13990,"çī©åĵģ":13991,"ĠSecret":13992,"ĠList":13993,"è¯ŀçĶŁ":13994,"ette":13995,"åħ¶ä¸º":13996,"Ġrig":13997,"çºªå½ķçīĩ":13998,"è¢«å¹¶åħ¥":13999,"plant":14000,"åĶĩ":14001,"æİ¢éĻ©":14002,"æľīçĿĢ":14003,"æĿĢäºº":14004,"Ġ65":14005,"ĠSecurity":14006,"Ġglucose":14007,"æĥĳ":14008,"180":14009,"ç´¢æģ©":14010,"Ġfacility":14011,"ç©¿è¶Ĭ":14012,"ulty":14013,"éĩįå¤į":14014,"Ġarts":14015,"Ñĸ":14016,"Ġproof":14017,"Ġabandon":14018,"101":14019,"Ġasking":14020,"å®ĥä»¬çļĦ":14021,"å¸¸åĬ¡":14022,"Ġoutcome":14023,"Ġparallel":14024,"Î²":14025,"otal":14026,"åıĭå¥½":14027,"She":14028,"greg":14029,"ç¬ĥ":14030,"èĢĮæĿ¥":14031,"åĿ¤":14032,"Ġconstructed":14033,"Ġwound":14034,"å°§":14035,"Ġspaces":14036,"apse":14037,"Ġapproved":14038,"Ġguidance":14039,"Ġhistoric":14040,"æ±ģ":14041,"è¯¥çī©ç§įçļĦ":14042,"Ġintense":14043,"çĽ´åįĩæľº":14044,"Ġille":14045,"Ġtheories":14046,"ĠNov":14047,"ãĤı":14048,"åĽĽå¤§":14049,"å¤įæ´»":14050,"Ġedition":14051,"èĢĥå¯Ł":14052,"çģµéŃĤ":14053,"IDS":14054,"Ñĭ":14055,"å¹´æĪĲä¸º":14056,"Ġreduces":14057,"Ġcontrovers":14058,"Ġseeking":14059,"Ġartist":14060,"çħ§é¡¾":14061,"Ġrecommendations":14062,"Ġtube":14063,"Ġconven":14064,"çĽ¸è¾ĥ":14065,"åĿŀ":14066,"ç¿¡":14067,"Ġsurfaces":14068,"èĮĥåĽ´åĨħ":14069,"ĠImm":14070,"Ġtrouble":14071,"ç¬¦åı·":14072,"df":14073,"Ġdesigns":14074,"Ġimmigr":14075,"Ġcircle":14076,"oir":14077,"äºļçĽ®":14078,"rency":14079,"ç¼ĸåĪ¶":14080,"Ġmerely":14081,"ç»´ä¿®":14082,"ĠItalian":14083,"é¢ĺæĿĲ":14084,"ä¸ģçĽ®":14085,"ä¹Łæ²¡æľī":14086,"åĽŀåºĶ":14087,"Ġbridge":14088,"ç¾İæľ¯é¦Ĩ":14089,"Ġcards":14090,"Ġshut":14091,"ç³ķ":14092,"ĠArist":14093,"ĠAngel":14094,"RC":14095,"åľ°å½¢":14096,"ĠDou":14097,"æ¼Ķèīº":14098,"Ġrocks":14099,"ĠHoly":14100,"ä½įçļĦ":14101,"ä»»æķĻ":14102,"æ¨¡å¼ıäº§åľ°":14103,"Ġforth":14104,"Ġcomplicated":14105,"Ġboys":14106,"æ¶Īéĺ²":14107,"Ġvisitors":14108,"æłªå¼ı":14109,"åĬ¨è½¦ç»Ħ":14110,"1923":14111,"Ġdamaged":14112,"Ġmicrosc":14113,"ä¼Ļä¼´":14114,"ĠWindows":14115,"éŁ¶":14116,"ç¦§":14117,"çĶºæĿĳ":14118,"èĻļæŀĦ":14119,"ÏĦ":14120,"Ġcentre":14121,"å½¢æĪĲçļĦ":14122,"Ġath":14123,"ĠRef":14124,"å£¬":14125,"è¡¥åħħ":14126,"Ġcompound":14127,"ä¸ĭæ¸¸":14128,"ãĤ¬":14129,"åĲĳè¥¿":14130,"è´Ŀåħĭ":14131,"Ġfacing":14132,"ivered":14133,"æĽ¾è¢«":14134,"æķĻèĤ²éĥ¨":14135,"ä¸ľåįĹäºļ":14136,"åºĩ":14137,"æĸ¯åĴĮ":14138,"æłªå¼ıä¼ļç¤¾":14139,"iro":14140,"è¿Ļä¹Łæĺ¯":14141,"Ġarrest":14142,"Ġcontrols":14143,"Ġdanger":14144,"æĩ¿":14145,"ä¸ĭæĸ¹":14146,"Ġproven":14147,"æ¸¸æĪıä¸Ń":14148,"Ġæĺ¯":14149,"æ°®":14150,"çĮ¿":14151,"Ġroles":14152,"Ġintegrated":14153,"Ġproportion":14154,"Ġhealing":14155,"å¸¸è§Ħ":14156,"è´¹çĶ¨":14157,"uan":14158,"çļĦæīĢæľī":14159,"å¹´åĩºçīĪ":14160,"æŃ£ä¹ī":14161,"å¼Ĥå¸¸":14162,"ĠEngineering":14163,"BO":14164,"å¤§åĲĮ":14165,"Ġaccuracy":14166,"idity":14167,"éĿ¢ä¸´":14168,"neum":14169,"Ġpharm":14170,"Ġphoto":14171,"å§Ĳå¦¹":14172,"Ġboat":14173,"ç¯ĩå°ıè¯´":14174,"çİĽä¸½äºļ":14175,"bar":14176,"åĽ½éĵģ":14177,"åı¤å±ĭ":14178,"äº®çĽ¸":14179,"ĠBill":14180,"æ¸¸åĩ»":14181,"Ġreceiving":14182,"è°ĭæĿĢ":14183,"çĽĨåľ°":14184,"äºĨè®¸å¤ļ":14185,"ç¦ıéŁ³":14186,"éĻķè¥¿çľģ":14187,"Ġrely":14188,"äºīå¤º":14189,"çĶŁæ´»åľ¨":14190,"Ġhonor":14191,"Ġingredients":14192,"å¾Ļ":14193,"èį£èİ·":14194,"Ġpreparation":14195,"è¡Ģç®¡":14196,"Ġdrawn":14197,"craft":14198,"1903":14199,"ç¬Ľ":14200,"ĠLo":14201,"Ġintest":14202,"ounter":14203,"Ġconversation":14204,"å¼ŁåŃĲ":14205,"Man":14206,"ema":14207,"å¹¶æĹł":14208,"åİŁåĪĻ":14209,"èī²å½©":14210,"ä»įåľ¨":14211,"è´¢äº§":14212,"å¤§ä½¿é¦Ĩ":14213,"arsh":14214,"%.":14215,"trans":14216,"è½¦ä½ĵ":14217,"Ġdose":14218,"å¤ıå¤©":14219,"Î¹":14220,"Ġsession":14221,"icit":14222,"å¤§äºĭ":14223,"æĢİ":14224,"ĠChristmas":14225,"Ġviruses":14226,"æīĺé©¬æĸ¯":14227,"ĠResources":14228,"Ġcleaning":14229,"amins":14230,"éĽĨåĲĪ":14231,"åľŁå£¤":14232,"Ġcounty":14233,"Ġburning":14234,"top":14235,"ĠTre":14236,"Ġongoing":14237,"æ³¢çī¹":14238,"Ġhazard":14239,"Ġradical":14240,"åķ¤":14241,"åľ£è¯ŀ":14242,"Ġconstantly":14243,"è¿ĻæĹ¶":14244,"æ°¸è¿ľ":14245,"Ġcategory":14246,"è¢«åıĳçİ°":14247,"å¸ĥç½®":14248,"æ¶¡":14249,"ä¼Ĭæĭīåħĭ":14250,"Ġrepair":14251,"åķĨåľº":14252,"Ġpestic":14253,"å¤§åĨĽ":14254,"ĠSym":14255,"å¼ºçļĦ":14256,"Ġtight":14257,"åıĳèĤ²":14258,"å±ħä½ıåľ¨":14259,"Ġbabies":14260,"ç¿¡ç¿ł":14261,"ĠSa":14262,"rous":14263,"CN":14264,"æķ·":14265,"åĬłåĪ©äºļ":14266,"çĶ°ä¸Ń":14267,"ĠBefore":14268,"'m":14269,"Ġdistributed":14270,"iological":14271,"Ġstre":14272,"Ġinher":14273,"ä¸Ģå¤©":14274,"æ¸ħæ¥ļ":14275,"èİ±èĮµ":14276,"iability":14277,"Ùħ":14278,"åĿŁ":14279,"å±±çļĦ":14280,"ä¸Ģå±Ĥ":14281,"Ġrivers":14282,"èģĶåĨĽ":14283,"éĽĨä½ĵ":14284,"Ġswim":14285,"!!!!!!!!!!!!!!!!!!!!!!!!!!!!!!!!!!!!!!!!!!!!!!!!!!!!!!!!!!!!!!!!!!!!!!!!!!!!!!!!!!!!!!!!!!!!!!!!!!!!!!!!!!!!!!!!!!!!!!!!!!!!!!!!!!!!!!!!!!!!!!!!!!!!!!!!!!!!!!!!!!!!!!!!!!!!!!!!!!!!!!!!!!!!!!!!!!!!!!!!!!!!!!!!!!!!!!!!!!!!!!!!!!!!!!!!!!!!!!!!!!!!!!!!!!!!!!!!":14286,"ocial":14287,"éķ¿æĺ¥":14288,"çľģçļĦ":14289,"Ġfalls":14290,"æµ´":14291,"èĤĩ":14292,"Ġplus":14293,"åĮĹå®ĭ":14294,"ĠZeal":14295,"çºł":14296,"éħĭ":14297,"åĵĪåĪ©":14298,"ĠEdward":14299,"æł¼æĭīæĸ¯":14300,"last":14301,"ä¸»åĬ¨":14302,"ersonal":14303,"Ġrespectively":14304,"har":14305,"åĬ£":14306,"eers":14307,"éģĵå¤«":14308,"oul":14309,"ä¸Ģç³»åĪĹ":14310,"aret":14311,"Ġvarieties":14312,"Part":14313,"ĠâĢ¢":14314,"Ġstimul":14315,"Ġintellectual":14316,"hent":14317,"Ġye":14318,"é©¬å¾·éĩĮ":14319,"åı¯æĺ¯":14320,"çīŁ":14321,"Ġcoastal":14322,"æİĴè¡Įæ¦ľ":14323,"Ġske":14324,"isdom":14325,"Ġmicrob":14326,"å¸ĥåħ°":14327,"ruption":14328,"çī¹æĢ§":14329,"ãĤģ":14330,"éħ¯":14331,"æĴĳ":14332,"Ġsomewhat":14333,"Ġminute":14334,"Ġchest":14335,"æ¶ĪçģŃ":14336,"SD":14337,"olving":14338,"Ġturning":14339,"Ġwine":14340,"ifferent":14341,"ç¥·":14342,"é¦ĸåº¦":14343,"è¯»èĢħ":14344,"å¤©æĸĩåı°":14345,"rary":14346,"Ġbath":14347,"ä¼ŀ":14348,"oples":14349,"æľĢæľī":14350,"Ġtheme":14351,"åºĦæĿĳ":14352,"Ġtemple":14353,"Ġstreet":14354,"æ¬ł":14355,"ĠIndians":14356,"example":14357,"Ġnervous":14358,"æĪļ":14359,"ĠLar":14360,"Ġevil":14361,"èº²":14362,"ç»Ļäºĭä¸Ń":14363,"Ġphysics":14364,"Ġ1986":14365,"Ġconsidering":14366,"Ġgalax":14367,"uality":14368,"Ġrespiratory":14369,"æ·¡æ°´":14370,"Ġbutter":14371,"å¦ĤåĲĮ":14372,"Ġbeings":14373,"1925":14374,"æīŃ":14375,"åĢ¼å¾Ĺ":14376,"èĤ¡ä¸ľ":14377,"Ġescape":14378,"ä¸Ģåıª":14379,"å¯¹ç§°":14380,"æ¦´":14381,"ixture":14382,"heric":14383,"Ġmanip":14384,"å®Įé¢ľ":14385,"èĦĬæ¤İ":14386,"ami":14387,"è£¸":14388,"ÙĨ":14389,"1917":14390,"ude":14391,"æį®è¯´":14392,"Hz":14393,"ä¸ºæľŁ":14394,"å¸Įå°Ķ":14395,"æ´¾çļĦ":14396,"æİ¨æµĭ":14397,"Sim":14398,"éĹ¯":14399,"å±ķçİ°":14400,"è®¤åı¯":14401,"Ġuncertain":14402,"Ġmolecular":14403,"Ĥ¬":14404,"Ġcharacterized":14405,"Ġlegisl":14406,"thritis":14407,"æĪĲç«ĭäºĨ":14408,"eness":14409,"ä¸ºä¸ŃåĽ½":14410,"ĠTop":14411,"ĠEU":14412,"ä¸ľåĮº":14413,"Ġrefuge":14414,"ç¬¬ä¸Ģæ¬¡ä¸ĸçķĮå¤§æĪĺ":14415,"éĻ¨çŁ³":14416,"Ġforg":14417,"åĭĩå£«":14418,"cyclop":14419,"ĠNon":14420,"ĠChange":14421,"Ġfarming":14422,"Ġvictims":14423,"Ġloved":14424,"ä¸ĢæĶ¯":14425,"å®¶ä¹¡":14426,"Ġrid":14427,"å¥¥åı¤":14428,"idential":14429,"æĶ¿åºľçļĦ":14430,"åĲİæĿ¥çļĦ":14431,"å½Ĵç±»":14432,"Ġanalys":14433,"å·¨äºº":14434,"è¾ĥä½İ":14435,"Ġpreventing":14436,"å¢ŀåĬłäºĨ":14437,"rox":14438,"ĠSat":14439,"ä¹ĭä¹±":14440,"è·Į":14441,"PR":14442,"åĽ´æ£ĭ":14443,"è¯ĳä¸º":14444,"é£ŀè¡Įåĳĺ":14445,"Ġbeauty":14446,"ÏĤ":14447,"Ġpounds":14448,"Ġopposed":14449,"Ġfishing":14450,"Ġvariables":14451,"å®°çĽ¸":14452,"æ³Į":14453,"å¼ĢåĬŀ":14454,"é¦ĸåºľ":14455,"ĠWho":14456,"æŁĵèī²":14457,"åŃŁåĬłæĭī":14458,"åŃĲåħ¬åı¸":14459,"ĠRom":14460,"outs":14461,"160":14462,"aded":14463,"ä¸»ç®¡":14464,"Ġneither":14465,"èģĮåĳĺ":14466,"ä¿ĿæĬ¤åĮº":14467,"å·¥éĥ¨":14468,"Ġowner":14469,"åıĤè°ĭéķ¿":14470,"ĠPot":14471,"çķľ":14472,"Ġparas":14473,"ç©¿è¿ĩ":14474,"Ġmoves":14475,"Ġdependent":14476,"å¹´ä»¥":14477,"ä¸Ĭåľº":14478,"ä»İæľª":14479,"åĽŀåĽ½":14480,"è¿ģç§»":14481,"Ġseconds":14482,"ĠSup":14483,"ä¸Ĭæĸ¹":14484,"ç¼´":14485,"ediatric":14486,"Ġcollaboration":14487,"è¾£":14488,"éħįå¤ĩ":14489,"ç¦ıå·ŀ":14490,"Ġsubsequent":14491,"æľĿæĹ¥":14492,"Ġmaintained":14493,"PV":14494,"Ġsales":14495,"itals":14496,"olk":14497,"çº±":14498,"Ġincred":14499,"Ġmessages":14500,"Ġwait":14501,"ĠTim":14502,"æ£ļ":14503,"é¡ºæ²»":14504,"Ġdates":14505,"åĨħäºļ":14506,"ç»Ħéķ¿":14507,"è¶³æĢ»":14508,"ä½ĵèĤ²é¦Ĩ":14509,"Ġadvert":14510,"ĠOxford":14511,"Ġtract":14512,"ç¦»å©ļ":14513,"äºĮåįģåİħ":14514,"Ġinterpretation":14515,"oric":14516,"éĵĿ":14517,"èĪªç©ºåħ¬åı¸":14518,"elfare":14519,"Ġ1985":14520,"Ġexcessive":14521,"sk":14522,"otes":14523,"åĨĽäºº":14524,"æĿĳæ°ĳ":14525,"Gu":14526,"æĢ»æķĻåĮº":14527,"iva":14528,"Ġdiscrimination":14529,"Ġbrush":14530,"ĠCoast":14531,"ä¸ºé£Ł":14532,"åħĭéĽ·":14533,"çĲĥè¿·":14534,"Ġabnormal":14535,"Ġrealize":14536,"Ġadequate":14537,"herent":14538,"icy":14539,"å¯¼å¸Ī":14540,"ohyd":14541,"Ġcareful":14542,"çĤ¸å¼¹":14543,"ĠZealand":14544,"è¿ĺåľ¨":14545,"ĠMoreover":14546,"åİŁä½ıæ°ĳ":14547,"è¿Ľè¡ĮçļĦ":14548,"æģĭçĪ±":14549,"anes":14550,"ĠHospital":14551,"é»ı":14552,"ailed":14553,"Ġblind":14554,"ä¸»ä¹īèĢħ":14555,"çŃĸçķ¥":14556,"Ġrarely":14557,"ĠCommunity":14558,"ĠDen":14559,"unicip":14560,"æĹ¥æľ¬çļĦ":14561,"Ġ400":14562,"èŃ¦åĳĬ":14563,"Ġlights":14564,"Ġengaged":14565,"amber":14566,"åĲįåı¤å±ĭ":14567,"æŃĮåī§":14568,"æī¿æĭħ":14569,"Ġirrit":14570,"Ġç¾İåĽ½":14571,"æĺ¯ä¸ºäºĨ":14572,"1914":14573,"ĠMoon":14574,"å½±è¯Ħ":14575,"Ġjump":14576,"iox":14577,"Ġfavorite":14578,"âĹ":14579,"Ġcommitted":14580,"æĮĩç¤º":14581,"ollowing":14582,"Ġchick":14583,"Ġclothing":14584,"airy":14585,"Ġstrict":14586,"ĠIV":14587,"ä¸ŃåįİèģĮæ£Ĵ":14588,"Ġspectrum":14589,"Ġcalories":14590,"ä¿±":14591,"é²ģæĸ¯":14592,"æĵ¦":14593,"Ġtons":14594,"æľĪèµ·":14595,"riz":14596,"æĸ°åĮº":14597,"ä¼ĬåĪ©":14598,"åĽ½å®¶åħ¬åĽŃ":14599,"Ġseemed":14600,"Ġheating":14601,"åħĭåĬ³":14602,"Ġscore":14603,"rowing":14604,"1912":14605,"aming":14606,"ishop":14607,"gon":14608,"making":14609,"éĩįè§Ĩ":14610,"äºĭå®ŀä¸Ĭ":14611,"Ġbiod":14612,"Ġgradually":14613,"åı°ä¸Ńå¸Ĥ":14614,"åĵĪå°Ķæ»¨":14615,"äºļç¾İå°¼äºļ":14616,"äººä¸º":14617,"æĥ³æ³ķ":14618,"éĥĳå·ŀ":14619,"ois":14620,"ĠSometimes":14621,"æĹ¥çĶ±":14622,"Ġagents":14623,"Today":14624,"oston":14625,"æĺİä»£":14626,"æĺŁéĻħ":14627,"class":14628,"ĠPrinc":14629,"èµ¢å¾ĹäºĨ":14630,"ä¸įå¾Ĺä¸į":14631,"Ġcontemporary":14632,"ovascular":14633,"é¡ºåºı":14634,"health":14635,"1926":14636,"èµĽçļĦ":14637,"æĶ»åħ¥":14638,"âĦĥ":14639,"esides":14640,"åįĹå®ĭ":14641,"Ġelectro":14642,"Dav":14643,"çī¹çĥĪ":14644,"isco":14645,"ç§ĺä¹¦éķ¿":14646,"National":14647,"ĠAgency":14648,"æ¯ıæ¬¡":14649,"åĪĿå¹´":14650,"Ġofficers":14651,"ãĥ§":14652,"TE":14653,"oids":14654,"è·µ":14655,"é¢Ħç®Ĺ":14656,"Ġphotos":14657,"Ġsought":14658,"Ġplenty":14659,"spect":14660,"Ġbomb":14661,"å¤§å¸Ŀ":14662,"Ġdetection":14663,"Ġsilver":14664,"å«¡":14665,"éĢłæĪĲçļĦ":14666,"Because":14667,"Ġtut":14668,"Ġinn":14669,"æĮº":14670,"Ġoverw":14671,"Ġabsence":14672,"èŀºæĹĭ":14673,"çļĦè¥¿":14674,"å¹¿å²Ľ":14675,"Ġcopper":14676,"ĠThree":14677,"éªļ":14678,"Ġdefense":14679,"bles":14680,"adder":14681,"æµĳ":14682,"ĠMethod":14683,"å¤©æ°Ķ":14684,"æµģåĬ¨":14685,"Ġtransp":14686,"éĻ¤æŃ¤":14687,"åįģäºĶå¹´":14688,"åŃ£èĬĤ":14689,"åį°è±¡":14690,"ä»£è¡¨å¤§ä¼ļ":14691,"Ġconfirmed":14692,"idal":14693,"èĭ¹":14694,"è¯¥åī§":14695,"Ġcrim":14696,"mi":14697,"Ġmood":14698,"çĭ©":14699,"Ġbranches":14700,"èħĵçī¹çĥĪ":14701,"Ġsubstantial":14702,"Ġdance":14703,"æĹ¥è¯Ń":14704,"Ġring":14705,"Ġshock":14706,"ĠQuest":14707,"æľīä¸¤ä¸ª":14708,"Ġpresents":14709,"ĠLeg":14710,"è°ĪåĪ¤":14711,"ĠFurthermore":14712,"otle":14713,"ç§ĳä¼ļè¯ķ":14714,"aska":14715,"Ġattempts":14716,"ÙĬ":14717,"Ġdelivered":14718,"ĠRam":14719,"å¤ļæł·":14720,"Ġpoem":14721,"Ġjudge":14722,"Ġscreening":14723,"åľ¨ä»ĸçļĦ":14724,"æľºåĬ¨":14725,"çī¹å°Ķ":14726,"çīĩå°¾":14727,"Ġacute":14728,"Ġbringing":14729,"Ġencouraged":14730,"Ġfairly":14731,"action":14732,"Ġknowing":14733,"Ġguard":14734,"ĠMD":14735,"Ġwriters":14736,"åŀĭæľºè½¦":14737,"ĠEc":14738,"çĳ¶":14739,"éĢģåĪ°":14740,"æ²ĥå°Ķ":14741,"night":14742,"amination":14743,"æĢ»åĨ³èµĽ":14744,"è´ª":14745,"ĠThough":14746,"Ġ36":14747,"Ġplane":14748,"æ£ĭåŃĲ":14749,"Ġremoval":14750,"lines":14751,"ä¸¢":14752,"iner":14753,"å¯ħ":14754,"Ġcomfortable":14755,"Ġimplications":14756,"åķ¦":14757,"Ġsigned":14758,"åĽŃåĮº":14759,"ĠDivision":14760,"aus":14761,"Ġtub":14762,"åĴĮä»ĸçļĦ":14763,"opher":14764,"Ġfocuses":14765,"Ġangle":14766,"ç¿Įå¹´":14767,"BL":14768,"ĠSand":14769,"éħ°":14770,"Ġprincipal":14771,"ä¸įåıĺ":14772,"ĠJul":14773,"Ġflower":14774,"Ġmathematics":14775,"ĠPak":14776,"åħ±è®¡":14777,"ĠStat":14778,"éĥ¡çİĭ":14779,"å·¦ç¿¼":14780,"acco":14781,"ç¥Ńç¥Ģ":14782,"Ġimplemented":14783,"çĬ¹å¤ªäºº":14784,"ĠLight":14785,"Ġtelevision":14786,"åĩºçİ°çļĦ":14787,"ĠåŃĻ":14788,"ä¸ĢçŃī":14789,"1921":14790,"å¹³å®ī":14791,"Ġcompris":14792,"çģ°èī²":14793,"ĠOhio":14794,"éħ±":14795,"Ġnewly":14796,"Ġdollars":14797,"htt":14798,"Ġaims":14799,"åĩºæĿ¥çļĦ":14800,"emia":14801,"erman":14802,"Ġpanel":14803,"å¹´ä¸Ń":14804,"Ġgro":14805,"ĠOl":14806,"ĠArticle":14807,"Ġpit":14808,"ptions":14809,"å·¥åķĨ":14810,"å¸ĪèĮĥå¤§åŃ¦":14811,"Ġcarrying":14812,"ecess":14813,"ä¹ĭéĻħ":14814,"Ġexamination":14815,"Ġgrant":14816,"æĹ©æľŁçļĦ":14817,"Ġvon":14818,"una":14819,"åĽ´ç»ķ":14820,"Ġåīį":14821,"ä¿ĿåĬłåĪ©äºļ":14822,"çī§å¸Ī":14823,"Ġov":14824,"ï¼ī-":14825,"Ġtranslation":14826,"produ":14827,"Ġfurn":14828,"Ġempt":14829,"åĢ¾åĲĳ":14830,"Ġphenomenon":14831,"gence":14832,"è·¯ä¸Ĭ":14833,"Ġspin":14834,"Ġexamined":14835,"å¹´çĲĥåŃ£":14836,"Ġgut":14837,"Ġitem":14838,"ĠPen":14839,"istical":14840,"åĵº":14841,"ogether":14842,"åı¸æľº":14843,"æĹ§åĿĢ":14844,"Ġç¬¬ä¸Ģ":14845,"å½¢çļĦ":14846,"Ġcriteria":14847,"ĠMult":14848,"ä¹ĭåĲį":14849,"å¨ģå°¼æĸ¯":14850,"éĺ¶çº§":14851,"Ġfilter":14852,"æľĶ":14853,"åľ¨ä½į":14854,"ĠWay":14855,"æī§æķĻ":14856,
[...]
